{
  "version": "1.0",
  "truncation": null,
  "padding": null,
  "added_tokens": [
    {
      "id": 0,
      "content": "<PAD>",
      "single_word": false,
      "lstrip": false,
      "rstrip": false,
      "normalized": false,
      "special": true
    },
    {
      "id": 1,
      "content": "<SOS>",
      "single_word": false,
      "lstrip": false,
      "rstrip": false,
      "normalized": false,
      "special": true
    },
    {
      "id": 2,
      "content": "<EOS>",
      "single_word": false,
      "lstrip": false,
      "rstrip": false,
      "normalized": false,
      "special": true
    },
    {
      "id": 3,
      "content": "<UNK>",
      "single_word": false,
      "lstrip": false,
      "rstrip": false,
      "normalized": false,
      "special": true
    },
    {
      "id": 4,
      "content": "10K 6E 1X 4K 4L 8E 1X 3L 1K 4L 3E 1O 1E 1O 2E 1X 3L 1K 4L 1E 2O 1E 1O 3E 1X 3L 1K 1L 1A 1L 1D 1O 1D 1E 1O 1E 1O 2E 1X 3L 1K 1A 1L 1O 1E 1D 1E 1O 1E 1O 3E 1X 5L 1O 1E 1O 1E 1O 1E 1O 2E 2K 1X 2L 1K 1L 1K 1E 1O 1E 1O 1E 1O 1E 1O 3K 1X 4L 1K 1O 1E 1O 1E 1O 1E 1O 1L 3K 1X 3L 1K 1O 1E 1O 1E 1O 1E 1O 1L 2K 2L 1X 2K 1L 1K 1E 1O 1E 1O 1E 5K 2L 1X 2K 1L 4K 2L 2A 2M 1A 2L 1X 3K 6A 2L 2K 1M 2L 1X 2K 8L 3K 1M 2L 1X 3K 5L 5K 3L 1X 13K 3L",
      "single_word": false,
      "lstrip": false,
      "rstrip": false,
      "normalized": false,
      "special": true
    },
    {
      "id": 5,
      "content": "12K 2E 2K 1X 4P 1K 2P 4K 3E 2K 1X 4P 1K 2P 5K 2A 2K 1X 4P 1K 2P 4K 1E 2A 1E 1K 1X 2P 1A 1P 1K 1A 1P 3K 1E 1A 2E 2K 1X 4P 1K 2P 3K 2A 2E 2K 1X 1P 1A 6K 1A 1P 1K 2E 3K 1X 2P 1K 1A 1P 1K 1P 1K 2P 6K 1X 1P 2K 2P 11K 1X 1P 6K 1A 1K 1A 1P 5K 1X 1P 1A 1P 1K 2P 1K 1P 1K 2P 5K 1X 3P 1K 1P 3K 1P 7K 1X 1P 4K 1A 1P 1K 1P 7K 1X 2K 1A 1P 1K 2P 9K 1X 2K 2P 12K 1X 16K",
      "single_word": false,
      "lstrip": false,
      "rstrip": false,
      "normalized": false,
      "special": true
    },
    {
      "id": 6,
      "content": "12N 4K 1X 16N 1X 5N 4H 3Z 4N 1X 3N 5Z 2H 2A 1Z 3N 1X 2N 2H 8Z 2H 2N 1X 2N 10H 1A 1H 1N 1L 1X 2N 1A 6H 3A 2H 1N 1L 1X 3N 3A 9N 1A 1X 1K 5N 4H 3Z 2N 1A 1X 1K 3N 5Z 2H 2A 1Z 2N 1X 3N 2H 8Z 2H 1N 1X 3N 10H 1A 1H 1N 1X 3N 1A 6H 3A 2H 1N 1X 4N 5A 5H 2N 1X [ Re2 ] [ 16N ]",
      "single_word": false,
      "lstrip": false,
      "rstrip": false,
      "normalized": false,
      "special": true
    },
    {
      "id": 7,
      "content": "16K 1X 5K 1A 1E 9K 1X 5K 2A 9K 1X 4K 1E 1A 2E 8K 1X 4K 3A 1E 1K 2A 5K 1X 4K 3A 1E 1K 2V 5K 1X 3K 1E 3A 1K 1A 1Z 1V 1A 4K 1X [ Re2 ] [ 2K 1E 4A 1K 1Z 3V 4K 1X ] 2K 1E 3A 1K 1A 1V 2E 1V 1A 3K 1X 2K 2E 1A 1K 1A 1V 1E 1A 2E 1V 1A 2K 1X 3K 2E 1K 1V 1E 1A 4E 1A 2K 1X 6K 1A 6E 1A 2K 1X 6K 2A 4E 2A 2K 1X 7K 6A 3K 1X 16K",
      "single_word": false,
      "lstrip": false,
      "rstrip": false,
      "normalized": false,
      "special": true
    },
    {
      "id": 8,
      "content": "16K 1X 5K 2E 9K 1X 4K 3E 1K 1E 7K 1X 7E 1K 1E 7K 1X 6E 1O 1K 1O 7K 1X 6E 2H 1D 7K 1X 5E 1O 3D 1O 6K 1X 3K 2E 1D 1H 3D 6K 1X 3K 1E 1O 1H 1O 1D 1O 1D 1O 5K 1X 3K 1O 1D 1H 4D 2O 4K 1X 3K 1O 3D 1O 2D 1E 1O 4K 1X 3K 1O 6D 2O 4K 1X 3K 1O 1E 4D 3O 4K 1X 4K 6O 1E 5K 1X 5K 2O 1E 2O 6K 1X 7K 1E 8K",
      "single_word": false,
      "lstrip": false,
      "rstrip": false,
      "normalized": false,
      "special": true
    },
    {
      "id": 9,
      "content": "16K 1X 5N 4K 1V 5K 1P 1X 5N 3K 2L 5K 1P 1X 5N 3K 1L 5K 2P 1X 5N 9K 2P 1X 6N 1K 2N 5K 2P 1X 6N 1K 1N 1K 2N 3K 2P 1X 5N 3K 4N 2K 2P 1X 4N 1H 1O 6N 3K 1P 1X 3N 1H 2O 6N 3K 1P 1X 1K 2N 1H 1O 7N 2K 2P 1X 1K 11N 2K 2P 1X 1K 11N 3K 1P 1X 2K 9N 5K 1X 4K 5N 7K 1X 16K",
      "single_word": false,
      "lstrip": false,
      "rstrip": false,
      "normalized": false,
      "special": true
    },
    {
      "id": 10,
      "content": "16K 1X 6K 1E 9K 1X 3K 4E 1K 1E 7K 1X 7E 1K 1E 7K 1X 7E 1K 1A 1E 1K 5L 1X 5E 2N 1E 1K 1E 1K 5L 1X 4E 1A 1N 1K 1N 1K 1N 1E 1A 4L 1X 4E 2N 1A 5N 4A 1X 5N 1L 1A 5N 4L 1X 1K 3N 1L 1E 1L 1N 1K 3N 4K 1X 1K 3N 1E 1N 1L 1K 1E 1K 2N 1E 3K 1X 1K 6N 1E 1N 1E 2N 1A 3K 1X 1K 10N 1A 4K 1X 1K 4N 1K 6N 4K 1X 1K 5N 1E 2N 1E 2N 4K 1X 1K 11N 4K",
      "single_word": false,
      "lstrip": false,
      "rstrip": false,
      "normalized": false,
      "special": true
    },
    {
      "id": 11,
      "content": "16K 1X 6K 1N 2H 1N 6K 1X 5K 1A 4H 1A 5K 1X 5K 1V 1A 2H 2A 5K 1X 5K 1W 4N 1A 5K 1X 5K 1A 3W 1V 1A 5K 1X 4K 1A 1N 3V 1A 1N 1A 4K 1X 3K 1W 1N 2Z 1N 2E 2N 1A 3K 1X 3K 1W 1Z 2W 1D 2Y 1D 1E 1A 3K 1X 3K 1V 1Z 2W 4O 1D 1A 3K 1X 3K 1V 1O 1W 1Y 2Z 1Y 1D 1O 1A 3K 1X 3K 1A 1E 1Z 5O 1E 1A 3K 1X 3K 1A 1N 1Z 1E 3O 1E 1N 1A 3K 1X 4K 1A 1V 1N 2E 2N 1A 4K 1X 5K 1A 2W 2V 1A 5K 1X 16K",
      "single_word": false,
      "lstrip": false,
      "rstrip": false,
      "normalized": false,
      "special": true
    },
    {
      "id": 12,
      "content": "16K 1X 6K 1N 2H 1N 6K 1X 5K 1A 4H 1A 5K 1X 5K 1V 1A 2H 2A 5K 1X 5K 1W 4N 1A 5K 1X 5K 1A 3W 1V 1A 5K 1X 4K 1A 1U 3V 1A 1U 1A 4K 1X 3K 1W 1U 2M 5U 1A 3K 1X 3K 1W 1M 2W 4L 1U 1A 3K 1X 3K 1V 1M 2W 5L 1A 3K 1X 3K 1V 1L 1W 1L 2M 3L 1A 3K 1X 3K 1A 1U 1M 5L 1U 1A 3K 1X 3K 1A 1U 1M 4L 2U 1A 3K 1X 4K 1A 1V 5U 1A 4K 1X 5K 1A 2W 2V 1A 5K 1X 16K",
      "single_word": false,
      "lstrip": false,
      "rstrip": false,
      "normalized": false,
      "special": true
    },
    {
      "id": 13,
      "content": "16K 1X 6K 1N 2H 1N 6K 1X 5K 1A 4H 1A 5K 1X 5K 1V 1A 2H 2A 5K 1X 5K 1W 4N 1A 5K 1X 5K 1A 3W 1V 1A 5K 1X 4K 1A 1U 3V 1A 1U 1A 4K 1X 3K 1W 1U 2M 5U 1A 3K 1X 3K 1W 1M 2W 4S 1U 1A 3K 1X 3K 1V 1M 2W 4L 1S 1A 3K 1X 3K 1V 1S 1W 1S 2M 3S 1A 3K 1X 3K 1A 1U 1M 5L 1U 1A 3K 1X 3K 1A 1U 1M 1U 3L 2U 1A 3K 1X 4K 1A 1V 5U 1A 4K 1X 5K 1A 2W 2V 1A 5K 1X 16K",
      "single_word": false,
      "lstrip": false,
      "rstrip": false,
      "normalized": false,
      "special": true
    },
    {
      "id": 14,
      "content": "16K 1X 6K 1N 2H 1N 6K 1X 5K 1A 4H 1A 5K 1X 5K 1V 1A 2H 2A 5K 1X 5K 1W 4N 1A 5K 1X 5K 1A 3W 1V 1A 5K 1X 4K 1A 1U 3V 1A 1U 1A 4K 1X 3K 1W 1U 2M 5U 1A 3K 1X 3K 1W 1M 2W 4S 1U 1A 3K 1X 3K 1V 1M 2W 5S 1A 3K 1X 3K 1V 1S 1W 1S 2M 3S 1A 3K 1X 3K 1A 1U 1M 5S 1U 1A 3K 1X 3K 1A 1U 1M 4S 2U 1A 3K 1X 4K 1A 1M 5U 1A 4K 1X 5K 1A 2W 2V 1A 5K 1X 16K",
      "single_word": false,
      "lstrip": false,
      "rstrip": false,
      "normalized": false,
      "special": true
    },
    {
      "id": 15,
      "content": "16K 1X 6K 1N 2H 1N 6K 1X 5K 1A 4H 1A 5K 1X 5K 1V 1A 2H 2A 5K 1X 5K 1W 4N 1A 5K 1X 5K 1A 3W 1V 1A 5K 1X 4K 1A 1U 3V 1A 1U 1A 4K 1X 3K 1W 1U 2W 1U 2B 2U 1A 3K 1X 3K 4W 4S 1U 1A 3K 1X 3K 1V 3W 4B 1S 1A 3K 1X 3K 1V 1S 1W 1S 2W 3S 1A 3K 1X 3K 1A 1U 1W 6B 1A 3K 1X 3K 1A 1U 1W 5B 1U 1A 3K 1X 4K 1A 1W 1U 2B 2U 1A 4K 1X 5K 1A 2W 2V 1A 5K 1X 16K",
      "single_word": false,
      "lstrip": false,
      "rstrip": false,
      "normalized": false,
      "special": true
    },
    {
      "id": 16,
      "content": "16K 1X 6K 1N 2H 1N 6K 1X 5K 1A 4H 1A 5K 1X 5K 1V 1A 2H 2A 5K 1X 5K 1W 4N 1A 5K 1X 5K 1A 3W 1V 1A 5K 1X 5K 1N 3V 1A 1N 5K 1X 4K 1V 1Z 1N 2E 2N 1A 4K 1X 4K 2W 1Z 1D 1Y 1D 1E 1A 4K 1X 4K 3W 3O 1D 1V 4K 1X 4K 2W 1Y 2Z 1Y 1O 1V 4K 1X 4K 1V 1Z 5O 1V 4K 1X 4K 1A 1Z 1E 3O 1E 1A 4K 1X 4K 1A 1V 1N 3E 1N 1A 4K 1X 5K 1A 2W 2V 1A 5K 1X 16K",
      "single_word": false,
      "lstrip": false,
      "rstrip": false,
      "normalized": false,
      "special": true
    },
    {
      "id": 17,
      "content": "16K 1X 6K 1N 2H 1N 6K 1X 5K 1A 4H 1A 5K 1X 5K 1V 1A 2H 2A 5K 1X 5K 1W 4N 1A 5K 1X 5K 1A 3W 1V 1A 5K 1X 5K 1N 3V 1A 1N 5K 1X 4K 1V 1Z 5N 1A 4K 1X 4K 2W 1Z 1O 1D 1O 1N 1A 4K 1X 4K 3W 4O 1V 4K 1X 4K 2W 1D 2Z 1D 1O 1V 4K 1X 4K 1V 1Z 5O 1V 4K 1X 4K 1A 1Z 1N 3O 1N 1A 4K 1X 4K 1A 1V 5N 1A 4K 1X 5K 1A 2W 2V 1A 5K 1X 16K",
      "single_word": false,
      "lstrip": false,
      "rstrip": false,
      "normalized": false,
      "special": true
    },
    {
      "id": 18,
      "content": "16K 1X 6K 1N 2H 1N 6K 1X 5K 1A 4H 1A 5K 1X 5K 1V 1A 2H 2A 5K 1X 5K 1W 4N 1A 5K 1X 5K 1A 3W 1V 1A 5K 1X 5K 1U 3V 1A 1U 5K 1X 4K 1V 1M 5U 1A 4K 1X 4K 2W 1M 3L 1U 1A 4K 1X 4K 3W 4L 1V 4K 1X 4K 2W 1L 2M 2L 1V 4K 1X 4K 1V 1M 5L 1V 4K 1X 4K 1A 1M 1U 3L 1U 1A 4K 1X 4K 1A 1V 5U 1A 4K 1X 5K 1A 2W 2V 1A 5K 1X 16K",
      "single_word": false,
      "lstrip": false,
      "rstrip": false,
      "normalized": false,
      "special": true
    },
    {
      "id": 19,
      "content": "16K 1X 6K 1N 2H 1N 6K 1X 5K 1A 4H 1A 5K 1X 5K 1V 1A 2H 2A 5K 1X 5K 1W 4N 1A 5K 1X 5K 1A 3W 1V 1A 5K 1X 5K 1U 3V 1A 1U 5K 1X 4K 1V 1M 5U 1A 4K 1X 4K 2W 1M 3S 1U 1A 4K 1X 4K 3W 3L 1S 1V 4K 1X 4K 2W 1S 2M 1S 1L 1V 4K 1X 4K 1V 1M 5L 1V 4K 1X 4K 1A 1M 1U 3L 1U 1A 4K 1X 4K 1A 1V 5U 1A 4K 1X 5K 1A 2W 2V 1A 5K 1X 16K",
      "single_word": false,
      "lstrip": false,
      "rstrip": false,
      "normalized": false,
      "special": true
    },
    {
      "id": 20,
      "content": "16K 1X 6K 1N 2H 1N 6K 1X 5K 1A 4H 1A 5K 1X 5K 1V 1A 2H 2A 5K 1X 5K 1W 4N 1A 5K 1X 5K 1A 3W 1V 1A 5K 1X 5K 1U 3V 1A 1U 5K 1X 4K 1V 1M 5U 1A 4K 1X 4K 2W 1M 3S 1U 1A 4K 1X 4K 3W 4S 1V 4K 1X 4K 2W 1S 2M 2S 1V 4K 1X 4K 1V 1M 5S 1V 4K 1X 4K 1A 1M 1U 3S 1U 1A 4K 1X 4K 1A 1V 5U 1A 4K 1X 5K 1A 2W 2V 1A 5K 1X 16K",
      "single_word": false,
      "lstrip": false,
      "rstrip": false,
      "normalized": false,
      "special": true
    },
    {
      "id": 21,
      "content": "16K 1X 6K 1N 2H 1N 6K 1X 5K 1A 4H 1A 5K 1X 5K 1V 1A 2H 2A 5K 1X 5K 1W 4N 1A 5K 1X 5K 1A 3W 1V 1A 5K 1X 5K 1U 3V 1A 1U 5K 1X 4K 1V 1W 1U 2B 2U 1A 4K 1X 4K 3W 3S 1B 1A 4K 1X 4K 3W 3B 1S 1V 4K 1X 4K 2W 1S 2W 1S 1B 1V 4K 1X 4K 1V 1W 5B 1V 4K 1X 4K 1A 1W 5B 1A 4K 1X 4K 1A 1V 1U 3B 1U 1A 4K 1X 5K 1A 2W 2V 1A 5K 1X 16K",
      "single_word": false,
      "lstrip": false,
      "rstrip": false,
      "normalized": false,
      "special": true
    },
    {
      "id": 22,
      "content": "16K 1X 6K 1N 2H 1N 6K 1X 5K 1A 4H 1A 5K 1X 5K 1V 1A 2H 2A 5K 1X 5K 1W 4N 1A 5K 1X 5K 1A 3W 1V 1A 5K 1X 5K 1U 3V 1A 1U 5K 1X 4K 1V 1W 1U 2P 2U 1A 4K 1X 4K 3W 1J 1H 1J 1P 1A 4K 1X 4K 3W 3P 1J 1V 4K 1X 4K 2W 4H 1P 1V 4K 1X 4K 1V 1W 5P 1V 4K 1X 4K 1A 1W 5P 1A 4K 1X 4K 1A 1V 1U 3P 1U 1A 4K 1X 5K 1A 2W 2V 1A 5K 1X 16K",
      "single_word": false,
      "lstrip": false,
      "rstrip": false,
      "normalized": false,
      "special": true
    },
    {
      "id": 23,
      "content": "16K 1X 6K 1N 2H 1N 6K 1X 5K 1A 4H 1A 5K 1X 5K 1V 1A 2H 2A 5K 1X 5K 1W 4N 1A 5K 1X 5K 1A 3W 1V 1A 5K 1X 6K 3V 1A 6K 1X 4K 1V 1W 1K 2A 2K 1A 4K 1X 4K 3W 1V 4A 4K 1X 4K 3W 4A 1V 4K 1X 4K 2W 1V 2Z 1V 1A 1V 4K 1X 4K 1V 1W 5A 1V 4K 1X 4K 1A 1W 6A 4K 1X 4K 1A 1V 1K 3A 1K 1A 4K 1X 5K 1A 2W 2V 1A 5K 1X 16K",
      "single_word": false,
      "lstrip": false,
      "rstrip": false,
      "normalized": false,
      "special": true
    },
    {
      "id": 24,
      "content": "16K 1X 6K 1N 2H 1N 6K 1X 5K 1A 4H 1A 5K 1X 5K 1V 1A 2H 2A 5K 1X 5K 1W 4N 1A 5K 1X 5K 1A 3W 1V 1A 5K 1X 6K 3V 1A 6K 1X 4K 1V 1W 5K 1A 4K 1X 4K 3W 3A 1K 1A 4K 1X 4K 3W 3N 1A 1V 4K 1X 4K 2W 1A 2V 1A 1N 1V 4K 1X 4K 1V 1W 5N 1V 4K 1X 4K 1A 1W 1K 3N 1K 1A 4K 1X 4K 1A 1V 5K 1A 4K 1X 5K 1A 2W 2V 1A 5K 1X 16K",
      "single_word": false,
      "lstrip": false,
      "rstrip": false,
      "normalized": false,
      "special": true
    },
    {
      "id": 25,
      "content": "16K 1X 6K 1N 2H 1N 6K 1X 5K 1A 4H 1A 5K 1X 5K 1V 1A 2H 2A 5K 1X 5K 1W 4N 1A 5K 1X 5K 1A 3W 1V 1A 5K 1X 6K 3V 1A 6K 1X 4K 1V 1Z 1K 2E 2K 1A 4K 1X 4K 2W 1Z 1E 1D 2E 1A 4K 1X 4K 3W 4E 1V 4K 1X 4K 2W 1D 2Y 1D 1E 1V 4K 1X 4K 1V 1Z 5E 1V 4K 1X 4K 1A 1Z 5E 1A 4K 1X 4K 1A 1V 1K 3E 1K 1A 4K 1X 5K 1A 2W 2V 1A 5K 1X 16K",
      "single_word": false,
      "lstrip": false,
      "rstrip": false,
      "normalized": false,
      "special": true
    },
    {
      "id": 26,
      "content": "16K 1X 6K 1N 2H 1N 6K 1X 5K 1A 4H 1A 5K 1X 5K 1V 1A 2H 2A 5K 1X 5K 1W 4N 1A 5K 1X 5K 1A 3W 1V 1A 5K 1X 6K 3V 1A 6K 1X 4K 1V 1Z 1K 2L 2K 1A 4K 1X 4K 2W 1Z 4L 1A 4K 1X 4K 3W 4L 1V 4K 1X 4K 2W 1L 2Y 2L 1V 4K 1X 4K 1V 1Z 5L 1V 4K 1X 4K 1A 1Z 5L 1A 4K 1X 4K 1A 1V 1K 3L 1K 1A 4K 1X 5K 1A 2W 2V 1A 5K 1X 16K",
      "single_word": false,
      "lstrip": false,
      "rstrip": false,
      "normalized": false,
      "special": true
    },
    {
      "id": 27,
      "content": "16K 1X 6K 1N 2H 1N 6K 1X 5K 1A 4H 1A 5K 1X 5K 1V 1A 2H 2A 5K 1X 5K 1W 4N 1A 5K 1X 5K 1A 3W 1V 1A 5K 1X 6K 3V 1A 6K 1X 4K 1V 1Z 1K 2N 2K 1A 4K 1X 4K 2W 1Z 1V 2O 1N 1A 4K 1X 4K 3W 3E 1O 1V 4K 1X 4K 2W 1V 2Z 1V 1E 1V 4K 1X 4K 1V 1W 5E 1V 4K 1X 4K 1A 1Z 1N 3E 1N 1A 4K 1X 4K 1A 1V 1K 3N 1K 1A 4K 1X 5K 1A 2W 2V 1A 5K 1X 16K",
      "single_word": false,
      "lstrip": false,
      "rstrip": false,
      "normalized": false,
      "special": true
    },
    {
      "id": 28,
      "content": "16K 1X 6K 1N 2H 1N 6K 1X 5K 1A 4H 1A 5K 1X 5K 1V 1A 2H 2A 5K 1X 5K 1W 4N 1A 5K 1X 5K 1A 3W 1V 1A 5K 1X 6K 3V 1A 6K 1X 4K 1V 1Z 1K 2N 2K 1A 4K 1X 4K 2W 1Z 1V 3N 1A 4K 1X 4K 3W 3R 1N 1V 4K 1X 4K 2W 1V 2H 1V 1R 1V 4K 1X 4K 1V 1Z 5R 1V 4K 1X 4K 1A 1Z 1N 3R 1N 1A 4K 1X 4K 1A 1V 1K 3N 1K 1A 4K 1X 5K 1A 2W 2V 1A 5K 1X 16K",
      "single_word": false,
      "lstrip": false,
      "rstrip": false,
      "normalized": false,
      "special": true
    },
    {
      "id": 29,
      "content": "16K 1X 6K 1N 2H 1N 6K 1X 5K 1A 4H 1A 5K 1X 5K 1W 1A 2H 2A 5K 1X 5K 1W 4N 1A 5K 1X 5K 1A 3W 1V 1A 5K 1X 3K 1A 1W 1K 3V 1A 1K 1V 1A 3K 1X 3K 2W 1Z 1K 4E 2V 3K 1X 3K 3W 1Z 1D 4E 1V 3K 1X 3K 1V 1Z 1W 1Z 5E 1V 3K 1X 3K 1A 1E 1W 1D 2Y 1D 2E 1A 3K 1X 3K 1A 1K 1V 6E 1A 3K 1X 3K 1A 1K 1V 5E 1K 1A 3K 1X 3K 1A 1K 1V 4E 2K 1A 3K 1X 3K 1A 1V 4W 3V 1A 3K 1X 16K",
      "single_word": false,
      "lstrip": false,
      "rstrip": false,
      "normalized": false,
      "special": true
    },
    {
      "id": 30,
      "content": "16K 1X 6K 1N 2H 1N 6K 1X 5K 1A 4H 1A 5K 1X 5K 1W 1A 2H 2A 5K 1X 5K 1W 4N 1A 5K 1X 5K 1A 3W 1V 1A 5K 1X 3K 1A 1W 1U 3V 1A 1U 1V 1A 3K 1X 3K 2W 1H 1U 4P 2V 3K 1X 3K 3W 2H 3J 1P 1V 3K 1X 3K 1V 1H 1W 1H 4P 1J 1V 3K 1X 3K 1A 1P 1W 4H 2J 1A 3K 1X 3K 1A 1U 1V 6P 1A 3K 1X 3K 1A 1U 1V 5P 1U 1A 3K 1X 3K 1A 1U 1V 1U 3P 2U 1A 3K 1X 3K 1A 1V 4W 3V 1A 3K 1X 16K",
      "single_word": false,
      "lstrip": false,
      "rstrip": false,
      "normalized": false,
      "special": true
    },
    {
      "id": 31,
      "content": "16K 1X 6K 1N 2H 1N 6K 1X 5K 1A 4H 1A 5K 1X 5K 1W 1A 2H 2A 5K 1X 5K 1W 4N 1A 5K 1X 5K 1A 3W 1V 1A 5K 1X 4K 1A 1K 3V 1A 1K 1A 4K 1X 3K 1W 1K 2W 5K 1A 3K 1X 3K 4W 4A 1K 1A 3K 1X 3K 1V 3W 4N 2A 3K 1X 3K 1V 1A 1W 1A 2V 4A 3K 1X 3K 1A 1K 1Z 5N 1K 1A 3K 1X 3K 1A 1K 1Z 1K 3N 2K 1A 3K 1X 4K 2A 5K 1A 4K 1X 5K 1A 2W 2V 1A 5K 1X 16K",
      "single_word": false,
      "lstrip": false,
      "rstrip": false,
      "normalized": false,
      "special": true
    },
    {
      "id": 32,
      "content": "16K 1X 6K 1N 2H 1N 6K 1X 5K 1A 4H 1A 5K 1X 5K 1W 1A 2H 2A 5K 1X 5K 1W 4N 1A 5K 1X 5K 1A 3W 1V 1A 5K 1X 4K 1A 1K 3V 1A 1K 1A 4K 1X 3K 1W 1K 2Z 1K 2E 2K 1A 3K 1X 3K 1W 1Z 2W 1E 2D 2E 1A 3K 1X 3K 1V 1Z 2W 5E 1A 3K 1X 3K 1V 1E 1W 1D 2Y 1D 2E 1A 3K 1X 3K 1A 1E 1V 6E 1A 3K 1X 3K 1A 1K 1V 5E 1K 1A 3K 1X 4K 1A 1V 1K 2E 2K 1A 4K 1X 5K 1A 2W 2V 1A 5K 1X 16K",
      "single_word": false,
      "lstrip": false,
      "rstrip": false,
      "normalized": false,
      "special": true
    },
    {
      "id": 33,
      "content": "16K 1X 6K 1N 2H 1N 6K 1X 5K 1A 4H 1A 5K 1X 5K 1W 1A 2H 2A 5K 1X 5K 1W 4N 1A 5K 1X 5K 1A 3W 1V 1A 5K 1X 4K 1A 1K 3V 1A 1K 1A 4K 1X 3K 1W 1K 2Z 1K 2L 2K 1A 3K 1X 3K 1W 1Z 2W 5L 1A 3K 1X 3K 1V 1Z 2W 5L 1A 3K 1X 3K 1V 1L 1W 1L 2Y 3L 1A 3K 1X 3K 1A 1L 1V 6L 1A 3K 1X 3K 1A 1K 1V 5L 1K 1A 3K 1X 4K 1A 1V 1K 2L 2K 1A 4K 1X 5K 1A 2W 2V 1A 5K 1X 16K",
      "single_word": false,
      "lstrip": false,
      "rstrip": false,
      "normalized": false,
      "special": true
    },
    {
      "id": 34,
      "content": "16K 1X 6K 1N 2H 1N 6K 1X 5K 1A 4H 1A 5K 1X 5K 1W 1A 2H 2A 5K 1X 5K 1W 4N 1A 5K 1X 5K 1A 3W 1V 1A 5K 1X 4K 1A 1K 3V 1A 1K 1A 4K 1X 3K 1W 1N 2W 1N 2A 1N 1K 1A 3K 1X 3K 4W 1V 5A 3K 1X 3K 1V 3W 6A 3K 1X 3K 1V 1A 1W 1V 2Z 1V 3A 3K 1X 3K 2A 1Z 7A 3K 1X 3K 1A 1N 1Z 5A 1N 1A 3K 1X 4K 2A 1N 2A 1N 1K 1A 4K 1X 5K 1A 2W 2V 1A 5K 1X 16K",
      "single_word": false,
      "lstrip": false,
      "rstrip": false,
      "normalized": false,
      "special": true
    },
    {
      "id": 35,
      "content": "16K 1X 6K 1N 2H 1N 6K 1X 5K 1A 4H 1A 5K 1X 5K 1W 1A 2H 2A 5K 1X 5K 1W 4N 1A 5K 1X 5K 1A 3W 1V 1A 5K 1X 4K 1A 1K 3V 1A 1K 1A 4K 1X 3K 1W 1N 2Z 4N 1K 1A 3K 1X 3K 1W 1Z 2W 1V 3O 1N 1A 3K 1X 3K 1V 1Z 2W 4E 1O 1A 3K 1X 3K 1V 1O 1W 1V 2Z 1V 2O 1A 3K 1X 3K 1A 1N 1V 5E 1N 1A 3K 1X 3K 1A 1N 1V 1N 3E 2N 1A 3K 1X 4K 2A 4N 1K 1A 4K 1X 5K 1A 2W 2V 1A 5K 1X 16K",
      "single_word": false,
      "lstrip": false,
      "rstrip": false,
      "normalized": false,
      "special": true
    },
    {
      "id": 36,
      "content": "16K 1X 6K 1N 2H 1N 6K 1X 5K 1A 4H 1A 5K 1X 5K 1W 1A 2H 2A 5K 1X 5K 1W 4N 1A 5K 1X 5K 1A 3W 1V 1A 5K 1X 4K 1A 1N 3V 1A 1N 1A 4K 1X 3K 1W 1N 2Z 5N 1A 3K 1X 3K 1W 1Z 2W 1O 2D 1O 1N 1A 3K 1X 3K 1V 1Z 2W 5O 1A 3K 1X 3K 1V 1O 1W 1D 2Z 1D 2O 1A 3K 1X 3K 1A 1N 1Z 5O 1N 1A 3K 1X 3K 1A 1N 1Z 1N 3O 2N 1A 3K 1X 4K 1A 1V 5N 1A 4K 1X 5K 1A 2W 2V 1A 5K 1X 16K",
      "single_word": false,
      "lstrip": false,
      "rstrip": false,
      "normalized": false,
      "special": true
    },
    {
      "id": 37,
      "content": "16K 1X 6K 1N 2H 1N 6K 1X 5K 1A 4H 1A 5K 1X 5K 1W 1A 2H 2A 5K 1X 5K 1W 4N 1A 5K 1X 5K 1A 3W 1V 1A 5K 1X 4K 1A 1U 3V 1A 1U 1A 4K 1X 3K 1W 1U 2W 1U 2P 2U 1A 3K 1X 3K 4W 1J 2H 1J 1P 1A 3K 1X 3K 1V 3W 4P 1J 1A 3K 1X 3K 1V 1J 1W 4H 2J 1A 3K 1X 3K 1A 1P 1V 6P 1A 3K 1X 3K 1A 1U 1V 5P 1U 1A 3K 1X 4K 1A 1V 1U 2P 2U 1A 4K 1X 5K 1A 2W 2V 1A 5K 1X 16K",
      "single_word": false,
      "lstrip": false,
      "rstrip": false,
      "normalized": false,
      "special": true
    },
    {
      "id": 38,
      "content": "16K 1X 6K 1N 2H 1N 6K 1X 5K 1A 4H 1A 5K 1X 5K 1W 1A 2H 2A 5K 1X 5K 1W 4N 1A 5K 1X 5K 1A 3W 1V 1A 5K 1X 4K 1W 1K 3V 1A 1K 1A 4K 1X 3K 2W 1Z 1K 3E 2K 1V 3K 1X 2K 4W 1Z 1D 3E 2K 1V 2K 1X 2K 1V 1Z 1W 1Z 7E 1A 2K 1X 2K 1V 1E 1W 1E 1D 2Y 1D 3E 1A 2K 1X 2K 1A 1K 1V 7E 1K 1A 2K 1X 3K 1A 1V 6E 1K 1A 3K 1X 4K 1A 1K 4E 1K 1A 4K 1X 5K 1A 2W 2V 1A 5K 1X 16K",
      "single_word": false,
      "lstrip": false,
      "rstrip": false,
      "normalized": false,
      "special": true
    },
    {
      "id": 39,
      "content": "16K 1X 6K 1N 2H 1N 6K 1X 5K 1A 4H 1A 5K 1X 5K 1W 1A 2H 2A 5K 1X 5K 1W 4N 1A 5K 1X 5K 1A 3W 1V 1A 5K 1X 4K 1W 1U 3V 1A 1U 1A 4K 1X 3K 3W 1U 3P 2U 1V 3K 1X 2K 5W 2H 2J 2U 1V 2K 1X 2K 1V 3W 5P 1J 1P 1A 2K 1X 2K 1V 1J 1W 1J 4H 2J 1P 1A 2K 1X 2K 1A 1U 1V 7P 1U 1A 2K 1X 3K 1A 1V 6P 1U 1A 3K 1X 4K 1A 1U 4P 1U 1A 4K 1X 5K 1A 2W 2V 1A 5K 1X 16K",
      "single_word": false,
      "lstrip": false,
      "rstrip": false,
      "normalized": false,
      "special": true
    },
    {
      "id": 40,
      "content": "16K 1X 6K 1N 2H 1N 6K 1X 5K 1A 4H 1A 5K 1X 5K 1W 1A 2H 2A 5K 1X 5K 1W 4N 1A 5K 1X 5K 1A 3W 1V 1A 5K 1X 5K 1A 3V 2A 5K 1X 4K 1A 1K 3A 2K 1A 4K 1X 3K 1W 1V 2W 1A 2V 3A 3K 1X 3K 1W 1V 2W 5A 1V 3K 1X 3K 1V 1A 1W 1V 2Z 2V 1A 1V 3K 1X 3K 1A 1K 1V 5A 1K 1A 3K 1X 3K 2A 1K 1V 6A 3K 1X 4K 2A 1V 2A 1K 2A 4K 1X 6K 1A 2V 1A 6K 1X 16K",
      "single_word": false,
      "lstrip": false,
      "rstrip": false,
      "normalized": false,
      "special": true
    },
    {
      "id": 41,
      "content": "16K 1X 6K 1N 2H 1N 6K 1X 5K 1A 4H 1A 5K 1X 5K 1W 1A 2H 2A 5K 1X 5K 1W 4N 1A 5K 1X 5K 1A 3W 1V 1A 5K 1X 5K 1A 3V 2A 5K 1X 4K 1A 1K 3E 2K 1A 4K 1X 3K 1W 1Z 2W 1E 2D 2E 1A 3K 1X 3K 1W 1Z 2W 5E 1V 3K 1X 3K 1V 1E 1W 1D 2Y 1D 2E 1V 3K 1X 3K 1A 1K 1Z 5E 1K 1A 3K 1X 3K 2A 1K 1Z 4E 2A 3K 1X 4K 2A 1V 2E 1K 2A 4K 1X 6K 1A 2V 1A 6K 1X 16K",
      "single_word": false,
      "lstrip": false,
      "rstrip": false,
      "normalized": false,
      "special": true
    },
    {
      "id": 42,
      "content": "16K 1X 6K 1N 2H 1N 6K 1X 5K 1A 4H 1A 5K 1X 5K 1W 1A 2H 2A 5K 1X 5K 1W 4N 1A 5K 1X 5K 1A 3W 1V 1A 5K 1X 5K 1A 3V 2A 5K 1X 4K 1A 1K 3L 2K 1A 4K 1X 3K 1W 1Z 2W 5L 1A 3K 1X 3K 1W 1Z 2W 5L 1V 3K 1X 3K 1V 1E 1W 1L 2Y 3L 1V 3K 1X 3K 1A 1K 1Z 5L 1K 1A 3K 1X 3K 2A 1K 1Z 4L 2A 3K 1X 4K 2A 1V 2L 1K 2A 4K 1X 6K 1A 2V 1A 6K 1X 16K",
      "single_word": false,
      "lstrip": false,
      "rstrip": false,
      "normalized": false,
      "special": true
    },
    {
      "id": 43,
      "content": "16K 1X 6K 1N 2H 1N 6K 1X 5K 1A 4H 1A 5K 1X 5K 1W 1A 2H 2A 5K 1X 5K 1W 4N 1A 5K 1X 5K 1A 3W 1V 1A 5K 1X 5K 1A 3V 2A 5K 1X 4K 1A 1K 3N 2K 1A 4K 1X 3K 1W 1V 2W 1O 2V 1O 1N 1A 3K 1X 3K 1W 1V 2W 3E 1N 1O 1V 3K 1X 3K 1V 1E 1W 1V 2Z 2V 1N 1V 3K 1X 3K 1A 1K 1Z 4E 1N 1K 1A 3K 1X 3K 2A 1K 1Z 2E 2N 2A 3K 1X 4K 2A 1V 2N 1K 2A 4K 1X 6K 1A 2V 1A 6K 1X 16K",
      "single_word": false,
      "lstrip": false,
      "rstrip": false,
      "normalized": false,
      "special": true
    },
    {
      "id": 44,
      "content": "16K 1X 6K 1N 2H 1N 6K 1X 5K 1A 4H 1A 5K 1X 5K 1W 1A 2H 2A 5K 1X 5K 1W 4N 1A 5K 1X 5K 1A 3W 1V 1A 5K 1X 5K 1A 3V 2A 5K 1X 4K 1A 1K 3N 2K 1A 4K 1X 3K 1W 1Z 2W 1N 2V 2N 1A 3K 1X 3K 1W 1Z 2W 3R 2N 1V 3K 1X 3K 1V 1R 1W 1V 2H 2V 1N 1V 3K 1X 3K 1A 1K 1Z 4R 1N 1K 1A 3K 1X 3K 2A 1K 1Z 2R 2N 2A 3K 1X 4K 2A 1V 2N 1K 2A 4K 1X 6K 1A 2V 1A 6K 1X 16K",
      "single_word": false,
      "lstrip": false,
      "rstrip": false,
      "normalized": false,
      "special": true
    },
    {
      "id": 45,
      "content": "16K 1X 6K 1N 2H 1N 6K 1X 5K 1A 4H 1A 5K 1X 5K 1W 1A 2H 2A 5K 1X 5K 1W 4N 1A 5K 1X 5K 1A 3W 1V 1A 5K 1X 5K 1A 3V 2A 5K 1X 4K 1A 1N 3E 2N 1A 4K 1X 3K 1W 1Z 2W 1D 2Y 1D 1E 1A 3K 1X 3K 1W 1Z 2W 3O 1E 1D 1V 3K 1X 3K 1V 1E 1W 1Y 2Z 2Y 1E 1V 3K 1X 3K 1A 1N 1Z 4O 1E 1N 1A 3K 1X 3K 2A 1N 1Z 2O 2E 2A 3K 1X 4K 2A 1V 2E 1N 2A 4K 1X 6K 1A 2V 1A 6K 1X 16K",
      "single_word": false,
      "lstrip": false,
      "rstrip": false,
      "normalized": false,
      "special": true
    },
    {
      "id": 46,
      "content": "16K 1X 6K 1N 2H 1N 6K 1X 5K 1A 4H 1A 5K 1X 5K 1W 1A 2H 2A 5K 1X 5K 1W 4N 1A 5K 1X 5K 1A 3W 1V 1A 5K 1X 5K 1A 3V 2A 5K 1X 4K 1A 1U 3B 2U 1A 4K 1X 3K 4W 4S 1B 1A 3K 1X 3K 4W 4B 1S 1V 3K 1X 3K 1V 1B 1W 1S 2W 2S 1B 1V 3K 1X 3K 1A 1U 1W 5B 1U 1A 3K 1X 3K 2A 1U 1W 4B 2A 3K 1X 4K 2A 1V 2B 1U 2A 4K 1X 6K 1A 2V 1A 6K 1X 16K",
      "single_word": false,
      "lstrip": false,
      "rstrip": false,
      "normalized": false,
      "special": true
    },
    {
      "id": 47,
      "content": "16K 1X 6K 1N 2H 1N 6K 1X 5K 1A 4H 1A 5K 1X 5K 1W 1A 2H 2A 5K 1X 5K 1W 4N 1A 5K 1X 5K 1A 3W 1V 1A 5K 1X 5K 1A 3V 2A 5K 1X 4K 1A 1U 3P 2U 1A 4K 1X 3K 4W 1J 2H 1J 1P 1A 3K 1X 3K 4W 4P 1J 1V 3K 1X 3K 1V 1P 1W 4H 1J 1P 1V 3K 1X 3K 1A 1U 1W 5P 1U 1A 3K 1X 3K 2A 1U 1W 4P 2A 3K 1X 4K 2A 1V 2P 1U 2A 4K 1X 6K 1A 2V 1A 6K 1X 16K",
      "single_word": false,
      "lstrip": false,
      "rstrip": false,
      "normalized": false,
      "special": true
    },
    {
      "id": 48,
      "content": "16K 1X 6K 1N 2H 1N 6K 1X 5K 1A 4H 1A 5K 1X 5K 1W 1A 2H 2A 5K 1X 5K 1W 4N 1A 5K 1X 5K 1A 3W 1V 1A 5K 1X 5K 1A 3V 2A 5K 1X 4K 1A 6K 1A 4K 1X 3K 1W 1V 2W 4A 1K 1A 3K 1X 3K 1W 1V 2W 3N 1K 1A 1V 3K 1X 3K 1V 1K 1W 1A 2V 2A 1K 1V 3K 1X 3K 1A 1K 1V 4N 2K 1A 3K 1X 3K 2A 1K 1V 2N 2K 2A 3K 1X 4K 2A 1V 3K 2A 4K 1X 6K 1A 2V 1A 6K 1X 16K",
      "single_word": false,
      "lstrip": false,
      "rstrip": false,
      "normalized": false,
      "special": true
    },
    {
      "id": 49,
      "content": "16K 1X 6K 1N 2H 1N 6K 1X 5K 1A 4H 1A 5K 1X 5K 1W 1A 2H 2A 5K 1X 5K 1W 4N 1A 5K 1X 5K 1A 3W 1V 1A 5K 1X 5K 1A 3V 2A 5K 1X 4K 1A 6N 1A 4K 1X 3K 1W 1Z 2W 1O 2D 1O 1N 1A 3K 1X 3K 1W 1Z 2W 3O 1N 1O 1V 3K 1X 3K 1V 1O 1W 1D 2Z 1D 1O 1N 1V 3K 1X 3K 1A 1N 1Z 4O 2N 1A 3K 1X 3K 2A 1N 1Z 2O 2N 2A 3K 1X 4K 2A 1V 3N 2A 4K 1X 6K 1A 2V 1A 6K 1X 16K",
      "single_word": false,
      "lstrip": false,
      "rstrip": false,
      "normalized": false,
      "special": true
    },
    {
      "id": 50,
      "content": "16K 1X 6K 1N 2H 1N 6K 1X 5K 1A 4H 1A 5K 1X 5K 1W 1A 2H 2A 5K 1X 5K 1W 4N 1A 5K 1X 5K 1A 3W 1V 1A 5K 1X 5K 1A 3V 2A 5K 1X 4K 1A 6U 1A 4K 1X 3K 1W 1M 2W 4L 1U 1A 3K 1X 3K 1W 1M 2W 3L 1U 1L 1V 3K 1X 3K 1V 1L 1W 1L 2M 2L 1U 1V 3K 1X 3K 1A 1U 1M 4L 2U 1A 3K 1X 3K 2A 1U 1M 2L 2U 2A 3K 1X 4K 2A 1V 3U 2A 4K 1X 6K 1A 2V 1A 6K 1X 16K",
      "single_word": false,
      "lstrip": false,
      "rstrip": false,
      "normalized": false,
      "special": true
    },
    {
      "id": 51,
      "content": "16K 1X 6K 1N 2H 1N 6K 1X 5K 1A 4H 1A 5K 1X 5K 1W 1A 2H 2A 5K 1X 5K 1W 4N 1A 5K 1X 5K 1A 3W 1V 1A 5K 1X 5K 1A 3V 2A 5K 1X 4K 1A 6U 1A 4K 1X 3K 1W 1M 2W 4S 1U 1A 3K 1X 3K 1W 1M 2W 3L 1U 1S 1V 3K 1X 3K 1V 1U 1W 1S 2M 2S 1U 1V 3K 1X 3K 1A 1U 1M 4L 2U 1A 3K 1X 3K 2A 1U 1M 2L 2U 2A 3K 1X 4K 2A 1V 3U 2A 4K 1X 6K 1A 2V 1A 6K 1X 16K",
      "single_word": false,
      "lstrip": false,
      "rstrip": false,
      "normalized": false,
      "special": true
    },
    {
      "id": 52,
      "content": "16K 1X 6K 1N 2H 1N 6K 1X 5K 1A 4H 1A 5K 1X 5K 1W 1A 2H 2A 5K 1X 5K 1W 4N 1A 5K 1X 5K 1A 3W 1V 1A 5K 1X 5K 1A 3V 2A 5K 1X 4K 1A 6U 1A 4K 1X 3K 1W 1M 2W 4S 1U 1A 3K 1X 3K 1W 1M 2W 3S 1U 1S 1V 3K 1X 3K 1V 1S 1W 1S 2M 2S 1U 1V 3K 1X 3K 1A 1U 1M 4S 2U 1A 3K 1X 3K 2A 1U 1M 2S 2U 2A 3K 1X 4K 2A 1V 3U 2A 4K 1X 6K 1A 2V 1A 6K 1X 16K",
      "single_word": false,
      "lstrip": false,
      "rstrip": false,
      "normalized": false,
      "special": true
    },
    {
      "id": 53,
      "content": "16K 1X 6K 1N 2H 1N 6K 1X 5K 1A 4H 1A 5K 1X 5K 1W 1N 2H 1N 1A 5K 1X 5K 1W 4N 1A 5K 1X 5K 1A 3W 1V 1A 5K 1X 3K 1A 1W 1K 3V 1A 1K 1V 1A 3K 1X 3K 2W 1Z 1K 4L 2V 3K 1X 3K 3W 1Z 5L 1V 3K 1X 3K 1V 1Z 1W 1Z 5L 1V 3K 1X 3K 1A 1L 1W 1L 2Y 3L 1A 3K 1X 3K 1A 1K 1V 6L 1A 3K 1X 3K 1A 1K 1V 5L 1K 1A 3K 1X 3K 1A 1K 1V 4L 2K 1A 3K 1X 3K 1A 1V 4W 3V 1A 3K 1X 16K",
      "single_word": false,
      "lstrip": false,
      "rstrip": false,
      "normalized": false,
      "special": true
    },
    {
      "id": 54,
      "content": "16K 1X 6K 1N 2H 1N 6K 1X 5K 1A 4H 1A 5K 1X 5K 1W 1N 2H 1N 1A 5K 1X 5K 1W 4N 1A 5K 1X 5K 1A 3W 1V 1A 5K 1X 3K 1A 1W 1N 3V 1A 1N 1V 1A 3K 1X 3K 2W 1Z 5N 2V 3K 1X 3K 3W 1Z 1D 4O 1V 3K 1X 3K 1V 1Z 1W 1Z 5O 1V 3K 1X 3K 1A 1N 1W 1D 2Z 1D 2O 1A 3K 1X 3K 1A 1N 1V 5O 1N 1A 3K 1X 3K 1A 1N 1V 4O 2N 1A 3K 1X 3K 1A 1N 1V 6N 1A 3K 1X 3K 1A 1V 4W 3V 1A 3K 1X 16K",
      "single_word": false,
      "lstrip": false,
      "rstrip": false,
      "normalized": false,
      "special": true
    },
    {
      "id": 55,
      "content": "16K 1X 6K 1N 2H 1N 6K 1X 5K 1A 4H 1A 5K 1X 5K 1W 1N 2H 1N 1A 5K 1X 5K 1W 4N 1A 5K 1X 5K 1A 3W 1V 1A 5K 1X 3K 1A 1W 1U 3V 1A 1U 1V 1A 3K 1X 3K 2W 1M 5U 2V 3K 1X 3K 3W 1M 4S 1U 1V 3K 1X 3K 1V 1M 1W 1M 4L 1S 1V 3K 1X 3K 1A 1U 1W 1S 2M 3S 1A 3K 1X 3K 1A 1U 1V 5L 1U 1A 3K 1X 3K 1A 1U 1V 4L 2U 1A 3K 1X 3K 1A 1U 1V 6U 1A 3K 1X 3K 1A 1V 4W 3V 1A 3K 1X 16K",
      "single_word": false,
      "lstrip": false,
      "rstrip": false,
      "normalized": false,
      "special": true
    },
    {
      "id": 56,
      "content": "16K 1X 6K 1N 2H 1N 6K 1X 5K 1A 4H 1A 5K 1X 5K 1W 1N 2H 1N 1A 5K 1X 5K 1W 4N 1A 5K 1X 5K 1A 3W 1V 1A 5K 1X 4K 1W 1K 3V 1A 1K 1A 4K 1X 3K 1W 1A 1W 1N 3A 1N 1K 1V 3K 1X 2K 1W 1N 3W 5A 1K 1V 2K 1X 2K 1V 1N 2W 6A 1N 1A 2K 1X 2K 1V 1N 1W 1A 3Z 2V 1A 1N 1A 2K 1X 2K 1A 1K 1Z 7A 1K 1A 2K 1X 3K 1A 1V 6A 1N 1A 3K 1X 4K 1A 1K 1N 2A 1N 1K 1A 4K 1X 5K 1A 2W 2V 1A 5K 1X 16K",
      "single_word": false,
      "lstrip": false,
      "rstrip": false,
      "normalized": false,
      "special": true
    },
    {
      "id": 57,
      "content": "16K 1X 6K 1N 2H 1N 6K 1X 5K 1A 4H 1A 5K 1X 5K 1W 1N 2H 1N 1A 5K 1X 5K 1W 4N 1A 5K 1X 5K 1A 3W 1V 1A 5K 1X 4K 1W 1K 3V 1A 1K 1A 4K 1X 3K 1W 1K 1W 6K 1V 3K 1X 2K 1W 1K 3W 1V 3A 2K 1V 2K 1X 2K 1V 1K 2W 1V 4N 1A 1K 1A 2K 1X 2K 1V 1K 1W 4V 3A 1K 1A 2K 1X 2K 1A 1K 1Z 6N 2K 1A 2K 1X 3K 1A 1V 1K 4N 2K 1A 3K 1X 4K 1A 6K 1A 4K 1X 5K 1A 2W 2V 1A 5K 1X 16K",
      "single_word": false,
      "lstrip": false,
      "rstrip": false,
      "normalized": false,
      "special": true
    },
    {
      "id": 58,
      "content": "16K 1X 6K 1N 2H 1N 6K 1X 5K 1A 4H 1A 5K 1X 5K 1W 1N 2H 1N 1A 5K 1X 5K 1W 4N 1A 5K 1X 5K 1A 3W 1V 1A 5K 1X 4K 1W 1K 3V 1A 1K 1A 4K 1X 3K 2W 1Z 1K 3L 2K 1V 3K 1X 2K 4W 1Z 4L 2K 1V 2K 1X 2K 1V 1Z 1W 1Z 7L 1A 2K 1X 2K 1V 1L 1W 2L 2Y 4L 1A 2K 1X 2K 1A 1K 1V 7L 1K 1A 2K 1X 3K 1A 1V 6L 1K 1A 3K 1X 4K 1A 1K 4L 1K 1A 4K 1X 5K 1A 2W 2V 1A 5K 1X 16K",
      "single_word": false,
      "lstrip": false,
      "rstrip": false,
      "normalized": false,
      "special": true
    },
    {
      "id": 59,
      "content": "16K 1X 6K 1N 2H 1N 6K 1X 5K 1A 4H 1A 5K 1X 5K 1W 1N 2H 1N 1A 5K 1X 5K 1W 4N 1A 5K 1X 5K 1A 3W 1V 1A 5K 1X 4K 1W 1K 3V 1A 1K 1A 4K 1X 3K 2W 1Z 5N 1K 1V 3K 1X 2K 4W 1Z 1V 3O 1N 1K 1V 2K 1X 2K 1V 1Z 1W 1Z 1O 4E 1O 1N 1A 2K 1X 2K 1V 1N 1W 1O 1Z 2W 1Z 1V 1O 1N 1A 2K 1X 2K 1A 1K 1V 6E 1N 1K 1A 2K 1X 3K 1A 1V 1N 4E 2N 1A 3K 1X 4K 1A 1K 4N 1K 1A 4K 1X 5K 1A 2W 2V 1A 5K 1X 16K",
      "single_word": false,
      "lstrip": false,
      "rstrip": false,
      "normalized": false,
      "special": true
    },
    {
      "id": 60,
      "content": "16K 1X 6K 1N 2H 1N 6K 1X 5K 1A 4H 1A 5K 1X 5K 1W 1N 2H 1N 1A 5K 1X 5K 1W 4N 1A 5K 1X 5K 1A 3W 1V 1A 5K 1X 4K 1W 1K 3V 1A 1K 1A 4K 1X 3K 2W 1Z 5N 1K 1V 3K 1X 2K 4W 1Z 1V 4N 1K 1V 2K 1X 2K 1V 1Z 1W 1Z 1N 4R 2N 1A 2K 1X 2K 1V 1N 1W 1N 1H 2W 1H 1V 2N 1A 2K 1X 2K 1A 1K 1V 6R 1N 1K 1A 2K 1X 3K 1A 1V 1N 4R 2N 1A 3K 1X 4K 1A 1K 4N 1K 1A 4K 1X 5K 1A 2W 2V 1A 5K 1X 16K",
      "single_word": false,
      "lstrip": false,
      "rstrip": false,
      "normalized": false,
      "special": true
    },
    {
      "id": 61,
      "content": "16K 1X 6K 1N 2H 1N 6K 1X 5K 1A 4H 1A 5K 1X 5K 1W 1N 2H 1N 1A 5K 1X 5K 1W 4N 1A 5K 1X 5K 1A 3W 1V 1A 5K 1X 4K 1W 1N 3V 1A 1N 1A 4K 1X 3K 2W 1Z 1N 3E 2N 1V 3K 1X 2K 4W 1Z 1Y 3D 2N 1V 2K 1X 2K 1V 1Z 1W 1Z 5O 1D 1E 1A 2K 1X 2K 1V 1E 1W 1D 1Y 2Z 1Y 2D 1E 1A 2K 1X 2K 1A 1N 1V 6O 1E 1N 1A 2K 1X 3K 1A 1V 1E 4O 1E 1N 1A 3K 1X 4K 1A 1N 4E 1N 1A 4K 1X 5K 1A 2W 2V 1A 5K 1X 16K",
      "single_word": false,
      "lstrip": false,
      "rstrip": false,
      "normalized": false,
      "special": true
    },
    {
      "id": 62,
      "content": "16K 1X 6K 1N 2H 1N 6K 1X 5K 1A 4H 1A 5K 1X 5K 1W 1N 2H 1N 1A 5K 1X 5K 1W 4N 1A 5K 1X 5K 1A 3W 1V 1A 5K 1X 4K 1W 1N 3V 1A 1N 1A 4K 1X 3K 2W 1Z 6N 1V 3K 1X 2K 4W 1Z 1D 3O 2N 1V 2K 1X 2K 1V 1Z 1W 1Z 6O 1N 1A 2K 1X 2K 1V 1N 1W 1O 1D 2Z 1D 2O 1N 1A 2K 1X 2K 1A 1N 1V 6O 2N 1A 2K 1X 3K 1A 1V 1N 4O 2N 1A 3K 1X 4K 1A 6N 1A 4K 1X 5K 1A 2W 2V 1A 5K 1X 16K",
      "single_word": false,
      "lstrip": false,
      "rstrip": false,
      "normalized": false,
      "special": true
    },
    {
      "id": 63,
      "content": "16K 1X 6K 1N 2H 1N 6K 1X 5K 1A 4H 1A 5K 1X 5K 1W 1N 2H 1N 1A 5K 1X 5K 1W 4N 1A 5K 1X 5K 1A 3W 1V 1A 5K 1X 4K 1W 1U 3V 1A 1U 1A 4K 1X 3K 2W 1M 1U 3B 2U 1V 3K 1X 2K 4W 1M 4S 1B 1U 1V 2K 1X 2K 1V 1M 1W 1M 6S 1B 1A 2K 1X 2K 1V 1U 1W 1S 1M 2W 1M 2S 1B 1A 2K 1X 2K 1A 1U 1V 6S 1B 1U 1A 2K 1X 3K 1A 1V 1B 4S 1B 1U 1A 3K 1X 4K 1A 6U 1A 4K 1X 5K 1A 2W 2V 1A 5K 1X 16K",
      "single_word": false,
      "lstrip": false,
      "rstrip": false,
      "normalized": false,
      "special": true
    },
    {
      "id": 64,
      "content": "16K 1X 6K 1N 2H 1N 6K 1X 5K 1A 4H 1A 5K 1X 5K 1W 1N 2H 1N 1A 5K 1X 5K 1W 4N 1A 5K 1X 5K 1A 3W 1V 1A 5K 1X 4K 1W 1U 3V 1A 1U 1A 4K 1X 3K 2W 1M 6U 1V 3K 1X 2K 4W 1M 4L 2U 1V 2K 1X 2K 1V 1M 1W 1M 6L 1U 1A 2K 1X 2K 1V 1U 1W 2L 2M 3L 1U 1A 2K 1X 2K 1A 1U 1V 6L 2U 1A 2K 1X 3K 1A 1V 1U 4L 2U 1A 3K 1X 4K 1A 6U 1A 4K 1X 5K 1A 2W 2V 1A 5K 1X 16K",
      "single_word": false,
      "lstrip": false,
      "rstrip": false,
      "normalized": false,
      "special": true
    },
    {
      "id": 65,
      "content": "16K 1X 6K 1N 2H 1N 6K 1X 5K 1A 4H 1A 5K 1X 5K 1W 1N 2H 1N 1A 5K 1X 5K 1W 4N 1A 5K 1X 5K 1A 3W 1V 1A 5K 1X 4K 1W 1U 3V 1A 1U 1A 4K 1X 3K 2W 1M 6U 1V 3K 1X 2K 4W 1M 4S 2U 1V 2K 1X 2K 1V 1M 1W 1M 5L 1S 1U 1A 2K 1X 2K 1V 1U 1W 2S 2M 3S 1U 1A 2K 1X 2K 1A 1U 1V 6L 2U 1A 2K 1X 3K 1A 1V 1U 4L 2U 1A 3K 1X 4K 1A 6U 1A 4K 1X 5K 1A 2W 2V 1A 5K 1X 16K",
      "single_word": false,
      "lstrip": false,
      "rstrip": false,
      "normalized": false,
      "special": true
    },
    {
      "id": 66,
      "content": "16K 1X 6K 1N 2H 1N 6K 1X 5K 1A 4H 1A 5K 1X 5K 1W 1N 2H 1N 1A 5K 1X 5K 1W 4N 1A 5K 1X 5K 1A 3W 1V 1A 5K 1X 4K 1W 1U 3V 1A 1U 1A 4K 1X 3K 3W 1U 3B 2U 1V 3K 1X 2K 5W 4S 1B 1U 1V 2K 1X 2K 1V 3W 1S 4B 1S 1U 1A 2K 1X 2K 1V 1U 1W 2S 2W 3S 1U 1A 2K 1X 2K 1A 1U 1M 7B 1U 1A 2K 1X 3K 1A 1M 6B 1U 1A 3K 1X 4K 1A 1U 3B 2U 1A 4K 1X 5K 1A 2W 2V 1A 5K 1X 16K",
      "single_word": false,
      "lstrip": false,
      "rstrip": false,
      "normalized": false,
      "special": true
    },
    {
      "id": 67,
      "content": "16K 1X 6K 1N 2H 1N 6K 1X 5K 1A 4H 1A 5K 1X 5K 1W 1N 2H 1N 1A 5K 1X 5K 1W 4N 1A 5K 1X 5K 4W 1V 1A 5K 1X 3K 1A 1W 1K 3V 1A 1K 1V 1A 3K 1X 3K 2W 1V 1K 3A 1N 2V 3K 1X 3K 3W 1V 5A 1V 3K 1X 3K 2V 1W 6A 1V 3K 1X 3K 1A 1N 1W 1V 2Z 2V 2A 3K 1X 3K 1A 1N 1V 5A 1N 1A 3K 1X 3K 1A 1K 1V 5A 1K 1A 3K 1X 3K 1A 1K 1V 1N 3A 1N 1K 1A 3K 1X 3K 1A 1V 4W 3V 1A 3K 1X 16K",
      "single_word": false,
      "lstrip": false,
      "rstrip": false,
      "normalized": false,
      "special": true
    },
    {
      "id": 68,
      "content": "16K 1X 6K 1N 2H 1N 6K 1X 5K 1A 4H 1A 5K 1X 5K 1W 1N 2H 1N 1A 5K 1X 5K 1W 4N 1A 5K 1X 5K 4W 1V 1A 5K 1X 3K 1A 1W 1K 3V 1A 1K 1V 1A 3K 1X 3K 2W 1V 5K 2V 3K 1X 3K 3W 1V 4A 1K 1V 3K 1X 3K 2V 1W 5N 1A 1V 3K 1X 3K 1A 1K 1W 1A 2V 2A 1N 1A 3K 1X 3K 1A 1K 1V 5N 1K 1A 3K 1X 3K 1A 1K 1V 4N 2K 1A 3K 1X 3K 1A 1K 1V 6K 1A 3K 1X 3K 1A 1V 4W 3V 1A 3K 1X 16K",
      "single_word": false,
      "lstrip": false,
      "rstrip": false,
      "normalized": false,
      "special": true
    },
    {
      "id": 69,
      "content": "16K 1X 6K 1N 2H 1N 6K 1X 5K 1A 4H 1A 5K 1X 5K 1W 1N 2H 1N 1A 5K 1X 5K 1W 4N 1A 5K 1X 5K 4W 1V 1A 5K 1X 3K 1A 1W 1K 3V 1A 1K 1V 1A 3K 1X 3K 2W 1Z 1K 4N 2V 3K 1X 3K 3W 1Z 1V 3N 1K 1V 3K 1X 3K 1V 1Z 1W 1N 4R 1N 1V 3K 1X 3K 1A 1N 1W 1H 2W 1H 1V 1N 1A 3K 1X 3K 1A 1K 1V 5R 1N 1A 3K 1X 3K 1A 1K 1V 4R 1N 1K 1A 3K 1X 3K 1A 1K 1V 5N 1K 1A 3K 1X 3K 1A 1V 4W 3V 1A 3K 1X 16K",
      "single_word": false,
      "lstrip": false,
      "rstrip": false,
      "normalized": false,
      "special": true
    },
    {
      "id": 70,
      "content": "16K 1X 6K 1N 2H 1N 6K 1X 5K 1A 4H 1A 5K 1X 5K 1W 1N 2H 1N 1A 5K 1X 5K 1W 4N 1A 5K 1X 5K 4W 1V 1A 5K 1X 3K 1A 1W 1K 3V 1A 1K 1V 1A 3K 1X 3K 2W 1Z 1K 4N 2V 3K 1X 3K 3W 1Z 1V 3O 1K 1V 3K 1X 3K 1V 1Z 1W 1O 4E 1O 1V 3K 1X 3K 1A 1N 1W 1Z 2W 1Z 1V 1O 1A 3K 1X 3K 1A 1K 1V 5E 1N 1A 3K 1X 3K 1A 1K 1V 4E 1N 1K 1A 3K 1X 3K 1A 1K 1V 5N 1K 1A 3K 1X 3K 1A 1V 4W 3V 1A 3K 1X 16K",
      "single_word": false,
      "lstrip": false,
      "rstrip": false,
      "normalized": false,
      "special": true
    },
    {
      "id": 71,
      "content": "16K 1X 6K 1N 2H 1N 6K 1X 5K 1A 4H 1A 5K 1X 5K 1W 1N 2H 1N 1A 5K 1X 5K 1W 4N 1A 5K 1X 5K 4W 1V 1A 5K 1X 3K 1A 1W 1N 3V 1A 1N 1V 1A 3K 1X 3K 2W 1Z 1N 4E 2V 3K 1X 3K 3W 1Z 1Y 3D 1N 1V 3K 1X 3K 1V 1Z 1W 1Z 4O 1D 1V 3K 1X 3K 1A 1E 1W 1Y 2Z 1Y 2D 1A 3K 1X 3K 1A 1N 1V 5O 1E 1A 3K 1X 3K 1A 1N 1V 4O 1E 1N 1A 3K 1X 3K 1A 1N 1V 4E 2N 1A 3K 1X 3K 1A 1V 4W 3V 1A 3K 1X 16K",
      "single_word": false,
      "lstrip": false,
      "rstrip": false,
      "normalized": false,
      "special": true
    },
    {
      "id": 72,
      "content": "16K 1X 6K 1N 2H 1N 6K 1X 5K 1A 4H 1A 5K 1X 5K 1W 1N 2H 1N 1A 5K 1X 5K 1W 4N 1A 5K 1X 5K 4W 1V 1A 5K 1X 3K 1A 1W 1U 3V 1A 1U 1V 1A 3K 1X 3K 2W 1M 5U 2V 3K 1X 3K 3W 1M 4L 1U 1V 3K 1X 3K 1V 1M 1W 1M 5L 1V 3K 1X 3K 1A 1U 1W 1L 2M 3L 1A 3K 1X 3K 1A 1U 1V 5L 1U 1A 3K 1X 3K 1A 1U 1V 4L 2U 1A 3K 1X 3K 1A 1U 1V 6U 1A 3K 1X 3K 1A 1V 4W 3V 1A 3K 1X 16K",
      "single_word": false,
      "lstrip": false,
      "rstrip": false,
      "normalized": false,
      "special": true
    },
    {
      "id": 73,
      "content": "16K 1X 6K 1N 2H 1N 6K 1X 5K 1A 4H 1A 5K 1X 5K 1W 1N 2H 1N 1A 5K 1X 5K 1W 4N 1A 5K 1X 5K 4W 1V 1A 5K 1X 3K 1A 1W 1U 3V 1A 1U 1V 1A 3K 1X 3K 2W 1M 5U 2V 3K 1X 3K 3W 1M 4S 1U 1V 3K 1X 3K 1V 1M 1W 1M 5S 1V 3K 1X 3K 1A 1U 1W 1M 2W 1M 2S 1A 3K 1X 3K 1A 1U 1V 5S 1U 1A 3K 1X 3K 1A 1U 1V 4S 2U 1A 3K 1X 3K 1A 1U 1V 6U 1A 3K 1X 3K 1A 1V 4W 3V 1A 3K 1X 16K",
      "single_word": false,
      "lstrip": false,
      "rstrip": false,
      "normalized": false,
      "special": true
    },
    {
      "id": 74,
      "content": "16K 1X 6K 1N 2H 1N 6K 1X 5K 1A 4H 1A 5K 1X 5K 1W 1N 2H 1N 1A 5K 1X 5K 1W 4N 1A 5K 1X 5K 4W 1V 1A 5K 1X 3K 1A 1W 1U 3V 1A 1U 1V 1A 3K 1X 3K 3W 1U 4B 2V 3K 1X 3K 4W 4S 1U 1V 3K 1X 3K 1V 2W 1S 4B 1S 1V 3K 1X 3K 1A 1B 1W 1S 2W 3S 1A 3K 1X 3K 1A 1U 1V 6B 1A 3K 1X 3K 1A 1U 1V 5B 1U 1A 3K 1X 3K 1A 1U 1V 1B 5U 1A 3K 1X 3K 1A 1V 4W 3V 1A 3K 1X 16K",
      "single_word": false,
      "lstrip": false,
      "rstrip": false,
      "normalized": false,
      "special": true
    },
    {
      "id": 75,
      "content": "16K 1X 6K 1N 2H 1N 6K 1X 5K 1A 4H 1A 5K 1X 5K 1Z 1A 2H 2A 5K 1X 5K 1W 4N 1A 5K 1X 5K 1A 1Z 2W 1V 1A 5K 1X 4K 1A 1K 3V 1A 1K 1A 4K 1X 3K 1W 1N 2Z 4N 1K 1A 3K 1X 3K 1W 1Z 2W 1V 4N 1A 3K 1X 3K 1V 1Z 2W 4R 1N 1A 3K 1X 3K 1V 1N 1W 1V 2H 1V 2N 1A 3K 1X 3K 1A 1N 1V 5R 1N 1A 3K 1X 3K 1A 1N 1V 1N 3R 2N 1A 3K 1X 4K 2A 4N 1K 1A 4K 1X 5K 1A 2W 2V 1A 5K 1X 16K",
      "single_word": false,
      "lstrip": false,
      "rstrip": false,
      "normalized": false,
      "special": true
    },
    {
      "id": 76,
      "content": "16K 1X 7K 1L 8K 1X 6K 1E 1L 8K 1X 4K 1E 1L 1K 1E 2K 1L 5K 1X 5K 1E 1L 1K 1L 1E 6K 1X 16K 1X 4N 1K 1H 1O 1H 1O 1H 6K 1X 4N 5H 1O 1H 5K 1X 3N 5H 1O 1H 2O 4K 1X 3N 1O 3H 1O 1H 1O 1H 1O 4K 1X 3N 1H 1O 1H 1O 1H 1O 1H 1O 1D 4K 1X 3N 1O 1H 1O 1H 1O 1H 1O 1D 1O 4K 1X 3N 1H 1O 1H 1O 1H 1O 1D 2O 4K 1X 3N 1K 1H 3O 1D 2O 5K 1X 3N 2K 5O 6K 1X 3N 13K",
      "single_word": false,
      "lstrip": false,
      "rstrip": false,
      "normalized": false,
      "special": true
    },
    {
      "id": 77,
      "content": "1A 4U 11K 1X 2A 3U 11K 1X 3A 13K 1X [ Re2 ] [ 16K 1X ] 7K 1V 1H 7K 1X 6K 1H 1V 1H 1V 6K 1X 4K 2Z 2H 1Z 1H 2Z 4K 1X 3K 2Z 1V 2H 2Z 1V 2Z 3K 1X 3K 1H 1V 1H 2Z 1V 2Z 1V 1H 3K 1X 3K 1H 1V 1H 2Z 1V 2H 1V 1H 3K 1X 5K 2H 1V 3H 5K 1X [ Re4 ] [ 16K ]",
      "single_word": false,
      "lstrip": false,
      "rstrip": false,
      "normalized": false,
      "special": true
    },
    {
      "id": 78,
      "content": "1E 3U 12K 1X 6U 3K 1U 6K 1X [ Re2 ] [ 10U 6K 1X ] 10U 2K 2A 2K 1X 9U 1P 3A 1U 2K 1X 7U 1P 2A 2P 1U 3K 1X 2U 1P 4A 1V 2A 2P 4K 1X 1U 1P 2A 3V 2A 3P 4K 1X 1U 1P 6A 3P 5K 1X 1U 2P 4A 3P 6K 1X 1U 8P 7K 1X 2U 5P 9K 1X [ Re3 ] [ 5U 11K ]",
      "single_word": false,
      "lstrip": false,
      "rstrip": false,
      "normalized": false,
      "special": true
    },
    {
      "id": 79,
      "content": "1K 7N 1K 1N 6K 1X 1K 6N 9K 1X 3N 13K 1X 3N 7K 1L 2A 3K 1X 3N 6K 3E 4K 1X [ Re3 ] [ 3N 13K 1X ] 3N 1K 1N 3K 1N 7K 1X 2N 1H 3N 2K 1N 7K 1X 2N 1H 3N 1K 3N 1K 1N 4K 1X 1K 5N 1K 2N 1H 3N 3K 1X 2K 3N 2K 2N 1H 3N 3K 1X 8K 5N 3K 1X 9K 3N 4K 1X 5K 2A 9K",
      "single_word": false,
      "lstrip": false,
      "rstrip": false,
      "normalized": false,
      "special": true
    },
    {
      "id": 80,
      "content": "2E 7N 3L 4A 1X 3E 6N 3L 4A 1X 3E 6N 2L 1A 1K 3A 1X 3E 6N 1L 1A 1K 2A 2K 1X 3E 6N 1L 1K 2A 3K 1X 3E 7N 6K 1X 2E 5N 2O 3N 4K 1X 1E 5N 1O 8N 1K 1X 1E 4N 1O 9N 1K 1X 15N 1K 1X [ Re6 ] [ 14N 2K ]",
      "single_word": false,
      "lstrip": false,
      "rstrip": false,
      "normalized": false,
      "special": true
    },
    {
      "id": 81,
      "content": "3N 13K 1X [ Re2 ] [ 8N 8K 1X ] 8N 1K 1V 1A 5K 1X 5N 2Z 1H 1K 1A 1K 2N 3K 1X 4N 4H 1N 1K 2H 1N 3K 1X 3N 4H 2N 3H 1N 3K 1X 3N 1H 3N 5H 1N 3K 1X 3N 1H 3N 4H 2N 3K 1X [ Re2 ] [ 3K 4N 1H 5N 3K 1X ] 4K 4N 1H 3N 4K 1X 5K 5N 6K 1X [ Re3 ] [ 16K ]",
      "single_word": false,
      "lstrip": false,
      "rstrip": false,
      "normalized": false,
      "special": true
    },
    {
      "id": 82,
      "content": "4U 10K 2N 1X 4U 2K 6N 1K 3N 1X [ Re2 ] [ 16N 1X ] 7N 1H 8N 1X [ Re2 ] [ 16N 1X ] 5N 1H 10N 1X 6N 2H 8N 1X [ Re6 ] [ 16N 1X ] 12N 4U",
      "single_word": false,
      "lstrip": false,
      "rstrip": false,
      "normalized": false,
      "special": true
    },
    {
      "id": 83,
      "content": "5E 6L 3E 2A 1X 5E 6L 3E 1A 1K 1X 5E 1L 4E 4L 2K 1X 3E 1O 1D 1L 2D 2E 4L 2K 1X 2E 3D 2L 2D 1E 4L 2K 1X 2E 1D 1Z 3L 2D 1E 4L 2K 1X 2E 1O 1Z 3D 2E 1L 5E 1K 1X 2E 1O 1D 2Z 1E 1O 1D 1L 2D 3E 1K 1X 3E 2D 1E 3D 2L 2D 3E 1X 3E 2O 1E 1D 1Z 3L 2D 3E 1X 6E 1O 1Z 4D 1O 3E 1X 1N 5E 1O 1D 2Z 2D 1O 3E 1X 1N 6E 2D 1O 2D 4E 1X 1N 6E 2O 1E 2O 4E 1X [ Re2 ] [ 1N 15E ]",
      "single_word": false,
      "lstrip": false,
      "rstrip": false,
      "normalized": false,
      "special": true
    },
    {
      "id": 84,
      "content": "5L 4A 3K 4L 1X [ Re2 ] [ 5L 4A 7L 1X ] 3L 1A 1L 4Z 1L 2A 1M 3L 1X 2L 1M 1L 1V 4Z 1V 4L 2A 1X 1L 1M 1A 1L 1Z 2V 5Z 1V 1Z 2A 1X 3L 10Z 1V 1Z 1A 1X 1A 2Z 1V 9Z 1V 1Z 1A 1X 1A 3V 6Z 1V 3Z 2A 1X 1A 3Z 1V 4Z 4V 2A 1U 1X 1A 1E 1Z 1V 1Z 2V 2L 5Z 1A 1U 1X 2E 1A 3Z 1L 1M 1A 1L 1Z 1A 2Z 2A 1X 2E 4Z 1L 1A 1M 1A 1L 3Z 2A 1X 4E 2Z 5L 2Z 1E 2A 1X [ Re2 ] [ 7E 4L 3E 2A ]",
      "single_word": false,
      "lstrip": false,
      "rstrip": false,
      "normalized": false,
      "special": true
    },
    {
      "id": 85,
      "content": "5N 11K 1X 6N 3K 1V 6K 1X 6N 3K 1A 1V 5K 1X [ Re2 ] [ 6N 3K 2A 5K 1X ] 4N 5O 7K 1X 3N 2O 2D 3O 6K 1X 2N 1O 4D 4O 1K 1A 1V 2K 1X 2N 2O 1D 1O 2D 3O 2K 2A 1K 1X 2N 1O 4D 4O 3K 1A 1K 1X 2N 9O 5K 1X 2N 2O 1D 6O 5K 1X 2N 1K 7O 6K 1X 2N 2K 5O 7K 1X [ Re2 ] [ 2N 14K ]",
      "single_word": false,
      "lstrip": false,
      "rstrip": false,
      "normalized": false,
      "special": true
    },
    {
      "id": 86,
      "content": "5N 4L 7N 1X 5N 5L 5N 1E 1X 5N 1L 4N 3L 1N 2E 1X 5N 1L 4N 4L 2E 1X 5N 2L 3N 4L 2E 1X 3N 1H 3L 3N 4L 2E 1X 3N 1H 5N 1L 5N 1E 1X 4N 2H 3N 1L 5N 1E 1X 9N 2L 5N 1X 7N 1H 3L 5N 1X 7N 1H 8N 1X 8N 2H 6N 1X [ Re3 ] [ 16N 1X ] 6E 10N",
      "single_word": false,
      "lstrip": false,
      "rstrip": false,
      "normalized": false,
      "special": true
    },
    {
      "id": 87,
      "content": "5W 1S 10W 1X [ Re2 ] [ 4W 2S 10W 1X ] 3W 1S 1W 1S 2W 6N 2W 1X 2W 1S 2W 1S 7W 1N 2W 1X [ Re2 ] [ 5W 1S 4W 1A 2W 1N 2W 1X ] 4W 1S 5W 1A 1W 2N 2W 1X 4W 4S 2W 1A 1W 1N 3W 1X 4W 1S 4W 2A 1W 1N 3W 1X 3W 6A 3W 1N 3W 1X 3W 1A 7W 1N 4W 1X 3W 1A 5W 3N 4W 1X 3W 1A 2W 3N 2W 2N 3W 1X 7W 5N 4W 1X 16W",
      "single_word": false,
      "lstrip": false,
      "rstrip": false,
      "normalized": false,
      "special": true
    },
    {
      "id": 88,
      "content": "6K 2L 8K 1X 5K 4L 7K 1X 5K 1L 4K 6L 1X 3K 5L 2K 6L 1X 2K 7L 1K 6L 1X 2K 1L 1M 5L 1K 6L 1X 2K 1L 1M 3L 2K 1L 6K 1X 2K 2L 2M 1K 5L 4K 1X 3K 2L 1K 7L 3K 1X 3K 2L 1K 1L 1M 5L 3K 1X 6K 1L 1M 5L 3K 1X 1E 5K 2L 2M 3L 3K 1X 1E 6K 5L 4K 1X 1E 6K 2L 1K 2L 4K 1X [ Re2 ] [ 1E 15K ]",
      "single_word": false,
      "lstrip": false,
      "rstrip": false,
      "normalized": false,
      "special": true
    },
    {
      "id": 89,
      "content": "6U 10K 1X 6U 9K 1N 1X 6U 4K 3U 2K 1N 1X 3U 1A 1U 1A 3K 4U 2K 1N 1X 2U 1A 1U 1K 2U 2K 4U 2K 1N 1X 2U 2A 1U 1A 1U 2K 4U 2K 1N 1X 3U 2A 2U 1K 2U 1A 1U 1A 3K 1X 2U 1K 3U 2K 1U 1A 1U 1K 2U 2K 1X 2U 4K 3U 2A 1U 1A 1U 2K 1X 2U 2K 6U 2A 2U 2K 1X 5U 1A 1U 1A 2K 3U 3K 1X 4U 1A 1U 1K 2U 7K 1X 4U 2A 1U 1A 1U 6K 1N 1X 5U 2A 2U 6K 1N 1X 4U 1K 3U 7K 1N 1X 4U 11K 1N",
      "single_word": false,
      "lstrip": false,
      "rstrip": false,
      "normalized": false,
      "special": true
    },
    {
      "id": 90,
      "content": "7N 9E 1X [ Re3 ] [ 16N 1X ] 6N 1A 9N 1X 6N 2A 1O 2A 5N 1X 7N 2A 7N 1X 5N 1H 4A 1O 4N 1U 1X 9N 1A 1O 4N 1U 1X 6N 2H 7N 1U 1X 15N 1U 1X [ Re3 ] [ 1E 14N 1U 1X ] 1E 11N 3A 1U 1X 1E 9N 2L 4A",
      "single_word": false,
      "lstrip": false,
      "rstrip": false,
      "normalized": false,
      "special": true
    },
    {
      "id": 91,
      "content": "9E 7N 1X [ Re2 ] [ 16E 1X ] 4E 5H 7E 1X 3E 4H 2Z 2H 5E 1X 2E 6H 2Z 2H 4E 1X 2E 1H 1E 2H 5E 1H 3E 1N 1X 2E 1H 1N 1H 1E 5H 5E 1X 1K 2E 1H 1E 4H 2Z 2H 3E 1X 1K 3E 6H 2Z 2H 2E 1X 1K 3E 1H 1E 2H 1A 5H 2E 1X 1K 3E 1H 1N 8H 2E 1X 1K 4E 3H 1E 4H 3E 1X 1K 6E 4H 5E 1X 1K 15E 1X 16E",
      "single_word": false,
      "lstrip": false,
      "rstrip": false,
      "normalized": false,
      "special": true
    },
    {
      "id": 92,
      "content": "[ Re2 ] [ 16A 1X ] [ Re12 ] [ 2A 12W 2A 1X ] [ Re2 ] [ 16A ]",
      "single_word": false,
      "lstrip": false,
      "rstrip": false,
      "normalized": false,
      "special": true
    },
    {
      "id": 93,
      "content": "[ Re2 ] [ 16B 1X ] [ Re12 ] [ 2B 12W 2B 1X ] [ Re2 ] [ 16B ]",
      "single_word": false,
      "lstrip": false,
      "rstrip": false,
      "normalized": false,
      "special": true
    },
    {
      "id": 94,
      "content": "[ Re2 ] [ 16D 1X ] [ Re12 ] [ 2D 12W 2D 1X ] [ Re2 ] [ 16D ]",
      "single_word": false,
      "lstrip": false,
      "rstrip": false,
      "normalized": false,
      "special": true
    },
    {
      "id": 95,
      "content": "[ Re2 ] [ 16E 1X ] [ Re12 ] [ 2E 12W 2E 1X ] [ Re2 ] [ 16E ]",
      "single_word": false,
      "lstrip": false,
      "rstrip": false,
      "normalized": false,
      "special": true
    },
    {
      "id": 96,
      "content": "[ Re2 ] [ 16G 1X ] [ Re12 ] [ 2G 12W 2G 1X ] [ Re2 ] [ 16G ]",
      "single_word": false,
      "lstrip": false,
      "rstrip": false,
      "normalized": false,
      "special": true
    },
    {
      "id": 97,
      "content": "[ Re2 ] [ 16H 1X ] [ Re12 ] [ 2H 12W 2H 1X ] [ Re2 ] [ 16H ]",
      "single_word": false,
      "lstrip": false,
      "rstrip": false,
      "normalized": false,
      "special": true
    },
    {
      "id": 98,
      "content": "[ Re2 ] [ 16J 1X ] [ Re12 ] [ 2J 12W 2J 1X ] [ Re2 ] [ 16J ]",
      "single_word": false,
      "lstrip": false,
      "rstrip": false,
      "normalized": false,
      "special": true
    },
    {
      "id": 99,
      "content": "[ Re2 ] [ 16K 1X ] 15K 1N 1X 7K 1V 1L 6K 1N 1X 5K 1L 1K 1A 1K 1L 1A 4K 1N 1X 5K 1A 4K 1A 4K 1N 1X 6K 2A 1V 2K 5N 1X 1K 5N 3K 7N 1X 5N 1A 10N 1X 4K 1N 1O 2H 8N 1X 4K 1N 1A 1N 1E 4N 4K 1X 4K 8N 4K 1X 5K 6N 5K 1X [ Re3 ] [ 16K ]",
      "single_word": false,
      "lstrip": false,
      "rstrip": false,
      "normalized": false,
      "special": true
    },
    {
      "id": 100,
      "content": "[ Re2 ] [ 16K 1X ] 5K 1A 5E 5K 1X 3K 2A 2E 3A 3E 3K 1X 2K 1E 1A 2E 3A 5E 2K 1X 2K 1E 1V 1A 1E 2A 6E 2K 1X 1K 1E 1V 2A 1V 2A 1E 2A 4E 1K 1X 1K 1E 1V 2A 2V 4A 4E 1K 1X 1K 1E 1A 1E 1A 1E 1A 2V 1A 5E 1K 1X 1K 5E 3V 6E 1K 1X 1K 4E 2V 8E 1K 1X 2K 7E 2A 4E 1K 1X 2K 3E 5A 4E 2K 1X 3K 5E 2A 3E 3K 1X 5K 6E 5K 1X 16K",
      "single_word": false,
      "lstrip": false,
      "rstrip": false,
      "normalized": false,
      "special": true
    },
    {
      "id": 101,
      "content": "[ Re2 ] [ 16K 1X ] 5K 3N 8K 1X 4K 5N 7K 1X 3K 1N 2A 4N 6K 1X 2K 1N 1A 3N 9K 1X 2K 1A 2N 2K 3Z 1V 5K 1X 1K 3N 1K 2V 4A 2V 3K 1X 1K 2N 1K 1V 8A 1Z 2K 1X 1K 2N 1K 1Z 3V 5A 1V 2K 1X 1K 2N 1K 4V 5A 1V 2K 1X 2K 1N 2K 4V 3A 1V 3K 1X 5K 1N 2V 1Z 3V 4K 1X 5K 1N 6K 1N 3K 1X 6K 6N 4K 1X 3K 1U 12K",
      "single_word": false,
      "lstrip": false,
      "rstrip": false,
      "normalized": false,
      "special": true
    },
    {
      "id": 102,
      "content": "[ Re2 ] [ 16K 1X ] 6K 1N 2H 1N 6K 1X 5K 1A 4H 1A 5K 1X 5K 1W 1A 2H 2A 5K 1X 5K 1W 4N 1A 5K 1X 5K 1A 3W 1V 1A 5K 1X 3K 1A 1W 1K 3V 1A 1K 1V 1A 3K 1X 3K 2W 1Z 1K 4E 2V 3K 1X 3K 3W 1Z 5E 1V 3K 1X 3K 1V 1Z 1W 1D 2Y 1D 2E 1V 3K 1X 3K 1A 1E 1W 5E 1K 1A 3K 1X 3K 1A 1K 1V 4E 2K 1A 3K 1X 3K 1A 1V 4W 3V 1A 3K 1X [ Re2 ] [ 16K ]",
      "single_word": false,
      "lstrip": false,
      "rstrip": false,
      "normalized": false,
      "special": true
    },
    {
      "id": 103,
      "content": "[ Re2 ] [ 16K 1X ] 6K 1N 2H 1N 6K 1X 5K 1A 4H 1A 5K 1X 5K 1W 1A 2H 2A 5K 1X 5K 1W 4N 1A 5K 1X 5K 1A 3W 1V 1A 5K 1X 3K 1A 1W 1U 3V 1A 1U 1V 1A 3K 1X 3K 2W 1H 1U 4P 2V 3K 1X 3K 3W 1H 4P 1J 1V 3K 1X 3K 1V 1H 1W 4H 2J 1V 3K 1X 3K 1A 1P 1W 1U 4P 1U 1A 3K 1X 3K 1A 1U 1V 1U 3P 2U 1A 3K 1X 3K 1A 1V 4W 3V 1A 3K 1X [ Re2 ] [ 16K ]",
      "single_word": false,
      "lstrip": false,
      "rstrip": false,
      "normalized": false,
      "special": true
    },
    {
      "id": 104,
      "content": "[ Re2 ] [ 16K 1X ] 6K 1N 2H 1N 6K 1X 5K 1A 4H 1A 5K 1X 5K 1W 1N 2H 1N 1A 5K 1X 5K 1W 4N 1A 5K 1X 5K 1A 3W 1V 1A 5K 1X 3K 1A 1W 1K 3V 1A 1K 1V 1A 3K 1X 3K 2W 1Z 1K 4L 2V 3K 1X 3K 3W 1Z 5L 1V 3K 1X 3K 1V 1Z 1W 1L 2Y 3L 1V 3K 1X 3K 1A 1L 1W 5L 1K 1A 3K 1X 3K 1A 1K 1V 4L 2K 1A 3K 1X 3K 1A 1V 4W 3V 1A 3K 1X [ Re2 ] [ 16K ]",
      "single_word": false,
      "lstrip": false,
      "rstrip": false,
      "normalized": false,
      "special": true
    },
    {
      "id": 105,
      "content": "[ Re2 ] [ 16K 1X ] 6K 1N 2H 1N 6K 1X 5K 1A 4H 1A 5K 1X 5K 1W 1N 2H 1N 1A 5K 1X 5K 1W 4N 1A 5K 1X 5K 1A 3W 1V 1A 5K 1X 3K 1A 1W 1N 3V 1A 1N 1V 1A 3K 1X 3K 2W 1Z 5N 2V 3K 1X 3K 3W 1Z 5O 1V 3K 1X 3K 1V 1Z 1W 1D 2Z 1D 2O 1V 3K 1X 3K 1A 1N 1W 6N 1A 3K 1X 3K 1A 1N 1V 6N 1A 3K 1X 3K 1A 1V 4W 3V 1A 3K 1X [ Re2 ] [ 16K ]",
      "single_word": false,
      "lstrip": false,
      "rstrip": false,
      "normalized": false,
      "special": true
    },
    {
      "id": 106,
      "content": "[ Re2 ] [ 16K 1X ] 6K 1N 2H 1N 6K 1X 5K 1A 4H 1A 5K 1X 5K 1W 1N 2H 1N 1A 5K 1X 5K 1W 4N 1A 5K 1X 5K 1A 3W 1V 1A 5K 1X 3K 1A 1W 1U 3V 1A 1U 1V 1A 3K 1X 3K 2W 1M 5U 2V 3K 1X 3K 3W 1M 4L 1S 1V 3K 1X 3K 1V 1M 1W 1S 2M 3S 1V 3K 1X 3K 1A 1U 1W 6U 1A 3K 1X 3K 1A 1U 1V 6U 1A 3K 1X 3K 1A 1V 4W 3V 1A 3K 1X [ Re2 ] [ 16K ]",
      "single_word": false,
      "lstrip": false,
      "rstrip": false,
      "normalized": false,
      "special": true
    },
    {
      "id": 107,
      "content": "[ Re2 ] [ 16K 1X ] 6K 1N 2H 1N 6K 1X 5K 1A 4H 1A 5K 1X 5K 1W 1N 2H 1N 1A 5K 1X 5K 1W 4N 1A 5K 1X 5K 4W 1V 1A 5K 1X 3K 1A 1W 1K 3V 1A 1K 1V 1A 3K 1X 3K 2W 1V 5K 2V 3K 1X 3K 3W 1V 4A 1K 1V 3K 1X 3K 2V 1W 1A 2V 2A 1N 1V 3K 1X 3K 1A 1K 1W 1K 3N 2K 1A 3K 1X 3K 1A 1K 1V 1K 2N 3K 1A 3K 1X 3K 1A 1V 4W 3V 1A 3K 1X [ Re2 ] [ 16K ]",
      "single_word": false,
      "lstrip": false,
      "rstrip": false,
      "normalized": false,
      "special": true
    },
    {
      "id": 108,
      "content": "[ Re2 ] [ 16K 1X ] 6K 1N 2H 1N 6K 1X 5K 1A 4H 1A 5K 1X 5K 1W 1N 2H 1N 1A 5K 1X 5K 1W 4N 1A 5K 1X 5K 4W 1V 1A 5K 1X 3K 1A 1W 1K 3V 1A 1K 1V 1A 3K 1X 3K 2W 1Z 1K 4N 2V 3K 1X 3K 3W 1N 4R 1N 1V 3K 1X 3K 1V 1Z 1W 1H 2W 1H 1V 1N 1V 3K 1X 3K 1A 1N 1W 1N 3R 2N 1A 3K 1X 3K 1A 1K 1V 2N 2R 1N 1K 1A 3K 1X 3K 1A 1V 4W 3V 1A 3K 1X [ Re2 ] [ 16K ]",
      "single_word": false,
      "lstrip": false,
      "rstrip": false,
      "normalized": false,
      "special": true
    },
    {
      "id": 109,
      "content": "[ Re2 ] [ 16K 1X ] 6K 1N 2H 1N 6K 1X 5K 1A 4H 1A 5K 1X 5K 1W 1N 2H 1N 1A 5K 1X 5K 1W 4N 1A 5K 1X 5K 4W 1V 1A 5K 1X 3K 1A 1W 1K 3V 1A 1K 1V 1A 3K 1X 3K 2W 1Z 1K 4N 2V 3K 1X 3K 3W 1O 4E 1O 1V 3K 1X 3K 1V 1Z 1W 1Z 2W 1Z 1V 1O 1V 3K 1X 3K 1A 1N 1W 1N 3E 2N 1A 3K 1X 3K 1A 1K 1V 2N 2E 1N 1K 1A 3K 1X 3K 1A 1V 4W 3V 1A 3K 1X [ Re2 ] [ 16K ]",
      "single_word": false,
      "lstrip": false,
      "rstrip": false,
      "normalized": false,
      "special": true
    },
    {
      "id": 110,
      "content": "[ Re2 ] [ 16K 1X ] 6K 1N 2H 1N 6K 1X 5K 1A 4H 1A 5K 1X 5K 1W 1N 2H 1N 1A 5K 1X 5K 1W 4N 1A 5K 1X 5K 4W 1V 1A 5K 1X 3K 1A 1W 1K 3V 1A 1K 1V 1A 3K 1X 3K 3W 1K 3A 1N 2V 3K 1X 3K 4W 5A 1V 3K 1X 3K 1V 2W 1V 2Z 2V 1A 1V 3K 1X 3K 1A 1N 1W 1N 4A 1N 1A 3K 1X 3K 1A 1K 1V 1N 3A 1N 1K 1A 3K 1X 3K 1A 1V 4W 3V 1A 3K 1X [ Re2 ] [ 16K ]",
      "single_word": false,
      "lstrip": false,
      "rstrip": false,
      "normalized": false,
      "special": true
    },
    {
      "id": 111,
      "content": "[ Re2 ] [ 16K 1X ] 6K 1N 2H 1N 6K 1X 5K 1A 4H 1A 5K 1X 5K 1W 1N 2H 1N 1A 5K 1X 5K 1W 4N 1A 5K 1X 5K 4W 1V 1A 5K 1X 3K 1A 1W 1N 3V 1A 1N 1V 1A 3K 1X 3K 2W 1Z 1N 4E 2V 3K 1X 3K 3W 1Z 4O 1D 1V 3K 1X 3K 1V 1Z 1W 1Y 2Z 1Y 2D 1V 3K 1X 3K 1A 1E 1W 5E 1N 1A 3K 1X 3K 1A 1N 1V 4E 2N 1A 3K 1X 3K 1A 1V 4W 3V 1A 3K 1X [ Re2 ] [ 16K ]",
      "single_word": false,
      "lstrip": false,
      "rstrip": false,
      "normalized": false,
      "special": true
    },
    {
      "id": 112,
      "content": "[ Re2 ] [ 16K 1X ] 6K 1N 2H 1N 6K 1X 5K 1A 4H 1A 5K 1X 5K 1W 1N 2H 1N 1A 5K 1X 5K 1W 4N 1A 5K 1X 5K 4W 1V 1A 5K 1X 3K 1A 1W 1U 3V 1A 1U 1V 1A 3K 1X 3K 2W 1M 5U 2V 3K 1X 3K 3W 1M 5L 1V 3K 1X 3K 1V 1M 1W 1L 2M 3L 1V 3K 1X 3K 1A 1U 1W 6U 1A 3K 1X 3K 1A 1U 1V 6U 1A 3K 1X 3K 1A 1V 4W 3V 1A 3K 1X [ Re2 ] [ 16K ]",
      "single_word": false,
      "lstrip": false,
      "rstrip": false,
      "normalized": false,
      "special": true
    },
    {
      "id": 113,
      "content": "[ Re2 ] [ 16K 1X ] 6K 1N 2H 1N 6K 1X 5K 1A 4H 1A 5K 1X 5K 1W 1N 2H 1N 1A 5K 1X 5K 1W 4N 1A 5K 1X 5K 4W 1V 1A 5K 1X 3K 1A 1W 1U 3V 1A 1U 1V 1A 3K 1X 3K 2W 1M 5U 2V 3K 1X 3K 3W 1M 5S 1V 3K 1X 3K 1V 1M 1W 1M 2W 1M 2S 1V 3K 1X 3K 1A 1U 1W 6U 1A 3K 1X 3K 1A 1U 1V 6U 1A 3K 1X 3K 1A 1V 4W 3V 1A 3K 1X [ Re2 ] [ 16K ]",
      "single_word": false,
      "lstrip": false,
      "rstrip": false,
      "normalized": false,
      "special": true
    },
    {
      "id": 114,
      "content": "[ Re2 ] [ 16K 1X ] 6K 1N 2H 1N 6K 1X 5K 1A 4H 1A 5K 1X 5K 1W 1N 2H 1N 1A 5K 1X 5K 1W 4N 1A 5K 1X 5K 4W 1V 1A 5K 1X 3K 1A 1W 1U 3V 1A 1U 1V 1A 3K 1X 3K 3W 1U 4B 2V 3K 1X 3K 3W 1S 4B 1S 1V 3K 1X 3K 1V 2W 1S 2W 3S 1V 3K 1X 3K 1A 1B 1W 5B 1U 1A 3K 1X 3K 1A 1U 1V 3B 3U 1A 3K 1X 3K 1A 1V 4W 3V 1A 3K 1X [ Re2 ] [ 16K ]",
      "single_word": false,
      "lstrip": false,
      "rstrip": false,
      "normalized": false,
      "special": true
    },
    {
      "id": 115,
      "content": "[ Re2 ] [ 16K 1X ] 8K 1W 7K 1X 7K 1W 1K 1W 6K 1X 6K 1W 3K 1W 5K 1X 5K 1W 5K 1W 4K 1X 4K 1W 7K 1W 3K 1X 3K 1W 9K 1W 2K 1X 2K 1W 11K 1W 1K 1X 1K 1W 13K 1W 1X [ Re3 ] [ 1W 14K 1W 1X ] 16W 1X [ Re2 ] [ 16K ]",
      "single_word": false,
      "lstrip": false,
      "rstrip": false,
      "normalized": false,
      "special": true
    },
    {
      "id": 116,
      "content": "[ Re2 ] [ 16K 1X ] 8K 1W 7K 1X 7K 3W 6K 1X 6K 5W 5K 1X 5K 7W 4K 1X 4K 9W 3K 1X 3K 11W 2K 1X 2K 13W 1K 1X 1K 15W 1X [ Re4 ] [ 16W 1X ] [ Re2 ] [ 16K ]",
      "single_word": false,
      "lstrip": false,
      "rstrip": false,
      "normalized": false,
      "special": true
    },
    {
      "id": 117,
      "content": "[ Re2 ] [ 16K 1X ] 8K 1W 7K 1X 7K 3W 6K 1X 6K 5W 5K 1X 5K 7W 4K 1X 4K 9W 3K 1X 3K 11W 2K 1X 2K 13W 1K 1X 3K 11W 2K 1X 4K 9W 3K 1X 5K 7W 4K 1X 6K 5W 5K 1X 7K 3W 6K 1X 8K 1W 7K 1X 16K",
      "single_word": false,
      "lstrip": false,
      "rstrip": false,
      "normalized": false,
      "special": true
    },
    {
      "id": 118,
      "content": "[ Re2 ] [ 16K 1X ] [ Re12 ] [ 2K 12W 2K 1X ] [ Re2 ] [ 16K ]",
      "single_word": false,
      "lstrip": false,
      "rstrip": false,
      "normalized": false,
      "special": true
    },
    {
      "id": 119,
      "content": "[ Re2 ] [ 16K 1X ] [ Re6 ] [ 2K 12W 2K 1X 16K 1X ] [ Re2 ] [ 16K  ]",
      "single_word": false,
      "lstrip": false,
      "rstrip": false,
      "normalized": false,
      "special": true
    },
    {
      "id": 120,
      "content": "[ Re2 ] [ 16K 1X ] [ Re6 ] [ 2K 1W 1K 1W 1K 1W 1K 1W 1K 1W 1K 1W 3K 1X 3K 1W 1K 1W 1K 1W 1K 1W 1K 1W 1K 1W 2K 1X ] [ Re2 ] [ 16K  ]",
      "single_word": false,
      "lstrip": false,
      "rstrip": false,
      "normalized": false,
      "special": true
    },
    {
      "id": 121,
      "content": "[ Re2 ] [ 16K 1X ] [ Re6 ] [ 8K 1W 7K 1X ] 2K 12W 2K 1X [ Re5 ] [ 8K 1W 7K 1X ] [ Re2 ] [ 16K ]",
      "single_word": false,
      "lstrip": false,
      "rstrip": false,
      "normalized": false,
      "special": true
    },
    {
      "id": 122,
      "content": "[ Re2 ] [ 16L 1X ] [ Re12 ] [ 2L 12W 2L 1X ] [ Re2 ] [ 16L ]",
      "single_word": false,
      "lstrip": false,
      "rstrip": false,
      "normalized": false,
      "special": true
    },
    {
      "id": 123,
      "content": "[ Re2 ] [ 16M 1X ] [ Re12 ] [ 2M 12W 2M 1X ] [ Re2 ] [ 16M ]",
      "single_word": false,
      "lstrip": false,
      "rstrip": false,
      "normalized": false,
      "special": true
    },
    {
      "id": 124,
      "content": "[ Re2 ] [ 16N 1X ] [ Re12 ] [ 2N 12W 2N 1X ] [ Re2 ] [ 16N ]",
      "single_word": false,
      "lstrip": false,
      "rstrip": false,
      "normalized": false,
      "special": true
    },
    {
      "id": 125,
      "content": "[ Re2 ] [ 16O 1X ] [ Re12 ] [ 2O 12W 2O 1X ] [ Re2 ] [ 16O ]",
      "single_word": false,
      "lstrip": false,
      "rstrip": false,
      "normalized": false,
      "special": true
    },
    {
      "id": 126,
      "content": "[ Re2 ] [ 16P 1X ] [ Re12 ] [ 2P 12W 2P 1X ] [ Re2 ] [ 16P ]",
      "single_word": false,
      "lstrip": false,
      "rstrip": false,
      "normalized": false,
      "special": true
    },
    {
      "id": 127,
      "content": "[ Re2 ] [ 16R 1X ] [ Re12 ] [ 2R 12W 2R 1X ] [ Re2 ] [ 16R ]",
      "single_word": false,
      "lstrip": false,
      "rstrip": false,
      "normalized": false,
      "special": true
    },
    {
      "id": 128,
      "content": "[ Re2 ] [ 16S 1X ] [ Re12 ] [ 2S 12W 2S 1X ] [ Re2 ] [ 16S ]",
      "single_word": false,
      "lstrip": false,
      "rstrip": false,
      "normalized": false,
      "special": true
    },
    {
      "id": 129,
      "content": "[ Re2 ] [ 16U 1X ] [ Re12 ] [ 2U 12W 2U 1X ] [ Re2 ] [ 16U ]",
      "single_word": false,
      "lstrip": false,
      "rstrip": false,
      "normalized": false,
      "special": true
    },
    {
      "id": 130,
      "content": "[ Re2 ] [ 16V 1X ] [ Re12 ] [ 2V 12W 2V 1X ] [ Re2 ] [ 16V ]",
      "single_word": false,
      "lstrip": false,
      "rstrip": false,
      "normalized": false,
      "special": true
    },
    {
      "id": 131,
      "content": "[ Re2 ] [ 16W 1X ] 8W 1A 7W 1X 7W 1A 1W 1A 6W 1X 6W 1A 3W 1A 5W 1X 5W 1A 5W 1A 4W 1X 4W 1A 7W 1A 3W 1X 3W 1A 9W 1A 2W 1X 2W 1A 11W 1A 1W 1X 1W 1A 13W 1A 1X [ Re3 ] [ 1A 14W 1A 1X ] 16A 1X [ Re2 ] [ 16W ]",
      "single_word": false,
      "lstrip": false,
      "rstrip": false,
      "normalized": false,
      "special": true
    },
    {
      "id": 132,
      "content": "[ Re2 ] [ 16W 1X ] 8W 1A 7W 1X 7W 3A 6W 1X 6W 5A 5W 1X 5W 7A 4W 1X 4W 9A 3W 1X 3W 11A 2W 1X 2W 13A 1W 1X 1W 15A 1X [ Re4 ] [ 16A 1X ] [ Re2 ] [ 16W ]",
      "single_word": false,
      "lstrip": false,
      "rstrip": false,
      "normalized": false,
      "special": true
    },
    {
      "id": 133,
      "content": "[ Re2 ] [ 16W 1X ] 8W 1A 7W 1X 7W 3A 6W 1X 6W 5A 5W 1X 5W 7A 4W 1X 4W 9A 3W 1X 3W 11A 2W 1X 2W 13A 1W 1X 3W 11A 2W 1X 4W 9A 3W 1X 5W 7A 4W 1X 6W 5A 5W 1X 7W 3A 6W 1X 8W 1A 7W 1X 16W",
      "single_word": false,
      "lstrip": false,
      "rstrip": false,
      "normalized": false,
      "special": true
    },
    {
      "id": 134,
      "content": "[ Re2 ] [ 16W 1X ] 8W 1B 7W 1X 7W 1B 1W 1B 6W 1X 6W 1B 3W 1B 5W 1X 5W 1B 5W 1B 4W 1X 4W 1B 7W 1B 3W 1X 3W 1B 9W 1B 2W 1X 2W 1B 11W 1B 1W 1X 1W 1B 13W 1B 1X [ Re3 ] [ 1B 14W 1B 1X ] 16B 1X [ Re2 ] [ 16W ]",
      "single_word": false,
      "lstrip": false,
      "rstrip": false,
      "normalized": false,
      "special": true
    },
    {
      "id": 135,
      "content": "[ Re2 ] [ 16W 1X ] 8W 1B 7W 1X 7W 3B 6W 1X 6W 5B 5W 1X 5W 7B 4W 1X 4W 9B 3W 1X 3W 11B 2W 1X 2W 13B 1W 1X 1W 15B 1X [ Re4 ] [ 16B 1X ] [ Re2 ] [ 16W ]",
      "single_word": false,
      "lstrip": false,
      "rstrip": false,
      "normalized": false,
      "special": true
    },
    {
      "id": 136,
      "content": "[ Re2 ] [ 16W 1X ] 8W 1B 7W 1X 7W 3B 6W 1X 6W 5B 5W 1X 5W 7B 4W 1X 4W 9B 3W 1X 3W 11B 2W 1X 2W 13B 1W 1X 3W 11B 2W 1X 4W 9B 3W 1X 5W 7B 4W 1X 6W 5B 5W 1X 7W 3B 6W 1X 8W 1B 7W 1X 16W",
      "single_word": false,
      "lstrip": false,
      "rstrip": false,
      "normalized": false,
      "special": true
    },
    {
      "id": 137,
      "content": "[ Re2 ] [ 16W 1X ] 8W 1D 7W 1X 7W 1D 1W 1D 6W 1X 6W 1D 3W 1D 5W 1X 5W 1D 5W 1D 4W 1X 4W 1D 7W 1D 3W 1X 3W 1D 9W 1D 2W 1X 2W 1D 11W 1D 1W 1X 1W 1D 13W 1D 1X [ Re3 ] [ 1D 14W 1D 1X ] 16D 1X [ Re2 ] [ 16W ]",
      "single_word": false,
      "lstrip": false,
      "rstrip": false,
      "normalized": false,
      "special": true
    },
    {
      "id": 138,
      "content": "[ Re2 ] [ 16W 1X ] 8W 1D 7W 1X 7W 3D 6W 1X 6W 5D 5W 1X 5W 7D 4W 1X 4W 9D 3W 1X 3W 11D 2W 1X 2W 13D 1W 1X 1W 15D 1X [ Re4 ] [ 16D 1X ] [ Re2 ] [ 16W ]",
      "single_word": false,
      "lstrip": false,
      "rstrip": false,
      "normalized": false,
      "special": true
    },
    {
      "id": 139,
      "content": "[ Re2 ] [ 16W 1X ] 8W 1D 7W 1X 7W 3D 6W 1X 6W 5D 5W 1X 5W 7D 4W 1X 4W 9D 3W 1X 3W 11D 2W 1X 2W 13D 1W 1X 3W 11D 2W 1X 4W 9D 3W 1X 5W 7D 4W 1X 6W 5D 5W 1X 7W 3D 6W 1X 8W 1D 7W 1X 16W",
      "single_word": false,
      "lstrip": false,
      "rstrip": false,
      "normalized": false,
      "special": true
    },
    {
      "id": 140,
      "content": "[ Re2 ] [ 16W 1X ] 8W 1E 7W 1X 7W 1E 1W 1E 6W 1X 6W 1E 3W 1E 5W 1X 5W 1E 5W 1E 4W 1X 4W 1E 7W 1E 3W 1X 3W 1E 9W 1E 2W 1X 2W 1E 11W 1E 1W 1X 1W 1E 13W 1E 1X [ Re3 ] [ 1E 14W 1E 1X ] 16E 1X [ Re2 ] [ 16W ]",
      "single_word": false,
      "lstrip": false,
      "rstrip": false,
      "normalized": false,
      "special": true
    },
    {
      "id": 141,
      "content": "[ Re2 ] [ 16W 1X ] 8W 1E 7W 1X 7W 3E 6W 1X 6W 5E 5W 1X 5W 7E 4W 1X 4W 9E 3W 1X 3W 11E 2W 1X 2W 13E 1W 1X 1W 15E 1X [ Re4 ] [ 16E 1X ] [ Re2 ] [ 16W ]",
      "single_word": false,
      "lstrip": false,
      "rstrip": false,
      "normalized": false,
      "special": true
    },
    {
      "id": 142,
      "content": "[ Re2 ] [ 16W 1X ] 8W 1E 7W 1X 7W 3E 6W 1X 6W 5E 5W 1X 5W 7E 4W 1X 4W 9E 3W 1X 3W 11E 2W 1X 2W 13E 1W 1X 3W 11E 2W 1X 4W 9E 3W 1X 5W 7E 4W 1X 6W 5E 5W 1X 7W 3E 6W 1X 8W 1E 7W 1X 16W",
      "single_word": false,
      "lstrip": false,
      "rstrip": false,
      "normalized": false,
      "special": true
    },
    {
      "id": 143,
      "content": "[ Re2 ] [ 16W 1X ] 8W 1G 7W 1X 7W 1G 1W 1G 6W 1X 6W 1G 3W 1G 5W 1X 5W 1G 5W 1G 4W 1X 4W 1G 7W 1G 3W 1X 3W 1G 9W 1G 2W 1X 2W 1G 11W 1G 1W 1X 1W 1G 13W 1G 1X [ Re3 ] [ 1G 14W 1G 1X ] 16G 1X [ Re2 ] [ 16W ]",
      "single_word": false,
      "lstrip": false,
      "rstrip": false,
      "normalized": false,
      "special": true
    },
    {
      "id": 144,
      "content": "[ Re2 ] [ 16W 1X ] 8W 1G 7W 1X 7W 3G 6W 1X 6W 5G 5W 1X 5W 7G 4W 1X 4W 9G 3W 1X 3W 11G 2W 1X 2W 13G 1W 1X 1W 15G 1X [ Re4 ] [ 16G 1X ] [ Re2 ] [ 16W ]",
      "single_word": false,
      "lstrip": false,
      "rstrip": false,
      "normalized": false,
      "special": true
    },
    {
      "id": 145,
      "content": "[ Re2 ] [ 16W 1X ] 8W 1G 7W 1X 7W 3G 6W 1X 6W 5G 5W 1X 5W 7G 4W 1X 4W 9G 3W 1X 3W 11G 2W 1X 2W 13G 1W 1X 3W 11G 2W 1X 4W 9G 3W 1X 5W 7G 4W 1X 6W 5G 5W 1X 7W 3G 6W 1X 8W 1G 7W 1X 16W",
      "single_word": false,
      "lstrip": false,
      "rstrip": false,
      "normalized": false,
      "special": true
    },
    {
      "id": 146,
      "content": "[ Re2 ] [ 16W 1X ] 8W 1H 7W 1X 7W 1H 1W 1H 6W 1X 6W 1H 3W 1H 5W 1X 5W 1H 5W 1H 4W 1X 4W 1H 7W 1H 3W 1X 3W 1H 9W 1H 2W 1X 2W 1H 11W 1H 1W 1X 1W 1H 13W 1H 1X [ Re3 ] [ 1H 14W 1H 1X ] 16H 1X [ Re2 ] [ 16W ]",
      "single_word": false,
      "lstrip": false,
      "rstrip": false,
      "normalized": false,
      "special": true
    },
    {
      "id": 147,
      "content": "[ Re2 ] [ 16W 1X ] 8W 1H 7W 1X 7W 3H 6W 1X 6W 5H 5W 1X 5W 7H 4W 1X 4W 9H 3W 1X 3W 11H 2W 1X 2W 13H 1W 1X 1W 15H 1X [ Re4 ] [ 16H 1X ] [ Re2 ] [ 16W ]",
      "single_word": false,
      "lstrip": false,
      "rstrip": false,
      "normalized": false,
      "special": true
    },
    {
      "id": 148,
      "content": "[ Re2 ] [ 16W 1X ] 8W 1H 7W 1X 7W 3H 6W 1X 6W 5H 5W 1X 5W 7H 4W 1X 4W 9H 3W 1X 3W 11H 2W 1X 2W 13H 1W 1X 3W 11H 2W 1X 4W 9H 3W 1X 5W 7H 4W 1X 6W 5H 5W 1X 7W 3H 6W 1X 8W 1H 7W 1X 16W",
      "single_word": false,
      "lstrip": false,
      "rstrip": false,
      "normalized": false,
      "special": true
    },
    {
      "id": 149,
      "content": "[ Re2 ] [ 16W 1X ] 8W 1J 7W 1X 7W 1J 1W 1J 6W 1X 6W 1J 3W 1J 5W 1X 5W 1J 5W 1J 4W 1X 4W 1J 7W 1J 3W 1X 3W 1J 9W 1J 2W 1X 2W 1J 11W 1J 1W 1X 1W 1J 13W 1J 1X [ Re3 ] [ 1J 14W 1J 1X ] 16J 1X [ Re2 ] [ 16W ]",
      "single_word": false,
      "lstrip": false,
      "rstrip": false,
      "normalized": false,
      "special": true
    },
    {
      "id": 150,
      "content": "[ Re2 ] [ 16W 1X ] 8W 1J 7W 1X 7W 3J 6W 1X 6W 5J 5W 1X 5W 7J 4W 1X 4W 9J 3W 1X 3W 11J 2W 1X 2W 13J 1W 1X 1W 15J 1X [ Re4 ] [ 16J 1X ] [ Re2 ] [ 16W ]",
      "single_word": false,
      "lstrip": false,
      "rstrip": false,
      "normalized": false,
      "special": true
    },
    {
      "id": 151,
      "content": "[ Re2 ] [ 16W 1X ] 8W 1J 7W 1X 7W 3J 6W 1X 6W 5J 5W 1X 5W 7J 4W 1X 4W 9J 3W 1X 3W 11J 2W 1X 2W 13J 1W 1X 3W 11J 2W 1X 4W 9J 3W 1X 5W 7J 4W 1X 6W 5J 5W 1X 7W 3J 6W 1X 8W 1J 7W 1X 16W",
      "single_word": false,
      "lstrip": false,
      "rstrip": false,
      "normalized": false,
      "special": true
    },
    {
      "id": 152,
      "content": "[ Re2 ] [ 16W 1X ] 8W 1K 7W 1X 7W 1K 1W 1K 6W 1X 6W 1K 3W 1K 5W 1X 5W 1K 5W 1K 4W 1X 4W 1K 7W 1K 3W 1X 3W 1K 9W 1K 2W 1X 2W 1K 11W 1K 1W 1X 1W 1K 13W 1K 1X [ Re3 ] [ 1K 14W 1K 1X ] 16K 1X [ Re2 ] [ 16W ]",
      "single_word": false,
      "lstrip": false,
      "rstrip": false,
      "normalized": false,
      "special": true
    },
    {
      "id": 153,
      "content": "[ Re2 ] [ 16W 1X ] 8W 1K 7W 1X 7W 3K 6W 1X 6W 5K 5W 1X 5W 7K 4W 1X 4W 9K 3W 1X 3W 11K 2W 1X 2W 13K 1W 1X 1W 15K 1X [ Re4 ] [ 16K 1X ] [ Re2 ] [ 16W ]",
      "single_word": false,
      "lstrip": false,
      "rstrip": false,
      "normalized": false,
      "special": true
    },
    {
      "id": 154,
      "content": "[ Re2 ] [ 16W 1X ] 8W 1K 7W 1X 7W 3K 6W 1X 6W 5K 5W 1X 5W 7K 4W 1X 4W 9K 3W 1X 3W 11K 2W 1X 2W 13K 1W 1X 3W 11K 2W 1X 4W 9K 3W 1X 5W 7K 4W 1X 6W 5K 5W 1X 7W 3K 6W 1X 8W 1K 7W 1X 16W",
      "single_word": false,
      "lstrip": false,
      "rstrip": false,
      "normalized": false,
      "special": true
    },
    {
      "id": 155,
      "content": "[ Re2 ] [ 16W 1X ] 8W 1L 7W 1X 7W 1L 1W 1L 6W 1X 6W 1L 3W 1L 5W 1X 5W 1L 5W 1L 4W 1X 4W 1L 7W 1L 3W 1X 3W 1L 9W 1L 2W 1X 2W 1L 11W 1L 1W 1X 1W 1L 13W 1L 1X [ Re3 ] [ 1L 14W 1L 1X ] 16L 1X [ Re2 ] [ 16W ]",
      "single_word": false,
      "lstrip": false,
      "rstrip": false,
      "normalized": false,
      "special": true
    },
    {
      "id": 156,
      "content": "[ Re2 ] [ 16W 1X ] 8W 1L 7W 1X 7W 3L 6W 1X 6W 5L 5W 1X 5W 7L 4W 1X 4W 9L 3W 1X 3W 11L 2W 1X 2W 13L 1W 1X 1W 15L 1X [ Re4 ] [ 16L 1X ] [ Re2 ] [ 16W ]",
      "single_word": false,
      "lstrip": false,
      "rstrip": false,
      "normalized": false,
      "special": true
    },
    {
      "id": 157,
      "content": "[ Re2 ] [ 16W 1X ] 8W 1L 7W 1X 7W 3L 6W 1X 6W 5L 5W 1X 5W 7L 4W 1X 4W 9L 3W 1X 3W 11L 2W 1X 2W 13L 1W 1X 3W 11L 2W 1X 4W 9L 3W 1X 5W 7L 4W 1X 6W 5L 5W 1X 7W 3L 6W 1X 8W 1L 7W 1X 16W",
      "single_word": false,
      "lstrip": false,
      "rstrip": false,
      "normalized": false,
      "special": true
    },
    {
      "id": 158,
      "content": "[ Re2 ] [ 16W 1X ] 8W 1M 7W 1X 7W 1M 1W 1M 6W 1X 6W 1M 3W 1M 5W 1X 5W 1M 5W 1M 4W 1X 4W 1M 7W 1M 3W 1X 3W 1M 9W 1M 2W 1X 2W 1M 11W 1M 1W 1X 1W 1M 13W 1M 1X [ Re3 ] [ 1M 14W 1M 1X ] 16M 1X [ Re2 ] [ 16W ]",
      "single_word": false,
      "lstrip": false,
      "rstrip": false,
      "normalized": false,
      "special": true
    },
    {
      "id": 159,
      "content": "[ Re2 ] [ 16W 1X ] 8W 1M 7W 1X 7W 3M 6W 1X 6W 5M 5W 1X 5W 7M 4W 1X 4W 9M 3W 1X 3W 11M 2W 1X 2W 13M 1W 1X 1W 15M 1X [ Re4 ] [ 16M 1X ] [ Re2 ] [ 16W ]",
      "single_word": false,
      "lstrip": false,
      "rstrip": false,
      "normalized": false,
      "special": true
    },
    {
      "id": 160,
      "content": "[ Re2 ] [ 16W 1X ] 8W 1M 7W 1X 7W 3M 6W 1X 6W 5M 5W 1X 5W 7M 4W 1X 4W 9M 3W 1X 3W 11M 2W 1X 2W 13M 1W 1X 3W 11M 2W 1X 4W 9M 3W 1X 5W 7M 4W 1X 6W 5M 5W 1X 7W 3M 6W 1X 8W 1M 7W 1X 16W",
      "single_word": false,
      "lstrip": false,
      "rstrip": false,
      "normalized": false,
      "special": true
    },
    {
      "id": 161,
      "content": "[ Re2 ] [ 16W 1X ] 8W 1N 7W 1X 7W 1N 1W 1N 6W 1X 6W 1N 3W 1N 5W 1X 5W 1N 5W 1N 4W 1X 4W 1N 7W 1N 3W 1X 3W 1N 9W 1N 2W 1X 2W 1N 11W 1N 1W 1X 1W 1N 13W 1N 1X [ Re3 ] [ 1N 14W 1N 1X ] 16N 1X [ Re2 ] [ 16W ]",
      "single_word": false,
      "lstrip": false,
      "rstrip": false,
      "normalized": false,
      "special": true
    },
    {
      "id": 162,
      "content": "[ Re2 ] [ 16W 1X ] 8W 1N 7W 1X 7W 3N 6W 1X 6W 5N 5W 1X 5W 7N 4W 1X 4W 9N 3W 1X 3W 11N 2W 1X 2W 13N 1W 1X 1W 15N 1X [ Re4 ] [ 16N 1X ] [ Re2 ] [ 16W ]",
      "single_word": false,
      "lstrip": false,
      "rstrip": false,
      "normalized": false,
      "special": true
    },
    {
      "id": 163,
      "content": "[ Re2 ] [ 16W 1X ] 8W 1N 7W 1X 7W 3N 6W 1X 6W 5N 5W 1X 5W 7N 4W 1X 4W 9N 3W 1X 3W 11N 2W 1X 2W 13N 1W 1X 3W 11N 2W 1X 4W 9N 3W 1X 5W 7N 4W 1X 6W 5N 5W 1X 7W 3N 6W 1X 8W 1N 7W 1X 16W",
      "single_word": false,
      "lstrip": false,
      "rstrip": false,
      "normalized": false,
      "special": true
    },
    {
      "id": 164,
      "content": "[ Re2 ] [ 16W 1X ] 8W 1O 7W 1X 7W 1O 1W 1O 6W 1X 6W 1O 3W 1O 5W 1X 5W 1O 5W 1O 4W 1X 4W 1O 7W 1O 3W 1X 3W 1O 9W 1O 2W 1X 2W 1O 11W 1O 1W 1X 1W 1O 13W 1O 1X [ Re3 ] [ 1O 14W 1O 1X ] 16O 1X [ Re2 ] [ 16W ]",
      "single_word": false,
      "lstrip": false,
      "rstrip": false,
      "normalized": false,
      "special": true
    },
    {
      "id": 165,
      "content": "[ Re2 ] [ 16W 1X ] 8W 1O 7W 1X 7W 3O 6W 1X 6W 5O 5W 1X 5W 7O 4W 1X 4W 9O 3W 1X 3W 11O 2W 1X 2W 13O 1W 1X 1W 15O 1X [ Re4 ] [ 16O 1X ] [ Re2 ] [ 16W ]",
      "single_word": false,
      "lstrip": false,
      "rstrip": false,
      "normalized": false,
      "special": true
    },
    {
      "id": 166,
      "content": "[ Re2 ] [ 16W 1X ] 8W 1O 7W 1X 7W 3O 6W 1X 6W 5O 5W 1X 5W 7O 4W 1X 4W 9O 3W 1X 3W 11O 2W 1X 2W 13O 1W 1X 3W 11O 2W 1X 4W 9O 3W 1X 5W 7O 4W 1X 6W 5O 5W 1X 7W 3O 6W 1X 8W 1O 7W 1X 16W",
      "single_word": false,
      "lstrip": false,
      "rstrip": false,
      "normalized": false,
      "special": true
    },
    {
      "id": 167,
      "content": "[ Re2 ] [ 16W 1X ] 8W 1P 7W 1X 7W 1P 1W 1P 6W 1X 6W 1P 3W 1P 5W 1X 5W 1P 5W 1P 4W 1X 4W 1P 7W 1P 3W 1X 3W 1P 9W 1P 2W 1X 2W 1P 11W 1P 1W 1X 1W 1P 13W 1P 1X [ Re3 ] [ 1P 14W 1P 1X ] 16P 1X [ Re2 ] [ 16W ]",
      "single_word": false,
      "lstrip": false,
      "rstrip": false,
      "normalized": false,
      "special": true
    },
    {
      "id": 168,
      "content": "[ Re2 ] [ 16W 1X ] 8W 1P 7W 1X 7W 3P 6W 1X 6W 5P 5W 1X 5W 7P 4W 1X 4W 9P 3W 1X 3W 11P 2W 1X 2W 13P 1W 1X 1W 15P 1X [ Re4 ] [ 16P 1X ] [ Re2 ] [ 16W ]",
      "single_word": false,
      "lstrip": false,
      "rstrip": false,
      "normalized": false,
      "special": true
    },
    {
      "id": 169,
      "content": "[ Re2 ] [ 16W 1X ] 8W 1P 7W 1X 7W 3P 6W 1X 6W 5P 5W 1X 5W 7P 4W 1X 4W 9P 3W 1X 3W 11P 2W 1X 2W 13P 1W 1X 3W 11P 2W 1X 4W 9P 3W 1X 5W 7P 4W 1X 6W 5P 5W 1X 7W 3P 6W 1X 8W 1P 7W 1X 16W",
      "single_word": false,
      "lstrip": false,
      "rstrip": false,
      "normalized": false,
      "special": true
    },
    {
      "id": 170,
      "content": "[ Re2 ] [ 16W 1X ] 8W 1R 7W 1X 7W 1R 1W 1R 6W 1X 6W 1R 3W 1R 5W 1X 5W 1R 5W 1R 4W 1X 4W 1R 7W 1R 3W 1X 3W 1R 9W 1R 2W 1X 2W 1R 11W 1R 1W 1X 1W 1R 13W 1R 1X [ Re3 ] [ 1R 14W 1R 1X ] 16R 1X [ Re2 ] [ 16W ]",
      "single_word": false,
      "lstrip": false,
      "rstrip": false,
      "normalized": false,
      "special": true
    },
    {
      "id": 171,
      "content": "[ Re2 ] [ 16W 1X ] 8W 1R 7W 1X 7W 3R 6W 1X 6W 5R 5W 1X 5W 7R 4W 1X 4W 9R 3W 1X 3W 11R 2W 1X 2W 13R 1W 1X 1W 15R 1X [ Re4 ] [ 16R 1X ] [ Re2 ] [ 16W ]",
      "single_word": false,
      "lstrip": false,
      "rstrip": false,
      "normalized": false,
      "special": true
    },
    {
      "id": 172,
      "content": "[ Re2 ] [ 16W 1X ] 8W 1R 7W 1X 7W 3R 6W 1X 6W 5R 5W 1X 5W 7R 4W 1X 4W 9R 3W 1X 3W 11R 2W 1X 2W 13R 1W 1X 3W 11R 2W 1X 4W 9R 3W 1X 5W 7R 4W 1X 6W 5R 5W 1X 7W 3R 6W 1X 8W 1R 7W 1X 16W",
      "single_word": false,
      "lstrip": false,
      "rstrip": false,
      "normalized": false,
      "special": true
    },
    {
      "id": 173,
      "content": "[ Re2 ] [ 16W 1X ] 8W 1S 7W 1X 7W 1S 1W 1S 6W 1X 6W 1S 3W 1S 5W 1X 5W 1S 5W 1S 4W 1X 4W 1S 7W 1S 3W 1X 3W 1S 9W 1S 2W 1X 2W 1S 11W 1S 1W 1X 1W 1S 13W 1S 1X [ Re3 ] [ 1S 14W 1S 1X ] 16S 1X [ Re2 ] [ 16W ]",
      "single_word": false,
      "lstrip": false,
      "rstrip": false,
      "normalized": false,
      "special": true
    },
    {
      "id": 174,
      "content": "[ Re2 ] [ 16W 1X ] 8W 1S 7W 1X 7W 3S 6W 1X 6W 5S 5W 1X 5W 7S 4W 1X 4W 9S 3W 1X 3W 11S 2W 1X 2W 13S 1W 1X 1W 15S 1X [ Re4 ] [ 16S 1X ] [ Re2 ] [ 16W ]",
      "single_word": false,
      "lstrip": false,
      "rstrip": false,
      "normalized": false,
      "special": true
    },
    {
      "id": 175,
      "content": "[ Re2 ] [ 16W 1X ] 8W 1S 7W 1X 7W 3S 6W 1X 6W 5S 5W 1X 5W 7S 4W 1X 4W 9S 3W 1X 3W 11S 2W 1X 2W 13S 1W 1X 3W 11S 2W 1X 4W 9S 3W 1X 5W 7S 4W 1X 6W 5S 5W 1X 7W 3S 6W 1X 8W 1S 7W 1X 16W",
      "single_word": false,
      "lstrip": false,
      "rstrip": false,
      "normalized": false,
      "special": true
    },
    {
      "id": 176,
      "content": "[ Re2 ] [ 16W 1X ] 8W 1U 7W 1X 7W 1U 1W 1U 6W 1X 6W 1U 3W 1U 5W 1X 5W 1U 5W 1U 4W 1X 4W 1U 7W 1U 3W 1X 3W 1U 9W 1U 2W 1X 2W 1U 11W 1U 1W 1X 1W 1U 13W 1U 1X [ Re3 ] [ 1U 14W 1U 1X ] 16U 1X [ Re2 ] [ 16W ]",
      "single_word": false,
      "lstrip": false,
      "rstrip": false,
      "normalized": false,
      "special": true
    },
    {
      "id": 177,
      "content": "[ Re2 ] [ 16W 1X ] 8W 1U 7W 1X 7W 3U 6W 1X 6W 5U 5W 1X 5W 7U 4W 1X 4W 9U 3W 1X 3W 11U 2W 1X 2W 13U 1W 1X 1W 15U 1X [ Re4 ] [ 16U 1X ] [ Re2 ] [ 16W ]",
      "single_word": false,
      "lstrip": false,
      "rstrip": false,
      "normalized": false,
      "special": true
    },
    {
      "id": 178,
      "content": "[ Re2 ] [ 16W 1X ] 8W 1U 7W 1X 7W 3U 6W 1X 6W 5U 5W 1X 5W 7U 4W 1X 4W 9U 3W 1X 3W 11U 2W 1X 2W 13U 1W 1X 3W 11U 2W 1X 4W 9U 3W 1X 5W 7U 4W 1X 6W 5U 5W 1X 7W 3U 6W 1X 8W 1U 7W 1X 16W",
      "single_word": false,
      "lstrip": false,
      "rstrip": false,
      "normalized": false,
      "special": true
    },
    {
      "id": 179,
      "content": "[ Re2 ] [ 16W 1X ] 8W 1V 7W 1X 7W 1V 1W 1V 6W 1X 6W 1V 3W 1V 5W 1X 5W 1V 5W 1V 4W 1X 4W 1V 7W 1V 3W 1X 3W 1V 9W 1V 2W 1X 2W 1V 11W 1V 1W 1X 1W 1V 13W 1V 1X [ Re3 ] [ 1V 14W 1V 1X ] 16V 1X [ Re2 ] [ 16W ]",
      "single_word": false,
      "lstrip": false,
      "rstrip": false,
      "normalized": false,
      "special": true
    },
    {
      "id": 180,
      "content": "[ Re2 ] [ 16W 1X ] 8W 1V 7W 1X 7W 3V 6W 1X 6W 5V 5W 1X 5W 7V 4W 1X 4W 9V 3W 1X 3W 11V 2W 1X 2W 13V 1W 1X 1W 15V 1X [ Re4 ] [ 16V 1X ] [ Re2 ] [ 16W ]",
      "single_word": false,
      "lstrip": false,
      "rstrip": false,
      "normalized": false,
      "special": true
    },
    {
      "id": 181,
      "content": "[ Re2 ] [ 16W 1X ] 8W 1V 7W 1X 7W 3V 6W 1X 6W 5V 5W 1X 5W 7V 4W 1X 4W 9V 3W 1X 3W 11V 2W 1X 2W 13V 1W 1X 3W 11V 2W 1X 4W 9V 3W 1X 5W 7V 4W 1X 6W 5V 5W 1X 7W 3V 6W 1X 8W 1V 7W 1X 16W",
      "single_word": false,
      "lstrip": false,
      "rstrip": false,
      "normalized": false,
      "special": true
    },
    {
      "id": 182,
      "content": "[ Re2 ] [ 16W 1X ] 8W 1Y 7W 1X 7W 1Y 1W 1Y 6W 1X 6W 1Y 3W 1Y 5W 1X 5W 1Y 5W 1Y 4W 1X 4W 1Y 7W 1Y 3W 1X 3W 1Y 9W 1Y 2W 1X 2W 1Y 11W 1Y 1W 1X 1W 1Y 13W 1Y 1X [ Re3 ] [ 1Y 14W 1Y 1X ] 16Y 1X [ Re2 ] [ 16W ]",
      "single_word": false,
      "lstrip": false,
      "rstrip": false,
      "normalized": false,
      "special": true
    },
    {
      "id": 183,
      "content": "[ Re2 ] [ 16W 1X ] 8W 1Y 7W 1X 7W 3Y 6W 1X 6W 5Y 5W 1X 5W 7Y 4W 1X 4W 9Y 3W 1X 3W 11Y 2W 1X 2W 13Y 1W 1X 1W 15Y 1X [ Re4 ] [ 16Y 1X ] [ Re2 ] [ 16W ]",
      "single_word": false,
      "lstrip": false,
      "rstrip": false,
      "normalized": false,
      "special": true
    },
    {
      "id": 184,
      "content": "[ Re2 ] [ 16W 1X ] 8W 1Y 7W 1X 7W 3Y 6W 1X 6W 5Y 5W 1X 5W 7Y 4W 1X 4W 9Y 3W 1X 3W 11Y 2W 1X 2W 13Y 1W 1X 3W 11Y 2W 1X 4W 9Y 3W 1X 5W 7Y 4W 1X 6W 5Y 5W 1X 7W 3Y 6W 1X 8W 1Y 7W 1X 16W",
      "single_word": false,
      "lstrip": false,
      "rstrip": false,
      "normalized": false,
      "special": true
    },
    {
      "id": 185,
      "content": "[ Re2 ] [ 16W 1X ] 8W 1Z 7W 1X 7W 1Z 1W 1Z 6W 1X 6W 1Z 3W 1Z 5W 1X 5W 1Z 5W 1Z 4W 1X 4W 1Z 7W 1Z 3W 1X 3W 1Z 9W 1Z 2W 1X 2W 1Z 11W 1Z 1W 1X 1W 1Z 13W 1Z 1X [ Re3 ] [ 1Z 14W 1Z 1X ] 16Z 1X [ Re2 ] [ 16W ]",
      "single_word": false,
      "lstrip": false,
      "rstrip": false,
      "normalized": false,
      "special": true
    },
    {
      "id": 186,
      "content": "[ Re2 ] [ 16W 1X ] 8W 1Z 7W 1X 7W 3Z 6W 1X 6W 5Z 5W 1X 5W 7Z 4W 1X 4W 9Z 3W 1X 3W 11Z 2W 1X 2W 13Z 1W 1X 1W 15Z 1X [ Re4 ] [ 16Z 1X ] [ Re2 ] [ 16W ]",
      "single_word": false,
      "lstrip": false,
      "rstrip": false,
      "normalized": false,
      "special": true
    },
    {
      "id": 187,
      "content": "[ Re2 ] [ 16W 1X ] 8W 1Z 7W 1X 7W 3Z 6W 1X 6W 5Z 5W 1X 5W 7Z 4W 1X 4W 9Z 3W 1X 3W 11Z 2W 1X 2W 13Z 1W 1X 3W 11Z 2W 1X 4W 9Z 3W 1X 5W 7Z 4W 1X 6W 5Z 5W 1X 7W 3Z 6W 1X 8W 1Z 7W 1X 16W",
      "single_word": false,
      "lstrip": false,
      "rstrip": false,
      "normalized": false,
      "special": true
    },
    {
      "id": 188,
      "content": "[ Re2 ] [ 16W 1X ] [ Re12 ] [ 2W 12K 2W 1X ] [ Re2 ] [ 16W ]",
      "single_word": false,
      "lstrip": false,
      "rstrip": false,
      "normalized": false,
      "special": true
    },
    {
      "id": 189,
      "content": "[ Re2 ] [ 16W 1X ] [ Re6 ] [ 2W 12A 2W 1X 16W 1X ] [ Re2 ] [ 16W  ]",
      "single_word": false,
      "lstrip": false,
      "rstrip": false,
      "normalized": false,
      "special": true
    },
    {
      "id": 190,
      "content": "[ Re2 ] [ 16W 1X ] [ Re6 ] [ 2W 12B 2W 1X 16W 1X ] [ Re2 ] [ 16W  ]",
      "single_word": false,
      "lstrip": false,
      "rstrip": false,
      "normalized": false,
      "special": true
    },
    {
      "id": 191,
      "content": "[ Re2 ] [ 16W 1X ] [ Re6 ] [ 2W 12D 2W 1X 16W 1X ] [ Re2 ] [ 16W  ]",
      "single_word": false,
      "lstrip": false,
      "rstrip": false,
      "normalized": false,
      "special": true
    },
    {
      "id": 192,
      "content": "[ Re2 ] [ 16W 1X ] [ Re6 ] [ 2W 12E 2W 1X 16W 1X ] [ Re2 ] [ 16W  ]",
      "single_word": false,
      "lstrip": false,
      "rstrip": false,
      "normalized": false,
      "special": true
    },
    {
      "id": 193,
      "content": "[ Re2 ] [ 16W 1X ] [ Re6 ] [ 2W 12G 2W 1X 16W 1X ] [ Re2 ] [ 16W  ]",
      "single_word": false,
      "lstrip": false,
      "rstrip": false,
      "normalized": false,
      "special": true
    },
    {
      "id": 194,
      "content": "[ Re2 ] [ 16W 1X ] [ Re6 ] [ 2W 12H 2W 1X 16W 1X ] [ Re2 ] [ 16W  ]",
      "single_word": false,
      "lstrip": false,
      "rstrip": false,
      "normalized": false,
      "special": true
    },
    {
      "id": 195,
      "content": "[ Re2 ] [ 16W 1X ] [ Re6 ] [ 2W 12J 2W 1X 16W 1X ] [ Re2 ] [ 16W  ]",
      "single_word": false,
      "lstrip": false,
      "rstrip": false,
      "normalized": false,
      "special": true
    },
    {
      "id": 196,
      "content": "[ Re2 ] [ 16W 1X ] [ Re6 ] [ 2W 12K 2W 1X 16W 1X ] [ Re2 ] [ 16W  ]",
      "single_word": false,
      "lstrip": false,
      "rstrip": false,
      "normalized": false,
      "special": true
    },
    {
      "id": 197,
      "content": "[ Re2 ] [ 16W 1X ] [ Re6 ] [ 2W 12L 2W 1X 16W 1X ] [ Re2 ] [ 16W  ]",
      "single_word": false,
      "lstrip": false,
      "rstrip": false,
      "normalized": false,
      "special": true
    },
    {
      "id": 198,
      "content": "[ Re2 ] [ 16W 1X ] [ Re6 ] [ 2W 12M 2W 1X 16W 1X ] [ Re2 ] [ 16W  ]",
      "single_word": false,
      "lstrip": false,
      "rstrip": false,
      "normalized": false,
      "special": true
    },
    {
      "id": 199,
      "content": "[ Re2 ] [ 16W 1X ] [ Re6 ] [ 2W 12N 2W 1X 16W 1X ] [ Re2 ] [ 16W  ]",
      "single_word": false,
      "lstrip": false,
      "rstrip": false,
      "normalized": false,
      "special": true
    },
    {
      "id": 200,
      "content": "[ Re2 ] [ 16W 1X ] [ Re6 ] [ 2W 12O 2W 1X 16W 1X ] [ Re2 ] [ 16W  ]",
      "single_word": false,
      "lstrip": false,
      "rstrip": false,
      "normalized": false,
      "special": true
    },
    {
      "id": 201,
      "content": "[ Re2 ] [ 16W 1X ] [ Re6 ] [ 2W 12P 2W 1X 16W 1X ] [ Re2 ] [ 16W  ]",
      "single_word": false,
      "lstrip": false,
      "rstrip": false,
      "normalized": false,
      "special": true
    },
    {
      "id": 202,
      "content": "[ Re2 ] [ 16W 1X ] [ Re6 ] [ 2W 12R 2W 1X 16W 1X ] [ Re2 ] [ 16W  ]",
      "single_word": false,
      "lstrip": false,
      "rstrip": false,
      "normalized": false,
      "special": true
    },
    {
      "id": 203,
      "content": "[ Re2 ] [ 16W 1X ] [ Re6 ] [ 2W 12S 2W 1X 16W 1X ] [ Re2 ] [ 16W  ]",
      "single_word": false,
      "lstrip": false,
      "rstrip": false,
      "normalized": false,
      "special": true
    },
    {
      "id": 204,
      "content": "[ Re2 ] [ 16W 1X ] [ Re6 ] [ 2W 12U 2W 1X 16W 1X ] [ Re2 ] [ 16W  ]",
      "single_word": false,
      "lstrip": false,
      "rstrip": false,
      "normalized": false,
      "special": true
    },
    {
      "id": 205,
      "content": "[ Re2 ] [ 16W 1X ] [ Re6 ] [ 2W 12V 2W 1X 16W 1X ] [ Re2 ] [ 16W  ]",
      "single_word": false,
      "lstrip": false,
      "rstrip": false,
      "normalized": false,
      "special": true
    },
    {
      "id": 206,
      "content": "[ Re2 ] [ 16W 1X ] [ Re6 ] [ 2W 12Y 2W 1X 16W 1X ] [ Re2 ] [ 16W  ]",
      "single_word": false,
      "lstrip": false,
      "rstrip": false,
      "normalized": false,
      "special": true
    },
    {
      "id": 207,
      "content": "[ Re2 ] [ 16W 1X ] [ Re6 ] [ 2W 12Z 2W 1X 16W 1X ] [ Re2 ] [ 16W  ]",
      "single_word": false,
      "lstrip": false,
      "rstrip": false,
      "normalized": false,
      "special": true
    },
    {
      "id": 208,
      "content": "[ Re2 ] [ 16W 1X ] [ Re6 ] [ 2W 1A 1W 1A 1W 1A 1W 1A 1W 1A 1W 1A 3W 1X 3W 1A 1W 1A 1W 1A 1W 1A 1W 1A 1W 1A 2W 1X ] [ Re2 ] [ 16W  ]",
      "single_word": false,
      "lstrip": false,
      "rstrip": false,
      "normalized": false,
      "special": true
    },
    {
      "id": 209,
      "content": "[ Re2 ] [ 16W 1X ] [ Re6 ] [ 2W 1B 1W 1B 1W 1B 1W 1B 1W 1B 1W 1B 3W 1X 3W 1B 1W 1B 1W 1B 1W 1B 1W 1B 1W 1B 2W 1X ] [ Re2 ] [ 16W  ]",
      "single_word": false,
      "lstrip": false,
      "rstrip": false,
      "normalized": false,
      "special": true
    },
    {
      "id": 210,
      "content": "[ Re2 ] [ 16W 1X ] [ Re6 ] [ 2W 1D 1W 1D 1W 1D 1W 1D 1W 1D 1W 1D 3W 1X 3W 1D 1W 1D 1W 1D 1W 1D 1W 1D 1W 1D 2W 1X ] [ Re2 ] [ 16W  ]",
      "single_word": false,
      "lstrip": false,
      "rstrip": false,
      "normalized": false,
      "special": true
    },
    {
      "id": 211,
      "content": "[ Re2 ] [ 16W 1X ] [ Re6 ] [ 2W 1E 1W 1E 1W 1E 1W 1E 1W 1E 1W 1E 3W 1X 3W 1E 1W 1E 1W 1E 1W 1E 1W 1E 1W 1E 2W 1X ] [ Re2 ] [ 16W  ]",
      "single_word": false,
      "lstrip": false,
      "rstrip": false,
      "normalized": false,
      "special": true
    },
    {
      "id": 212,
      "content": "[ Re2 ] [ 16W 1X ] [ Re6 ] [ 2W 1G 1W 1G 1W 1G 1W 1G 1W 1G 1W 1G 3W 1X 3W 1G 1W 1G 1W 1G 1W 1G 1W 1G 1W 1G 2W 1X ] [ Re2 ] [ 16W  ]",
      "single_word": false,
      "lstrip": false,
      "rstrip": false,
      "normalized": false,
      "special": true
    },
    {
      "id": 213,
      "content": "[ Re2 ] [ 16W 1X ] [ Re6 ] [ 2W 1H 1W 1H 1W 1H 1W 1H 1W 1H 1W 1H 3W 1X 3W 1H 1W 1H 1W 1H 1W 1H 1W 1H 1W 1H 2W 1X ] [ Re2 ] [ 16W  ]",
      "single_word": false,
      "lstrip": false,
      "rstrip": false,
      "normalized": false,
      "special": true
    },
    {
      "id": 214,
      "content": "[ Re2 ] [ 16W 1X ] [ Re6 ] [ 2W 1J 1W 1J 1W 1J 1W 1J 1W 1J 1W 1J 3W 1X 3W 1J 1W 1J 1W 1J 1W 1J 1W 1J 1W 1J 2W 1X ] [ Re2 ] [ 16W  ]",
      "single_word": false,
      "lstrip": false,
      "rstrip": false,
      "normalized": false,
      "special": true
    },
    {
      "id": 215,
      "content": "[ Re2 ] [ 16W 1X ] [ Re6 ] [ 2W 1K 1W 1K 1W 1K 1W 1K 1W 1K 1W 1K 3W 1X 3W 1K 1W 1K 1W 1K 1W 1K 1W 1K 1W 1K 2W 1X ] [ Re2 ] [ 16W  ]",
      "single_word": false,
      "lstrip": false,
      "rstrip": false,
      "normalized": false,
      "special": true
    },
    {
      "id": 216,
      "content": "[ Re2 ] [ 16W 1X ] [ Re6 ] [ 2W 1L 1W 1L 1W 1L 1W 1L 1W 1L 1W 1L 3W 1X 3W 1L 1W 1L 1W 1L 1W 1L 1W 1L 1W 1L 2W 1X ] [ Re2 ] [ 16W  ]",
      "single_word": false,
      "lstrip": false,
      "rstrip": false,
      "normalized": false,
      "special": true
    },
    {
      "id": 217,
      "content": "[ Re2 ] [ 16W 1X ] [ Re6 ] [ 2W 1M 1W 1M 1W 1M 1W 1M 1W 1M 1W 1M 3W 1X 3W 1M 1W 1M 1W 1M 1W 1M 1W 1M 1W 1M 2W 1X ] [ Re2 ] [ 16W  ]",
      "single_word": false,
      "lstrip": false,
      "rstrip": false,
      "normalized": false,
      "special": true
    },
    {
      "id": 218,
      "content": "[ Re2 ] [ 16W 1X ] [ Re6 ] [ 2W 1N 1W 1N 1W 1N 1W 1N 1W 1N 1W 1N 3W 1X 3W 1N 1W 1N 1W 1N 1W 1N 1W 1N 1W 1N 2W 1X ] [ Re2 ] [ 16W  ]",
      "single_word": false,
      "lstrip": false,
      "rstrip": false,
      "normalized": false,
      "special": true
    },
    {
      "id": 219,
      "content": "[ Re2 ] [ 16W 1X ] [ Re6 ] [ 2W 1O 1W 1O 1W 1O 1W 1O 1W 1O 1W 1O 3W 1X 3W 1O 1W 1O 1W 1O 1W 1O 1W 1O 1W 1O 2W 1X ] [ Re2 ] [ 16W  ]",
      "single_word": false,
      "lstrip": false,
      "rstrip": false,
      "normalized": false,
      "special": true
    },
    {
      "id": 220,
      "content": "[ Re2 ] [ 16W 1X ] [ Re6 ] [ 2W 1P 1W 1P 1W 1P 1W 1P 1W 1P 1W 1P 3W 1X 3W 1P 1W 1P 1W 1P 1W 1P 1W 1P 1W 1P 2W 1X ] [ Re2 ] [ 16W  ]",
      "single_word": false,
      "lstrip": false,
      "rstrip": false,
      "normalized": false,
      "special": true
    },
    {
      "id": 221,
      "content": "[ Re2 ] [ 16W 1X ] [ Re6 ] [ 2W 1R 1W 1R 1W 1R 1W 1R 1W 1R 1W 1R 3W 1X 3W 1R 1W 1R 1W 1R 1W 1R 1W 1R 1W 1R 2W 1X ] [ Re2 ] [ 16W  ]",
      "single_word": false,
      "lstrip": false,
      "rstrip": false,
      "normalized": false,
      "special": true
    },
    {
      "id": 222,
      "content": "[ Re2 ] [ 16W 1X ] [ Re6 ] [ 2W 1S 1W 1S 1W 1S 1W 1S 1W 1S 1W 1S 3W 1X 3W 1S 1W 1S 1W 1S 1W 1S 1W 1S 1W 1S 2W 1X ] [ Re2 ] [ 16W  ]",
      "single_word": false,
      "lstrip": false,
      "rstrip": false,
      "normalized": false,
      "special": true
    },
    {
      "id": 223,
      "content": "[ Re2 ] [ 16W 1X ] [ Re6 ] [ 2W 1U 1W 1U 1W 1U 1W 1U 1W 1U 1W 1U 3W 1X 3W 1U 1W 1U 1W 1U 1W 1U 1W 1U 1W 1U 2W 1X ] [ Re2 ] [ 16W  ]",
      "single_word": false,
      "lstrip": false,
      "rstrip": false,
      "normalized": false,
      "special": true
    },
    {
      "id": 224,
      "content": "[ Re2 ] [ 16W 1X ] [ Re6 ] [ 2W 1V 1W 1V 1W 1V 1W 1V 1W 1V 1W 1V 3W 1X 3W 1V 1W 1V 1W 1V 1W 1V 1W 1V 1W 1V 2W 1X ] [ Re2 ] [ 16W  ]",
      "single_word": false,
      "lstrip": false,
      "rstrip": false,
      "normalized": false,
      "special": true
    },
    {
      "id": 225,
      "content": "[ Re2 ] [ 16W 1X ] [ Re6 ] [ 2W 1Y 1W 1Y 1W 1Y 1W 1Y 1W 1Y 1W 1Y 3W 1X 3W 1Y 1W 1Y 1W 1Y 1W 1Y 1W 1Y 1W 1Y 2W 1X ] [ Re2 ] [ 16W  ]",
      "single_word": false,
      "lstrip": false,
      "rstrip": false,
      "normalized": false,
      "special": true
    },
    {
      "id": 226,
      "content": "[ Re2 ] [ 16W 1X ] [ Re6 ] [ 2W 1Z 1W 1Z 1W 1Z 1W 1Z 1W 1Z 1W 1Z 3W 1X 3W 1Z 1W 1Z 1W 1Z 1W 1Z 1W 1Z 1W 1Z 2W 1X ] [ Re2 ] [ 16W  ]",
      "single_word": false,
      "lstrip": false,
      "rstrip": false,
      "normalized": false,
      "special": true
    },
    {
      "id": 227,
      "content": "[ Re2 ] [ 16W 1X ] [ Re6 ] [ 8W 1A 7W 1X ] 2W 12A 2W 1X [ Re5 ] [ 8W 1A 7W 1X ] [ Re2 ] [ 16W ]",
      "single_word": false,
      "lstrip": false,
      "rstrip": false,
      "normalized": false,
      "special": true
    },
    {
      "id": 228,
      "content": "[ Re2 ] [ 16W 1X ] [ Re6 ] [ 8W 1B 7W 1X ] 2W 12B 2W 1X [ Re5 ] [ 8W 1B 7W 1X ] [ Re2 ] [ 16W ]",
      "single_word": false,
      "lstrip": false,
      "rstrip": false,
      "normalized": false,
      "special": true
    },
    {
      "id": 229,
      "content": "[ Re2 ] [ 16W 1X ] [ Re6 ] [ 8W 1D 7W 1X ] 2W 12D 2W 1X [ Re5 ] [ 8W 1D 7W 1X ] [ Re2 ] [ 16W ]",
      "single_word": false,
      "lstrip": false,
      "rstrip": false,
      "normalized": false,
      "special": true
    },
    {
      "id": 230,
      "content": "[ Re2 ] [ 16W 1X ] [ Re6 ] [ 8W 1E 7W 1X ] 2W 12E 2W 1X [ Re5 ] [ 8W 1E 7W 1X ] [ Re2 ] [ 16W ]",
      "single_word": false,
      "lstrip": false,
      "rstrip": false,
      "normalized": false,
      "special": true
    },
    {
      "id": 231,
      "content": "[ Re2 ] [ 16W 1X ] [ Re6 ] [ 8W 1G 7W 1X ] 2W 12G 2W 1X [ Re5 ] [ 8W 1G 7W 1X ] [ Re2 ] [ 16W ]",
      "single_word": false,
      "lstrip": false,
      "rstrip": false,
      "normalized": false,
      "special": true
    },
    {
      "id": 232,
      "content": "[ Re2 ] [ 16W 1X ] [ Re6 ] [ 8W 1H 7W 1X ] 2W 12H 2W 1X [ Re5 ] [ 8W 1H 7W 1X ] [ Re2 ] [ 16W ]",
      "single_word": false,
      "lstrip": false,
      "rstrip": false,
      "normalized": false,
      "special": true
    },
    {
      "id": 233,
      "content": "[ Re2 ] [ 16W 1X ] [ Re6 ] [ 8W 1J 7W 1X ] 2W 12J 2W 1X [ Re5 ] [ 8W 1J 7W 1X ] [ Re2 ] [ 16W ]",
      "single_word": false,
      "lstrip": false,
      "rstrip": false,
      "normalized": false,
      "special": true
    },
    {
      "id": 234,
      "content": "[ Re2 ] [ 16W 1X ] [ Re6 ] [ 8W 1K 7W 1X ] 2W 12K 2W 1X [ Re5 ] [ 8W 1K 7W 1X ] [ Re2 ] [ 16W ]",
      "single_word": false,
      "lstrip": false,
      "rstrip": false,
      "normalized": false,
      "special": true
    },
    {
      "id": 235,
      "content": "[ Re2 ] [ 16W 1X ] [ Re6 ] [ 8W 1L 7W 1X ] 2W 12L 2W 1X [ Re5 ] [ 8W 1L 7W 1X ] [ Re2 ] [ 16W ]",
      "single_word": false,
      "lstrip": false,
      "rstrip": false,
      "normalized": false,
      "special": true
    },
    {
      "id": 236,
      "content": "[ Re2 ] [ 16W 1X ] [ Re6 ] [ 8W 1M 7W 1X ] 2W 12M 2W 1X [ Re5 ] [ 8W 1M 7W 1X ] [ Re2 ] [ 16W ]",
      "single_word": false,
      "lstrip": false,
      "rstrip": false,
      "normalized": false,
      "special": true
    },
    {
      "id": 237,
      "content": "[ Re2 ] [ 16W 1X ] [ Re6 ] [ 8W 1N 7W 1X ] 2W 12N 2W 1X [ Re5 ] [ 8W 1N 7W 1X ] [ Re2 ] [ 16W ]",
      "single_word": false,
      "lstrip": false,
      "rstrip": false,
      "normalized": false,
      "special": true
    },
    {
      "id": 238,
      "content": "[ Re2 ] [ 16W 1X ] [ Re6 ] [ 8W 1O 7W 1X ] 2W 12O 2W 1X [ Re5 ] [ 8W 1O 7W 1X ] [ Re2 ] [ 16W ]",
      "single_word": false,
      "lstrip": false,
      "rstrip": false,
      "normalized": false,
      "special": true
    },
    {
      "id": 239,
      "content": "[ Re2 ] [ 16W 1X ] [ Re6 ] [ 8W 1P 7W 1X ] 2W 12P 2W 1X [ Re5 ] [ 8W 1P 7W 1X ] [ Re2 ] [ 16W ]",
      "single_word": false,
      "lstrip": false,
      "rstrip": false,
      "normalized": false,
      "special": true
    },
    {
      "id": 240,
      "content": "[ Re2 ] [ 16W 1X ] [ Re6 ] [ 8W 1R 7W 1X ] 2W 12R 2W 1X [ Re5 ] [ 8W 1R 7W 1X ] [ Re2 ] [ 16W ]",
      "single_word": false,
      "lstrip": false,
      "rstrip": false,
      "normalized": false,
      "special": true
    },
    {
      "id": 241,
      "content": "[ Re2 ] [ 16W 1X ] [ Re6 ] [ 8W 1S 7W 1X ] 2W 12S 2W 1X [ Re5 ] [ 8W 1S 7W 1X ] [ Re2 ] [ 16W ]",
      "single_word": false,
      "lstrip": false,
      "rstrip": false,
      "normalized": false,
      "special": true
    },
    {
      "id": 242,
      "content": "[ Re2 ] [ 16W 1X ] [ Re6 ] [ 8W 1U 7W 1X ] 2W 12U 2W 1X [ Re5 ] [ 8W 1U 7W 1X ] [ Re2 ] [ 16W ]",
      "single_word": false,
      "lstrip": false,
      "rstrip": false,
      "normalized": false,
      "special": true
    },
    {
      "id": 243,
      "content": "[ Re2 ] [ 16W 1X ] [ Re6 ] [ 8W 1V 7W 1X ] 2W 12V 2W 1X [ Re5 ] [ 8W 1V 7W 1X ] [ Re2 ] [ 16W ]",
      "single_word": false,
      "lstrip": false,
      "rstrip": false,
      "normalized": false,
      "special": true
    },
    {
      "id": 244,
      "content": "[ Re2 ] [ 16W 1X ] [ Re6 ] [ 8W 1Y 7W 1X ] 2W 12Y 2W 1X [ Re5 ] [ 8W 1Y 7W 1X ] [ Re2 ] [ 16W ]",
      "single_word": false,
      "lstrip": false,
      "rstrip": false,
      "normalized": false,
      "special": true
    },
    {
      "id": 245,
      "content": "[ Re2 ] [ 16W 1X ] [ Re6 ] [ 8W 1Z 7W 1X ] 2W 12Z 2W 1X [ Re5 ] [ 8W 1Z 7W 1X ] [ Re2 ] [ 16W ]",
      "single_word": false,
      "lstrip": false,
      "rstrip": false,
      "normalized": false,
      "special": true
    },
    {
      "id": 246,
      "content": "[ Re2 ] [ 16Y 1X ] [ Re12 ] [ 2Y 12W 2Y 1X ] [ Re2 ] [ 16Y ]",
      "single_word": false,
      "lstrip": false,
      "rstrip": false,
      "normalized": false,
      "special": true
    },
    {
      "id": 247,
      "content": "[ Re2 ] [ 16Z 1X ] [ Re12 ] [ 2Z 12W 2Z 1X ] [ Re2 ] [ 16Z ]",
      "single_word": false,
      "lstrip": false,
      "rstrip": false,
      "normalized": false,
      "special": true
    },
    {
      "id": 248,
      "content": "[ Re2 ] [ 6N 10K 1X ] 6N 3K 1V 6K 1X 7N 2K 1L 1V 5K 1X 2K 6N 1K 2E 5K 1X 9N 1K 1E 2K 2V 1K 1X 5N 4O 2N 1K 2A 1E 1K 1X 3N 2O 2H 3O 1N 1K 2E 2K 1X 2N 2O 1H 6O 1N 4K 1X 2N 10O 4K 1X 1N 11O 4K 1X 1K 11O 4K 1X 1K 10O 5K 1X 2K 8O 6K 1X [ Re2 ] [ 12K 2E 2K ]",
      "single_word": false,
      "lstrip": false,
      "rstrip": false,
      "normalized": false,
      "special": true
    },
    {
      "id": 249,
      "content": "[ Re3 ] [ 16K 1X ] 3K 10W 3K 1X [ Re8 ] [ 3K 1W 8K 1W 3K 1X ] 3K 10W 3K 1X [ Re3 ] [ 16K ]",
      "single_word": false,
      "lstrip": false,
      "rstrip": false,
      "normalized": false,
      "special": true
    },
    {
      "id": 250,
      "content": "[ Re3 ] [ 16K 1X ] 5K 2O 9K 1X 4K 1E 3O 8K 1X 3K 1E 5O 7K 1X 3K 4O 1E 1O 7K 1X 2K 6O 1K 4A 3K 1X 2K 5O 1K 1A 4V 1A 2K 1X 2K 1O 1E 2O 1K 1A 1V 1E 1V 1E 2V 1A 1K 1X 2K 1E 2O 1E 1K 1A 2V 2Z 1E 1V 1A 1K 1X 3K 1E 2O 1K 1A 1V 1E 2Z 2V 1A 1K 1X 4K 2E 1K 1A 2V 1E 1V 1E 1V 1A 1K 1X 8K 1A 4V 1A 2K 1X 9K 4A 3K 1X 1K 3N 1K 3N 8K",
      "single_word": false,
      "lstrip": false,
      "rstrip": false,
      "normalized": false,
      "special": true
    },
    {
      "id": 251,
      "content": "[ Re3 ] [ 16K 1X ] 6K 1N 2H 1N 6K 1X 5K 1A 4H 1A 5K 1X 5K 1W 1A 2H 2A 5K 1X 5K 1W 4N 1A 5K 1X 5K 1A 3W 1V 1A 5K 1X 4K 1W 1K 3V 1A 1K 1A 4K 1X 4K 1V 2W 3E 1N 1A 4K 1X 4K 1V 2W 2Z 1V 1O 1A 4K 1X 4K 1A 1V 1N 3E 1N 1A 4K 1X 4K 1A 1V 1K 3N 1K 1A 4K 1X 5K 1A 2W 2V 1A 5K 1X [ Re2 ] [ 16K ]",
      "single_word": false,
      "lstrip": false,
      "rstrip": false,
      "normalized": false,
      "special": true
    },
    {
      "id": 252,
      "content": "[ Re3 ] [ 16K 1X ] 6K 1N 2H 1N 6K 1X 5K 1A 4H 1A 5K 1X 5K 1W 1A 2H 2A 5K 1X 5K 1W 4N 1A 5K 1X 5K 1A 3W 1V 1A 5K 1X 4K 1W 1K 3V 1A 1K 1A 4K 1X 4K 1V 2W 4E 1A 4K 1X 4K 1V 2W 2Y 1D 1E 1A 4K 1X 4K 1A 1V 5E 1A 4K 1X 4K 1A 1V 1K 3E 1K 1A 4K 1X 5K 1A 2W 2V 1A 5K 1X [ Re2 ] [ 16K ]",
      "single_word": false,
      "lstrip": false,
      "rstrip": false,
      "normalized": false,
      "special": true
    },
    {
      "id": 253,
      "content": "[ Re3 ] [ 16K 1X ] 6K 1N 2H 1N 6K 1X 5K 1A 4H 1A 5K 1X 5K 1W 1A 2H 2A 5K 1X 5K 1W 4N 1A 5K 1X 5K 1A 3W 1V 1A 5K 1X 4K 1W 1K 3V 1A 1K 1A 4K 1X 4K 1V 2W 4L 1A 4K 1X 4K 1V 2W 2Y 2L 1A 4K 1X 4K 1A 1V 5L 1A 4K 1X 4K 1A 1V 1K 3L 1K 1A 4K 1X 5K 1A 2W 2V 1A 5K 1X [ Re2 ] [ 16K ]",
      "single_word": false,
      "lstrip": false,
      "rstrip": false,
      "normalized": false,
      "special": true
    },
    {
      "id": 254,
      "content": "[ Re3 ] [ 16K 1X ] 6K 1N 2H 1N 6K 1X 5K 1A 4H 1A 5K 1X 5K 1W 1A 2H 2A 5K 1X 5K 1W 4N 1A 5K 1X 5K 1A 3W 1V 1A 5K 1X 4K 1W 1K 3Z 1V 1K 1A 4K 1X 4K 1V 2W 3N 1K 1A 4K 1X 4K 1V 2W 2Z 1V 2A 4K 1X 4K 1A 1Z 1K 3N 1K 1A 4K 1X 4K 1A 1Z 5K 1A 4K 1X 5K 1A 2W 2V 1A 5K 1X [ Re2 ] [ 16K ]",
      "single_word": false,
      "lstrip": false,
      "rstrip": false,
      "normalized": false,
      "special": true
    },
    {
      "id": 255,
      "content": "[ Re3 ] [ 16K 1X ] 6K 1N 2H 1N 6K 1X 5K 1A 4H 1A 5K 1X 5K 1W 1A 2H 2A 5K 1X 5K 1W 4N 1A 5K 1X 5K 1A 3W 1V 1A 5K 1X 4K 1W 1K 3Z 1V 1K 1A 4K 1X 4K 1V 2W 5A 4K 1X 4K 1V 2W 2Z 1V 2A 4K 1X 4K 1A 1Z 6A 4K 1X 4K 1A 1Z 1K 3A 1K 1A 4K 1X 5K 1A 2W 2V 1A 5K 1X [ Re2 ] [ 16K ]",
      "single_word": false,
      "lstrip": false,
      "rstrip": false,
      "normalized": false,
      "special": true
    },
    {
      "id": 256,
      "content": "[ Re3 ] [ 16K 1X ] 6K 1N 2H 1N 6K 1X 5K 1A 4H 1A 5K 1X 5K 1W 1A 2H 2A 5K 1X 5K 1W 4N 1A 5K 1X 5K 1A 3W 1V 1A 5K 1X 4K 1W 1N 3V 1A 1N 1A 4K 1X 4K 1V 2W 3O 1E 1A 4K 1X 4K 1V 2W 1Y 1Z 1Y 1D 1A 4K 1X 4K 1A 1V 1E 3O 1E 1A 4K 1X 4K 1A 1V 1N 3E 1N 1A 4K 1X 5K 1A 2W 2V 1A 5K 1X [ Re2 ] [ 16K ]",
      "single_word": false,
      "lstrip": false,
      "rstrip": false,
      "normalized": false,
      "special": true
    },
    {
      "id": 257,
      "content": "[ Re3 ] [ 16K 1X ] 6K 1N 2H 1N 6K 1X 5K 1A 4H 1A 5K 1X 5K 1W 1A 2H 2A 5K 1X 5K 1W 4N 1A 5K 1X 5K 1A 3W 1V 1A 5K 1X 4K 1W 1N 3V 1A 1N 1A 4K 1X 4K 1V 2W 3O 1N 1A 4K 1X 4K 1V 2W 1D 1Z 1D 1O 1A 4K 1X 4K 1A 1V 1N 3O 1N 1A 4K 1X 4K 1A 1V 5N 1A 4K 1X 5K 1A 2W 2V 1A 5K 1X [ Re2 ] [ 16K ]",
      "single_word": false,
      "lstrip": false,
      "rstrip": false,
      "normalized": false,
      "special": true
    },
    {
      "id": 258,
      "content": "[ Re3 ] [ 16K 1X ] 6K 1N 2H 1N 6K 1X 5K 1A 4H 1A 5K 1X 5K 1W 1A 2H 2A 5K 1X 5K 1W 4N 1A 5K 1X 5K 1A 3W 1V 1A 5K 1X 4K 1W 1U 3V 1A 1U 1A 4K 1X 4K 1V 2W 3L 1U 1A 4K 1X 4K 1V 2W 2M 2L 1A 4K 1X 4K 1A 1V 1U 3L 1U 1A 4K 1X 4K 1A 1V 5U 1A 4K 1X 5K 1A 2W 2V 1A 5K 1X [ Re2 ] [ 16K ]",
      "single_word": false,
      "lstrip": false,
      "rstrip": false,
      "normalized": false,
      "special": true
    },
    {
      "id": 259,
      "content": "[ Re3 ] [ 16K 1X ] 6K 1N 2H 1N 6K 1X 5K 1A 4H 1A 5K 1X 5K 1W 1A 2H 2A 5K 1X 5K 1W 4N 1A 5K 1X 5K 1A 3W 1V 1A 5K 1X 4K 1W 1U 3V 1A 1U 1A 4K 1X 4K 1V 2W 3L 1U 1A 4K 1X 4K 1V 2W 2M 2S 1A 4K 1X 4K 1A 1V 1U 3L 1U 1A 4K 1X 4K 1A 1V 5U 1A 4K 1X 5K 1A 2W 2V 1A 5K 1X [ Re2 ] [ 16K ]",
      "single_word": false,
      "lstrip": false,
      "rstrip": false,
      "normalized": false,
      "special": true
    },
    {
      "id": 260,
      "content": "[ Re3 ] [ 16K 1X ] 6K 1N 2H 1N 6K 1X 5K 1A 4H 1A 5K 1X 5K 1W 1A 2H 2A 5K 1X 5K 1W 4N 1A 5K 1X 5K 1A 3W 1V 1A 5K 1X 4K 1W 1U 3V 1A 1U 1A 4K 1X 4K 1V 2W 3S 1U 1A 4K 1X 4K 1V 2W 2M 2S 1A 4K 1X 4K 1A 1V 1U 3S 1U 1A 4K 1X 4K 1A 1V 5U 1A 4K 1X 5K 1A 2W 2V 1A 5K 1X [ Re2 ] [ 16K ]",
      "single_word": false,
      "lstrip": false,
      "rstrip": false,
      "normalized": false,
      "special": true
    },
    {
      "id": 261,
      "content": "[ Re3 ] [ 16K 1X ] 6K 1N 2H 1N 6K 1X 5K 1A 4H 1A 5K 1X 5K 1W 1A 2H 2A 5K 1X 5K 1W 4N 1A 5K 1X 5K 1A 3W 1V 1A 5K 1X 4K 1W 1U 3V 1A 1U 1A 4K 1X 4K 1V 2W 4B 1A 4K 1X 4K 1V 4W 2S 1A 4K 1X 4K 1A 1V 5B 1A 4K 1X 4K 1A 1V 1U 3B 1U 1A 4K 1X 5K 1A 2W 2V 1A 5K 1X [ Re2 ] [ 16K ]",
      "single_word": false,
      "lstrip": false,
      "rstrip": false,
      "normalized": false,
      "special": true
    },
    {
      "id": 262,
      "content": "[ Re3 ] [ 16K 1X ] 6K 1N 2H 1N 6K 1X 5K 1A 4H 1A 5K 1X 5K 1W 1A 2H 2A 5K 1X 5K 1W 4N 1A 5K 1X 5K 1A 3W 1V 1A 5K 1X 4K 1W 1U 3V 1A 1U 1A 4K 1X 4K 1V 2W 4P 1A 4K 1X 4K 1V 2W 3H 1J 1A 4K 1X 4K 1A 1V 5P 1A 4K 1X 4K 1A 1V 1U 3P 1U 1A 4K 1X 5K 1A 2W 2V 1A 5K 1X [ Re2 ] [ 16K ]",
      "single_word": false,
      "lstrip": false,
      "rstrip": false,
      "normalized": false,
      "special": true
    },
    {
      "id": 263,
      "content": "[ Re3 ] [ 16K 1X ] 6K 1N 2H 1N 6K 1X 5K 1A 4H 1A 5K 1X 5K 1Z 1A 2H 2A 5K 1X 5K 1W 4N 1A 5K 1X 5K 1A 1Z 2W 1V 1A 5K 1X 4K 1W 1N 3V 1A 1N 1A 4K 1X 4K 1V 2W 3R 1N 1A 4K 1X 4K 1V 2W 2H 1V 1N 1A 4K 1X 4K 1A 1V 1N 3R 1N 1A 4K 1X 4K 1A 1V 5N 1A 4K 1X 5K 1A 2W 2V 1A 5K 1X [ Re2 ] [ 16K ]",
      "single_word": false,
      "lstrip": false,
      "rstrip": false,
      "normalized": false,
      "special": true
    },
    {
      "id": 264,
      "content": "[ Re3 ] [ 16K 1X ] 7K 2A 7K 1X 7K 2N 2A 5K 1X 5K 1A 3N 7K 1X 4K 1N 2K 2A 1K 2N 4K 1X 3K 5N 1K 4N 3K 1X 3K 2N 1H 7N 3K 1X 3K 3N 2H 5N 3K 1X 3K 10N 3K 1X 4K 8N 4K 1X 5K 6N 5K 1X [ Re2 ] [ 16K 1X ] 1K 4U 11K",
      "single_word": false,
      "lstrip": false,
      "rstrip": false,
      "normalized": false,
      "special": true
    },
    {
      "id": 265,
      "content": "[ Re3 ] [ 16K 1X ] [ Re10 ] [ 3K 10W 3K 1X ] [ Re3 ] [ 16K ]",
      "single_word": false,
      "lstrip": false,
      "rstrip": false,
      "normalized": false,
      "special": true
    },
    {
      "id": 266,
      "content": "[ Re3 ] [ 16U 1X ] 4U 6L 6U 1X 2U 2L 2U 2L 2M 2L 4U 1X 2U 1K 3L 1U 1L 2V 2M 1L 3U 1X 1U 2L 1K 1L 1M 1U 2L 2V 1A 1L 3K 1X 1U 2L 1K 1L 2M 1U 1L 2M 1A 2L 2K 1X 1U 2L 1K 3M 1A 2L 1A 1L 1V 1U 2K 1X 1U 2L 1K 1L 2M 1L 2A 1L 2M 1U 2K 1X 1U 2L 1K 2L 2M 2L 2M 1A 1L 2K 1X 1U 1K 2L 1K 2L 1V 1M 1V 1M 1A 1M 1L 2K 1X 2K 3L 1K 2L 1V 1L 1A 2L 3K 1X 3K 3L 1K 3L 1U 1L 4K 1X 5K 2L 1K 2L 6K 1X 16K",
      "single_word": false,
      "lstrip": false,
      "rstrip": false,
      "normalized": false,
      "special": true
    },
    {
      "id": 267,
      "content": "[ Re3 ] [ 16U 1X ] 5U 2E 1U 1E 7U 1X 5U 1A 1U 2E 2A 5U 1X 3U 4A 1U 1E 1K 3A 3U 1X 2U 1A 4U 3K 3U 2A 1U 1X 1U 1A 2U 2A 1U 1A 1U 2A 3U 1E 1U 1X 1K 1E 1U 9A 2U 1E 1K 1X 1K 1E 2U 8A 3U 1K 1X 1K 4U 6A 1U 1E 2U 1K 1X 1K 4U 1E 6U 1E 2U 1K 1X 2K 3U 1E 6U 1E 1U 2K 1X 3K 2U 1E 6U 1E 3K 1X 5K 1E 5U 5K 1X 13K 3E",
      "single_word": false,
      "lstrip": false,
      "rstrip": false,
      "normalized": false,
      "special": true
    },
    {
      "id": 268,
      "content": "[ Re3 ] [ 16W 1X ] 3W 10A 3W 1X [ Re8 ] [ 3W 1A 8W 1A 3W 1X ] 3W 10A 3W 1X [ Re3 ] [ 16W ]",
      "single_word": false,
      "lstrip": false,
      "rstrip": false,
      "normalized": false,
      "special": true
    },
    {
      "id": 269,
      "content": "[ Re3 ] [ 16W 1X ] 3W 10B 3W 1X [ Re8 ] [ 3W 1B 8W 1B 3W 1X ] 3W 10B 3W 1X [ Re3 ] [ 16W ]",
      "single_word": false,
      "lstrip": false,
      "rstrip": false,
      "normalized": false,
      "special": true
    },
    {
      "id": 270,
      "content": "[ Re3 ] [ 16W 1X ] 3W 10D 3W 1X [ Re8 ] [ 3W 1D 8W 1D 3W 1X ] 3W 10D 3W 1X [ Re3 ] [ 16W ]",
      "single_word": false,
      "lstrip": false,
      "rstrip": false,
      "normalized": false,
      "special": true
    },
    {
      "id": 271,
      "content": "[ Re3 ] [ 16W 1X ] 3W 10E 3W 1X [ Re8 ] [ 3W 1E 8W 1E 3W 1X ] 3W 10E 3W 1X [ Re3 ] [ 16W ]",
      "single_word": false,
      "lstrip": false,
      "rstrip": false,
      "normalized": false,
      "special": true
    },
    {
      "id": 272,
      "content": "[ Re3 ] [ 16W 1X ] 3W 10G 3W 1X [ Re8 ] [ 3W 1G 8W 1G 3W 1X ] 3W 10G 3W 1X [ Re3 ] [ 16W ]",
      "single_word": false,
      "lstrip": false,
      "rstrip": false,
      "normalized": false,
      "special": true
    },
    {
      "id": 273,
      "content": "[ Re3 ] [ 16W 1X ] 3W 10H 3W 1X [ Re8 ] [ 3W 1H 8W 1H 3W 1X ] 3W 10H 3W 1X [ Re3 ] [ 16W ]",
      "single_word": false,
      "lstrip": false,
      "rstrip": false,
      "normalized": false,
      "special": true
    },
    {
      "id": 274,
      "content": "[ Re3 ] [ 16W 1X ] 3W 10J 3W 1X [ Re8 ] [ 3W 1J 8W 1J 3W 1X ] 3W 10J 3W 1X [ Re3 ] [ 16W ]",
      "single_word": false,
      "lstrip": false,
      "rstrip": false,
      "normalized": false,
      "special": true
    },
    {
      "id": 275,
      "content": "[ Re3 ] [ 16W 1X ] 3W 10K 3W 1X [ Re8 ] [ 3W 1K 8W 1K 3W 1X ] 3W 10K 3W 1X [ Re3 ] [ 16W ]",
      "single_word": false,
      "lstrip": false,
      "rstrip": false,
      "normalized": false,
      "special": true
    },
    {
      "id": 276,
      "content": "[ Re3 ] [ 16W 1X ] 3W 10L 3W 1X [ Re8 ] [ 3W 1L 8W 1L 3W 1X ] 3W 10L 3W 1X [ Re3 ] [ 16W ]",
      "single_word": false,
      "lstrip": false,
      "rstrip": false,
      "normalized": false,
      "special": true
    },
    {
      "id": 277,
      "content": "[ Re3 ] [ 16W 1X ] 3W 10M 3W 1X [ Re8 ] [ 3W 1M 8W 1M 3W 1X ] 3W 10M 3W 1X [ Re3 ] [ 16W ]",
      "single_word": false,
      "lstrip": false,
      "rstrip": false,
      "normalized": false,
      "special": true
    },
    {
      "id": 278,
      "content": "[ Re3 ] [ 16W 1X ] 3W 10N 3W 1X [ Re8 ] [ 3W 1N 8W 1N 3W 1X ] 3W 10N 3W 1X [ Re3 ] [ 16W ]",
      "single_word": false,
      "lstrip": false,
      "rstrip": false,
      "normalized": false,
      "special": true
    },
    {
      "id": 279,
      "content": "[ Re3 ] [ 16W 1X ] 3W 10O 3W 1X [ Re8 ] [ 3W 1O 8W 1O 3W 1X ] 3W 10O 3W 1X [ Re3 ] [ 16W ]",
      "single_word": false,
      "lstrip": false,
      "rstrip": false,
      "normalized": false,
      "special": true
    },
    {
      "id": 280,
      "content": "[ Re3 ] [ 16W 1X ] 3W 10P 3W 1X [ Re8 ] [ 3W 1P 8W 1P 3W 1X ] 3W 10P 3W 1X [ Re3 ] [ 16W ]",
      "single_word": false,
      "lstrip": false,
      "rstrip": false,
      "normalized": false,
      "special": true
    },
    {
      "id": 281,
      "content": "[ Re3 ] [ 16W 1X ] 3W 10R 3W 1X [ Re8 ] [ 3W 1R 8W 1R 3W 1X ] 3W 10R 3W 1X [ Re3 ] [ 16W ]",
      "single_word": false,
      "lstrip": false,
      "rstrip": false,
      "normalized": false,
      "special": true
    },
    {
      "id": 282,
      "content": "[ Re3 ] [ 16W 1X ] 3W 10S 3W 1X [ Re8 ] [ 3W 1S 8W 1S 3W 1X ] 3W 10S 3W 1X [ Re3 ] [ 16W ]",
      "single_word": false,
      "lstrip": false,
      "rstrip": false,
      "normalized": false,
      "special": true
    },
    {
      "id": 283,
      "content": "[ Re3 ] [ 16W 1X ] 3W 10U 3W 1X [ Re8 ] [ 3W 1U 8W 1U 3W 1X ] 3W 10U 3W 1X [ Re3 ] [ 16W ]",
      "single_word": false,
      "lstrip": false,
      "rstrip": false,
      "normalized": false,
      "special": true
    },
    {
      "id": 284,
      "content": "[ Re3 ] [ 16W 1X ] 3W 10V 3W 1X [ Re8 ] [ 3W 1V 8W 1V 3W 1X ] 3W 10V 3W 1X [ Re3 ] [ 16W ]",
      "single_word": false,
      "lstrip": false,
      "rstrip": false,
      "normalized": false,
      "special": true
    },
    {
      "id": 285,
      "content": "[ Re3 ] [ 16W 1X ] 3W 10Y 3W 1X [ Re8 ] [ 3W 1Y 8W 1Y 3W 1X ] 3W 10Y 3W 1X [ Re3 ] [ 16W ]",
      "single_word": false,
      "lstrip": false,
      "rstrip": false,
      "normalized": false,
      "special": true
    },
    {
      "id": 286,
      "content": "[ Re3 ] [ 16W 1X ] 3W 10Z 3W 1X [ Re8 ] [ 3W 1Z 8W 1Z 3W 1X ] 3W 10Z 3W 1X [ Re3 ] [ 16W ]",
      "single_word": false,
      "lstrip": false,
      "rstrip": false,
      "normalized": false,
      "special": true
    },
    {
      "id": 287,
      "content": "[ Re3 ] [ 16W 1X ] [ Re10 ] [ 3W 10A 3W 1X ] [ Re3 ] [ 16W ]",
      "single_word": false,
      "lstrip": false,
      "rstrip": false,
      "normalized": false,
      "special": true
    },
    {
      "id": 288,
      "content": "[ Re3 ] [ 16W 1X ] [ Re10 ] [ 3W 10B 3W 1X ] [ Re3 ] [ 16W ]",
      "single_word": false,
      "lstrip": false,
      "rstrip": false,
      "normalized": false,
      "special": true
    },
    {
      "id": 289,
      "content": "[ Re3 ] [ 16W 1X ] [ Re10 ] [ 3W 10D 3W 1X ] [ Re3 ] [ 16W ]",
      "single_word": false,
      "lstrip": false,
      "rstrip": false,
      "normalized": false,
      "special": true
    },
    {
      "id": 290,
      "content": "[ Re3 ] [ 16W 1X ] [ Re10 ] [ 3W 10E 3W 1X ] [ Re3 ] [ 16W ]",
      "single_word": false,
      "lstrip": false,
      "rstrip": false,
      "normalized": false,
      "special": true
    },
    {
      "id": 291,
      "content": "[ Re3 ] [ 16W 1X ] [ Re10 ] [ 3W 10G 3W 1X ] [ Re3 ] [ 16W ]",
      "single_word": false,
      "lstrip": false,
      "rstrip": false,
      "normalized": false,
      "special": true
    },
    {
      "id": 292,
      "content": "[ Re3 ] [ 16W 1X ] [ Re10 ] [ 3W 10H 3W 1X ] [ Re3 ] [ 16W ]",
      "single_word": false,
      "lstrip": false,
      "rstrip": false,
      "normalized": false,
      "special": true
    },
    {
      "id": 293,
      "content": "[ Re3 ] [ 16W 1X ] [ Re10 ] [ 3W 10J 3W 1X ] [ Re3 ] [ 16W ]",
      "single_word": false,
      "lstrip": false,
      "rstrip": false,
      "normalized": false,
      "special": true
    },
    {
      "id": 294,
      "content": "[ Re3 ] [ 16W 1X ] [ Re10 ] [ 3W 10K 3W 1X ] [ Re3 ] [ 16W ]",
      "single_word": false,
      "lstrip": false,
      "rstrip": false,
      "normalized": false,
      "special": true
    },
    {
      "id": 295,
      "content": "[ Re3 ] [ 16W 1X ] [ Re10 ] [ 3W 10L 3W 1X ] [ Re3 ] [ 16W ]",
      "single_word": false,
      "lstrip": false,
      "rstrip": false,
      "normalized": false,
      "special": true
    },
    {
      "id": 296,
      "content": "[ Re3 ] [ 16W 1X ] [ Re10 ] [ 3W 10M 3W 1X ] [ Re3 ] [ 16W ]",
      "single_word": false,
      "lstrip": false,
      "rstrip": false,
      "normalized": false,
      "special": true
    },
    {
      "id": 297,
      "content": "[ Re3 ] [ 16W 1X ] [ Re10 ] [ 3W 10N 3W 1X ] [ Re3 ] [ 16W ]",
      "single_word": false,
      "lstrip": false,
      "rstrip": false,
      "normalized": false,
      "special": true
    },
    {
      "id": 298,
      "content": "[ Re3 ] [ 16W 1X ] [ Re10 ] [ 3W 10O 3W 1X ] [ Re3 ] [ 16W ]",
      "single_word": false,
      "lstrip": false,
      "rstrip": false,
      "normalized": false,
      "special": true
    },
    {
      "id": 299,
      "content": "[ Re3 ] [ 16W 1X ] [ Re10 ] [ 3W 10P 3W 1X ] [ Re3 ] [ 16W ]",
      "single_word": false,
      "lstrip": false,
      "rstrip": false,
      "normalized": false,
      "special": true
    },
    {
      "id": 300,
      "content": "[ Re3 ] [ 16W 1X ] [ Re10 ] [ 3W 10R 3W 1X ] [ Re3 ] [ 16W ]",
      "single_word": false,
      "lstrip": false,
      "rstrip": false,
      "normalized": false,
      "special": true
    },
    {
      "id": 301,
      "content": "[ Re3 ] [ 16W 1X ] [ Re10 ] [ 3W 10S 3W 1X ] [ Re3 ] [ 16W ]",
      "single_word": false,
      "lstrip": false,
      "rstrip": false,
      "normalized": false,
      "special": true
    },
    {
      "id": 302,
      "content": "[ Re3 ] [ 16W 1X ] [ Re10 ] [ 3W 10U 3W 1X ] [ Re3 ] [ 16W ]",
      "single_word": false,
      "lstrip": false,
      "rstrip": false,
      "normalized": false,
      "special": true
    },
    {
      "id": 303,
      "content": "[ Re3 ] [ 16W 1X ] [ Re10 ] [ 3W 10V 3W 1X ] [ Re3 ] [ 16W ]",
      "single_word": false,
      "lstrip": false,
      "rstrip": false,
      "normalized": false,
      "special": true
    },
    {
      "id": 304,
      "content": "[ Re3 ] [ 16W 1X ] [ Re10 ] [ 3W 10Y 3W 1X ] [ Re3 ] [ 16W ]",
      "single_word": false,
      "lstrip": false,
      "rstrip": false,
      "normalized": false,
      "special": true
    },
    {
      "id": 305,
      "content": "[ Re3 ] [ 16W 1X ] [ Re10 ] [ 3W 10Z 3W 1X ] [ Re3 ] [ 16W ]",
      "single_word": false,
      "lstrip": false,
      "rstrip": false,
      "normalized": false,
      "special": true
    },
    {
      "id": 306,
      "content": "[ Re3 ] [ 3K 13N 1X ] 3K 8N 1E 2Z 2N 1X 3K 8N 3E 2K 1X 2K 9N 3E 1K 1N 1X 2K 8N 1E 1D 1O 1E 1O 1N 1X 2K 7N 1H 1E 2D 1E 1O 1N 1X 2K 5N 1H 1D 1O 2H 1E 2D 1K 1X 2K 3N 1H 1D 2O 1H 1D 1H 1E 1D 1O 1K 1X 2K 1E 2H 2O 2H 2D 1E 1H 1D 1O 1K 1X 5K 2H 2D 2O 1H 2D 1O 1K 1X 2K 1E 2Y 2D 2O 2H 2D 1O 2K 1X 7K 2H 3D 1O 3K 1X 5K 1E 1Y 3D 1O 5K 1X 16K",
      "single_word": false,
      "lstrip": false,
      "rstrip": false,
      "normalized": false,
      "special": true
    },
    {
      "id": 307,
      "content": "[ Re4 ] [ 16E 1X ] 3E 1V 1H 6E 3V 2E 1X 3E 1V 1H 1V 6E 1V 3E 1X 4E 1V 5E 1V 1H 4E 1X 16E 1X 8E 2V 6E 1X 5E 1V 2H 8E 1X 6E 1H 1V 7E 1N 1X 3E 3V 9E 1N 1X 2E 1V 11E 2N 1X 2E 2V 10E 2N 1X [ Re2 ] [ 13E 3N ]",
      "single_word": false,
      "lstrip": false,
      "rstrip": false,
      "normalized": false,
      "special": true
    }
  ],
  "normalizer": null,
  "pre_tokenizer": {
    "type": "Whitespace"
  },
  "post_processor": null,
  "decoder": null,
  "model": {
    "type": "BPE",
    "dropout": null,
    "unk_token": "<UNK>",
    "continuing_subword_prefix": null,
    "end_of_word_suffix": null,
    "fuse_unk": false,
    "byte_fallback": false,
    "ignore_merges": false,
    "vocab": {
      "<PAD>": 0,
      "<SOS>": 1,
      "<EOS>": 2,
      "<UNK>": 3,
      "10K 6E 1X 4K 4L 8E 1X 3L 1K 4L 3E 1O 1E 1O 2E 1X 3L 1K 4L 1E 2O 1E 1O 3E 1X 3L 1K 1L 1A 1L 1D 1O 1D 1E 1O 1E 1O 2E 1X 3L 1K 1A 1L 1O 1E 1D 1E 1O 1E 1O 3E 1X 5L 1O 1E 1O 1E 1O 1E 1O 2E 2K 1X 2L 1K 1L 1K 1E 1O 1E 1O 1E 1O 1E 1O 3K 1X 4L 1K 1O 1E 1O 1E 1O 1E 1O 1L 3K 1X 3L 1K 1O 1E 1O 1E 1O 1E 1O 1L 2K 2L 1X 2K 1L 1K 1E 1O 1E 1O 1E 5K 2L 1X 2K 1L 4K 2L 2A 2M 1A 2L 1X 3K 6A 2L 2K 1M 2L 1X 2K 8L 3K 1M 2L 1X 3K 5L 5K 3L 1X 13K 3L": 4,
      "12K 2E 2K 1X 4P 1K 2P 4K 3E 2K 1X 4P 1K 2P 5K 2A 2K 1X 4P 1K 2P 4K 1E 2A 1E 1K 1X 2P 1A 1P 1K 1A 1P 3K 1E 1A 2E 2K 1X 4P 1K 2P 3K 2A 2E 2K 1X 1P 1A 6K 1A 1P 1K 2E 3K 1X 2P 1K 1A 1P 1K 1P 1K 2P 6K 1X 1P 2K 2P 11K 1X 1P 6K 1A 1K 1A 1P 5K 1X 1P 1A 1P 1K 2P 1K 1P 1K 2P 5K 1X 3P 1K 1P 3K 1P 7K 1X 1P 4K 1A 1P 1K 1P 7K 1X 2K 1A 1P 1K 2P 9K 1X 2K 2P 12K 1X 16K": 5,
      "12N 4K 1X 16N 1X 5N 4H 3Z 4N 1X 3N 5Z 2H 2A 1Z 3N 1X 2N 2H 8Z 2H 2N 1X 2N 10H 1A 1H 1N 1L 1X 2N 1A 6H 3A 2H 1N 1L 1X 3N 3A 9N 1A 1X 1K 5N 4H 3Z 2N 1A 1X 1K 3N 5Z 2H 2A 1Z 2N 1X 3N 2H 8Z 2H 1N 1X 3N 10H 1A 1H 1N 1X 3N 1A 6H 3A 2H 1N 1X 4N 5A 5H 2N 1X [ Re2 ] [ 16N ]": 6,
      "16K 1X 5K 1A 1E 9K 1X 5K 2A 9K 1X 4K 1E 1A 2E 8K 1X 4K 3A 1E 1K 2A 5K 1X 4K 3A 1E 1K 2V 5K 1X 3K 1E 3A 1K 1A 1Z 1V 1A 4K 1X [ Re2 ] [ 2K 1E 4A 1K 1Z 3V 4K 1X ] 2K 1E 3A 1K 1A 1V 2E 1V 1A 3K 1X 2K 2E 1A 1K 1A 1V 1E 1A 2E 1V 1A 2K 1X 3K 2E 1K 1V 1E 1A 4E 1A 2K 1X 6K 1A 6E 1A 2K 1X 6K 2A 4E 2A 2K 1X 7K 6A 3K 1X 16K": 7,
      "16K 1X 5K 2E 9K 1X 4K 3E 1K 1E 7K 1X 7E 1K 1E 7K 1X 6E 1O 1K 1O 7K 1X 6E 2H 1D 7K 1X 5E 1O 3D 1O 6K 1X 3K 2E 1D 1H 3D 6K 1X 3K 1E 1O 1H 1O 1D 1O 1D 1O 5K 1X 3K 1O 1D 1H 4D 2O 4K 1X 3K 1O 3D 1O 2D 1E 1O 4K 1X 3K 1O 6D 2O 4K 1X 3K 1O 1E 4D 3O 4K 1X 4K 6O 1E 5K 1X 5K 2O 1E 2O 6K 1X 7K 1E 8K": 8,
      "16K 1X 5N 4K 1V 5K 1P 1X 5N 3K 2L 5K 1P 1X 5N 3K 1L 5K 2P 1X 5N 9K 2P 1X 6N 1K 2N 5K 2P 1X 6N 1K 1N 1K 2N 3K 2P 1X 5N 3K 4N 2K 2P 1X 4N 1H 1O 6N 3K 1P 1X 3N 1H 2O 6N 3K 1P 1X 1K 2N 1H 1O 7N 2K 2P 1X 1K 11N 2K 2P 1X 1K 11N 3K 1P 1X 2K 9N 5K 1X 4K 5N 7K 1X 16K": 9,
      "16K 1X 6K 1E 9K 1X 3K 4E 1K 1E 7K 1X 7E 1K 1E 7K 1X 7E 1K 1A 1E 1K 5L 1X 5E 2N 1E 1K 1E 1K 5L 1X 4E 1A 1N 1K 1N 1K 1N 1E 1A 4L 1X 4E 2N 1A 5N 4A 1X 5N 1L 1A 5N 4L 1X 1K 3N 1L 1E 1L 1N 1K 3N 4K 1X 1K 3N 1E 1N 1L 1K 1E 1K 2N 1E 3K 1X 1K 6N 1E 1N 1E 2N 1A 3K 1X 1K 10N 1A 4K 1X 1K 4N 1K 6N 4K 1X 1K 5N 1E 2N 1E 2N 4K 1X 1K 11N 4K": 10,
      "16K 1X 6K 1N 2H 1N 6K 1X 5K 1A 4H 1A 5K 1X 5K 1V 1A 2H 2A 5K 1X 5K 1W 4N 1A 5K 1X 5K 1A 3W 1V 1A 5K 1X 4K 1A 1N 3V 1A 1N 1A 4K 1X 3K 1W 1N 2Z 1N 2E 2N 1A 3K 1X 3K 1W 1Z 2W 1D 2Y 1D 1E 1A 3K 1X 3K 1V 1Z 2W 4O 1D 1A 3K 1X 3K 1V 1O 1W 1Y 2Z 1Y 1D 1O 1A 3K 1X 3K 1A 1E 1Z 5O 1E 1A 3K 1X 3K 1A 1N 1Z 1E 3O 1E 1N 1A 3K 1X 4K 1A 1V 1N 2E 2N 1A 4K 1X 5K 1A 2W 2V 1A 5K 1X 16K": 11,
      "16K 1X 6K 1N 2H 1N 6K 1X 5K 1A 4H 1A 5K 1X 5K 1V 1A 2H 2A 5K 1X 5K 1W 4N 1A 5K 1X 5K 1A 3W 1V 1A 5K 1X 4K 1A 1U 3V 1A 1U 1A 4K 1X 3K 1W 1U 2M 5U 1A 3K 1X 3K 1W 1M 2W 4L 1U 1A 3K 1X 3K 1V 1M 2W 5L 1A 3K 1X 3K 1V 1L 1W 1L 2M 3L 1A 3K 1X 3K 1A 1U 1M 5L 1U 1A 3K 1X 3K 1A 1U 1M 4L 2U 1A 3K 1X 4K 1A 1V 5U 1A 4K 1X 5K 1A 2W 2V 1A 5K 1X 16K": 12,
      "16K 1X 6K 1N 2H 1N 6K 1X 5K 1A 4H 1A 5K 1X 5K 1V 1A 2H 2A 5K 1X 5K 1W 4N 1A 5K 1X 5K 1A 3W 1V 1A 5K 1X 4K 1A 1U 3V 1A 1U 1A 4K 1X 3K 1W 1U 2M 5U 1A 3K 1X 3K 1W 1M 2W 4S 1U 1A 3K 1X 3K 1V 1M 2W 4L 1S 1A 3K 1X 3K 1V 1S 1W 1S 2M 3S 1A 3K 1X 3K 1A 1U 1M 5L 1U 1A 3K 1X 3K 1A 1U 1M 1U 3L 2U 1A 3K 1X 4K 1A 1V 5U 1A 4K 1X 5K 1A 2W 2V 1A 5K 1X 16K": 13,
      "16K 1X 6K 1N 2H 1N 6K 1X 5K 1A 4H 1A 5K 1X 5K 1V 1A 2H 2A 5K 1X 5K 1W 4N 1A 5K 1X 5K 1A 3W 1V 1A 5K 1X 4K 1A 1U 3V 1A 1U 1A 4K 1X 3K 1W 1U 2M 5U 1A 3K 1X 3K 1W 1M 2W 4S 1U 1A 3K 1X 3K 1V 1M 2W 5S 1A 3K 1X 3K 1V 1S 1W 1S 2M 3S 1A 3K 1X 3K 1A 1U 1M 5S 1U 1A 3K 1X 3K 1A 1U 1M 4S 2U 1A 3K 1X 4K 1A 1M 5U 1A 4K 1X 5K 1A 2W 2V 1A 5K 1X 16K": 14,
      "16K 1X 6K 1N 2H 1N 6K 1X 5K 1A 4H 1A 5K 1X 5K 1V 1A 2H 2A 5K 1X 5K 1W 4N 1A 5K 1X 5K 1A 3W 1V 1A 5K 1X 4K 1A 1U 3V 1A 1U 1A 4K 1X 3K 1W 1U 2W 1U 2B 2U 1A 3K 1X 3K 4W 4S 1U 1A 3K 1X 3K 1V 3W 4B 1S 1A 3K 1X 3K 1V 1S 1W 1S 2W 3S 1A 3K 1X 3K 1A 1U 1W 6B 1A 3K 1X 3K 1A 1U 1W 5B 1U 1A 3K 1X 4K 1A 1W 1U 2B 2U 1A 4K 1X 5K 1A 2W 2V 1A 5K 1X 16K": 15,
      "16K 1X 6K 1N 2H 1N 6K 1X 5K 1A 4H 1A 5K 1X 5K 1V 1A 2H 2A 5K 1X 5K 1W 4N 1A 5K 1X 5K 1A 3W 1V 1A 5K 1X 5K 1N 3V 1A 1N 5K 1X 4K 1V 1Z 1N 2E 2N 1A 4K 1X 4K 2W 1Z 1D 1Y 1D 1E 1A 4K 1X 4K 3W 3O 1D 1V 4K 1X 4K 2W 1Y 2Z 1Y 1O 1V 4K 1X 4K 1V 1Z 5O 1V 4K 1X 4K 1A 1Z 1E 3O 1E 1A 4K 1X 4K 1A 1V 1N 3E 1N 1A 4K 1X 5K 1A 2W 2V 1A 5K 1X 16K": 16,
      "16K 1X 6K 1N 2H 1N 6K 1X 5K 1A 4H 1A 5K 1X 5K 1V 1A 2H 2A 5K 1X 5K 1W 4N 1A 5K 1X 5K 1A 3W 1V 1A 5K 1X 5K 1N 3V 1A 1N 5K 1X 4K 1V 1Z 5N 1A 4K 1X 4K 2W 1Z 1O 1D 1O 1N 1A 4K 1X 4K 3W 4O 1V 4K 1X 4K 2W 1D 2Z 1D 1O 1V 4K 1X 4K 1V 1Z 5O 1V 4K 1X 4K 1A 1Z 1N 3O 1N 1A 4K 1X 4K 1A 1V 5N 1A 4K 1X 5K 1A 2W 2V 1A 5K 1X 16K": 17,
      "16K 1X 6K 1N 2H 1N 6K 1X 5K 1A 4H 1A 5K 1X 5K 1V 1A 2H 2A 5K 1X 5K 1W 4N 1A 5K 1X 5K 1A 3W 1V 1A 5K 1X 5K 1U 3V 1A 1U 5K 1X 4K 1V 1M 5U 1A 4K 1X 4K 2W 1M 3L 1U 1A 4K 1X 4K 3W 4L 1V 4K 1X 4K 2W 1L 2M 2L 1V 4K 1X 4K 1V 1M 5L 1V 4K 1X 4K 1A 1M 1U 3L 1U 1A 4K 1X 4K 1A 1V 5U 1A 4K 1X 5K 1A 2W 2V 1A 5K 1X 16K": 18,
      "16K 1X 6K 1N 2H 1N 6K 1X 5K 1A 4H 1A 5K 1X 5K 1V 1A 2H 2A 5K 1X 5K 1W 4N 1A 5K 1X 5K 1A 3W 1V 1A 5K 1X 5K 1U 3V 1A 1U 5K 1X 4K 1V 1M 5U 1A 4K 1X 4K 2W 1M 3S 1U 1A 4K 1X 4K 3W 3L 1S 1V 4K 1X 4K 2W 1S 2M 1S 1L 1V 4K 1X 4K 1V 1M 5L 1V 4K 1X 4K 1A 1M 1U 3L 1U 1A 4K 1X 4K 1A 1V 5U 1A 4K 1X 5K 1A 2W 2V 1A 5K 1X 16K": 19,
      "16K 1X 6K 1N 2H 1N 6K 1X 5K 1A 4H 1A 5K 1X 5K 1V 1A 2H 2A 5K 1X 5K 1W 4N 1A 5K 1X 5K 1A 3W 1V 1A 5K 1X 5K 1U 3V 1A 1U 5K 1X 4K 1V 1M 5U 1A 4K 1X 4K 2W 1M 3S 1U 1A 4K 1X 4K 3W 4S 1V 4K 1X 4K 2W 1S 2M 2S 1V 4K 1X 4K 1V 1M 5S 1V 4K 1X 4K 1A 1M 1U 3S 1U 1A 4K 1X 4K 1A 1V 5U 1A 4K 1X 5K 1A 2W 2V 1A 5K 1X 16K": 20,
      "16K 1X 6K 1N 2H 1N 6K 1X 5K 1A 4H 1A 5K 1X 5K 1V 1A 2H 2A 5K 1X 5K 1W 4N 1A 5K 1X 5K 1A 3W 1V 1A 5K 1X 5K 1U 3V 1A 1U 5K 1X 4K 1V 1W 1U 2B 2U 1A 4K 1X 4K 3W 3S 1B 1A 4K 1X 4K 3W 3B 1S 1V 4K 1X 4K 2W 1S 2W 1S 1B 1V 4K 1X 4K 1V 1W 5B 1V 4K 1X 4K 1A 1W 5B 1A 4K 1X 4K 1A 1V 1U 3B 1U 1A 4K 1X 5K 1A 2W 2V 1A 5K 1X 16K": 21,
      "16K 1X 6K 1N 2H 1N 6K 1X 5K 1A 4H 1A 5K 1X 5K 1V 1A 2H 2A 5K 1X 5K 1W 4N 1A 5K 1X 5K 1A 3W 1V 1A 5K 1X 5K 1U 3V 1A 1U 5K 1X 4K 1V 1W 1U 2P 2U 1A 4K 1X 4K 3W 1J 1H 1J 1P 1A 4K 1X 4K 3W 3P 1J 1V 4K 1X 4K 2W 4H 1P 1V 4K 1X 4K 1V 1W 5P 1V 4K 1X 4K 1A 1W 5P 1A 4K 1X 4K 1A 1V 1U 3P 1U 1A 4K 1X 5K 1A 2W 2V 1A 5K 1X 16K": 22,
      "16K 1X 6K 1N 2H 1N 6K 1X 5K 1A 4H 1A 5K 1X 5K 1V 1A 2H 2A 5K 1X 5K 1W 4N 1A 5K 1X 5K 1A 3W 1V 1A 5K 1X 6K 3V 1A 6K 1X 4K 1V 1W 1K 2A 2K 1A 4K 1X 4K 3W 1V 4A 4K 1X 4K 3W 4A 1V 4K 1X 4K 2W 1V 2Z 1V 1A 1V 4K 1X 4K 1V 1W 5A 1V 4K 1X 4K 1A 1W 6A 4K 1X 4K 1A 1V 1K 3A 1K 1A 4K 1X 5K 1A 2W 2V 1A 5K 1X 16K": 23,
      "16K 1X 6K 1N 2H 1N 6K 1X 5K 1A 4H 1A 5K 1X 5K 1V 1A 2H 2A 5K 1X 5K 1W 4N 1A 5K 1X 5K 1A 3W 1V 1A 5K 1X 6K 3V 1A 6K 1X 4K 1V 1W 5K 1A 4K 1X 4K 3W 3A 1K 1A 4K 1X 4K 3W 3N 1A 1V 4K 1X 4K 2W 1A 2V 1A 1N 1V 4K 1X 4K 1V 1W 5N 1V 4K 1X 4K 1A 1W 1K 3N 1K 1A 4K 1X 4K 1A 1V 5K 1A 4K 1X 5K 1A 2W 2V 1A 5K 1X 16K": 24,
      "16K 1X 6K 1N 2H 1N 6K 1X 5K 1A 4H 1A 5K 1X 5K 1V 1A 2H 2A 5K 1X 5K 1W 4N 1A 5K 1X 5K 1A 3W 1V 1A 5K 1X 6K 3V 1A 6K 1X 4K 1V 1Z 1K 2E 2K 1A 4K 1X 4K 2W 1Z 1E 1D 2E 1A 4K 1X 4K 3W 4E 1V 4K 1X 4K 2W 1D 2Y 1D 1E 1V 4K 1X 4K 1V 1Z 5E 1V 4K 1X 4K 1A 1Z 5E 1A 4K 1X 4K 1A 1V 1K 3E 1K 1A 4K 1X 5K 1A 2W 2V 1A 5K 1X 16K": 25,
      "16K 1X 6K 1N 2H 1N 6K 1X 5K 1A 4H 1A 5K 1X 5K 1V 1A 2H 2A 5K 1X 5K 1W 4N 1A 5K 1X 5K 1A 3W 1V 1A 5K 1X 6K 3V 1A 6K 1X 4K 1V 1Z 1K 2L 2K 1A 4K 1X 4K 2W 1Z 4L 1A 4K 1X 4K 3W 4L 1V 4K 1X 4K 2W 1L 2Y 2L 1V 4K 1X 4K 1V 1Z 5L 1V 4K 1X 4K 1A 1Z 5L 1A 4K 1X 4K 1A 1V 1K 3L 1K 1A 4K 1X 5K 1A 2W 2V 1A 5K 1X 16K": 26,
      "16K 1X 6K 1N 2H 1N 6K 1X 5K 1A 4H 1A 5K 1X 5K 1V 1A 2H 2A 5K 1X 5K 1W 4N 1A 5K 1X 5K 1A 3W 1V 1A 5K 1X 6K 3V 1A 6K 1X 4K 1V 1Z 1K 2N 2K 1A 4K 1X 4K 2W 1Z 1V 2O 1N 1A 4K 1X 4K 3W 3E 1O 1V 4K 1X 4K 2W 1V 2Z 1V 1E 1V 4K 1X 4K 1V 1W 5E 1V 4K 1X 4K 1A 1Z 1N 3E 1N 1A 4K 1X 4K 1A 1V 1K 3N 1K 1A 4K 1X 5K 1A 2W 2V 1A 5K 1X 16K": 27,
      "16K 1X 6K 1N 2H 1N 6K 1X 5K 1A 4H 1A 5K 1X 5K 1V 1A 2H 2A 5K 1X 5K 1W 4N 1A 5K 1X 5K 1A 3W 1V 1A 5K 1X 6K 3V 1A 6K 1X 4K 1V 1Z 1K 2N 2K 1A 4K 1X 4K 2W 1Z 1V 3N 1A 4K 1X 4K 3W 3R 1N 1V 4K 1X 4K 2W 1V 2H 1V 1R 1V 4K 1X 4K 1V 1Z 5R 1V 4K 1X 4K 1A 1Z 1N 3R 1N 1A 4K 1X 4K 1A 1V 1K 3N 1K 1A 4K 1X 5K 1A 2W 2V 1A 5K 1X 16K": 28,
      "16K 1X 6K 1N 2H 1N 6K 1X 5K 1A 4H 1A 5K 1X 5K 1W 1A 2H 2A 5K 1X 5K 1W 4N 1A 5K 1X 5K 1A 3W 1V 1A 5K 1X 3K 1A 1W 1K 3V 1A 1K 1V 1A 3K 1X 3K 2W 1Z 1K 4E 2V 3K 1X 3K 3W 1Z 1D 4E 1V 3K 1X 3K 1V 1Z 1W 1Z 5E 1V 3K 1X 3K 1A 1E 1W 1D 2Y 1D 2E 1A 3K 1X 3K 1A 1K 1V 6E 1A 3K 1X 3K 1A 1K 1V 5E 1K 1A 3K 1X 3K 1A 1K 1V 4E 2K 1A 3K 1X 3K 1A 1V 4W 3V 1A 3K 1X 16K": 29,
      "16K 1X 6K 1N 2H 1N 6K 1X 5K 1A 4H 1A 5K 1X 5K 1W 1A 2H 2A 5K 1X 5K 1W 4N 1A 5K 1X 5K 1A 3W 1V 1A 5K 1X 3K 1A 1W 1U 3V 1A 1U 1V 1A 3K 1X 3K 2W 1H 1U 4P 2V 3K 1X 3K 3W 2H 3J 1P 1V 3K 1X 3K 1V 1H 1W 1H 4P 1J 1V 3K 1X 3K 1A 1P 1W 4H 2J 1A 3K 1X 3K 1A 1U 1V 6P 1A 3K 1X 3K 1A 1U 1V 5P 1U 1A 3K 1X 3K 1A 1U 1V 1U 3P 2U 1A 3K 1X 3K 1A 1V 4W 3V 1A 3K 1X 16K": 30,
      "16K 1X 6K 1N 2H 1N 6K 1X 5K 1A 4H 1A 5K 1X 5K 1W 1A 2H 2A 5K 1X 5K 1W 4N 1A 5K 1X 5K 1A 3W 1V 1A 5K 1X 4K 1A 1K 3V 1A 1K 1A 4K 1X 3K 1W 1K 2W 5K 1A 3K 1X 3K 4W 4A 1K 1A 3K 1X 3K 1V 3W 4N 2A 3K 1X 3K 1V 1A 1W 1A 2V 4A 3K 1X 3K 1A 1K 1Z 5N 1K 1A 3K 1X 3K 1A 1K 1Z 1K 3N 2K 1A 3K 1X 4K 2A 5K 1A 4K 1X 5K 1A 2W 2V 1A 5K 1X 16K": 31,
      "16K 1X 6K 1N 2H 1N 6K 1X 5K 1A 4H 1A 5K 1X 5K 1W 1A 2H 2A 5K 1X 5K 1W 4N 1A 5K 1X 5K 1A 3W 1V 1A 5K 1X 4K 1A 1K 3V 1A 1K 1A 4K 1X 3K 1W 1K 2Z 1K 2E 2K 1A 3K 1X 3K 1W 1Z 2W 1E 2D 2E 1A 3K 1X 3K 1V 1Z 2W 5E 1A 3K 1X 3K 1V 1E 1W 1D 2Y 1D 2E 1A 3K 1X 3K 1A 1E 1V 6E 1A 3K 1X 3K 1A 1K 1V 5E 1K 1A 3K 1X 4K 1A 1V 1K 2E 2K 1A 4K 1X 5K 1A 2W 2V 1A 5K 1X 16K": 32,
      "16K 1X 6K 1N 2H 1N 6K 1X 5K 1A 4H 1A 5K 1X 5K 1W 1A 2H 2A 5K 1X 5K 1W 4N 1A 5K 1X 5K 1A 3W 1V 1A 5K 1X 4K 1A 1K 3V 1A 1K 1A 4K 1X 3K 1W 1K 2Z 1K 2L 2K 1A 3K 1X 3K 1W 1Z 2W 5L 1A 3K 1X 3K 1V 1Z 2W 5L 1A 3K 1X 3K 1V 1L 1W 1L 2Y 3L 1A 3K 1X 3K 1A 1L 1V 6L 1A 3K 1X 3K 1A 1K 1V 5L 1K 1A 3K 1X 4K 1A 1V 1K 2L 2K 1A 4K 1X 5K 1A 2W 2V 1A 5K 1X 16K": 33,
      "16K 1X 6K 1N 2H 1N 6K 1X 5K 1A 4H 1A 5K 1X 5K 1W 1A 2H 2A 5K 1X 5K 1W 4N 1A 5K 1X 5K 1A 3W 1V 1A 5K 1X 4K 1A 1K 3V 1A 1K 1A 4K 1X 3K 1W 1N 2W 1N 2A 1N 1K 1A 3K 1X 3K 4W 1V 5A 3K 1X 3K 1V 3W 6A 3K 1X 3K 1V 1A 1W 1V 2Z 1V 3A 3K 1X 3K 2A 1Z 7A 3K 1X 3K 1A 1N 1Z 5A 1N 1A 3K 1X 4K 2A 1N 2A 1N 1K 1A 4K 1X 5K 1A 2W 2V 1A 5K 1X 16K": 34,
      "16K 1X 6K 1N 2H 1N 6K 1X 5K 1A 4H 1A 5K 1X 5K 1W 1A 2H 2A 5K 1X 5K 1W 4N 1A 5K 1X 5K 1A 3W 1V 1A 5K 1X 4K 1A 1K 3V 1A 1K 1A 4K 1X 3K 1W 1N 2Z 4N 1K 1A 3K 1X 3K 1W 1Z 2W 1V 3O 1N 1A 3K 1X 3K 1V 1Z 2W 4E 1O 1A 3K 1X 3K 1V 1O 1W 1V 2Z 1V 2O 1A 3K 1X 3K 1A 1N 1V 5E 1N 1A 3K 1X 3K 1A 1N 1V 1N 3E 2N 1A 3K 1X 4K 2A 4N 1K 1A 4K 1X 5K 1A 2W 2V 1A 5K 1X 16K": 35,
      "16K 1X 6K 1N 2H 1N 6K 1X 5K 1A 4H 1A 5K 1X 5K 1W 1A 2H 2A 5K 1X 5K 1W 4N 1A 5K 1X 5K 1A 3W 1V 1A 5K 1X 4K 1A 1N 3V 1A 1N 1A 4K 1X 3K 1W 1N 2Z 5N 1A 3K 1X 3K 1W 1Z 2W 1O 2D 1O 1N 1A 3K 1X 3K 1V 1Z 2W 5O 1A 3K 1X 3K 1V 1O 1W 1D 2Z 1D 2O 1A 3K 1X 3K 1A 1N 1Z 5O 1N 1A 3K 1X 3K 1A 1N 1Z 1N 3O 2N 1A 3K 1X 4K 1A 1V 5N 1A 4K 1X 5K 1A 2W 2V 1A 5K 1X 16K": 36,
      "16K 1X 6K 1N 2H 1N 6K 1X 5K 1A 4H 1A 5K 1X 5K 1W 1A 2H 2A 5K 1X 5K 1W 4N 1A 5K 1X 5K 1A 3W 1V 1A 5K 1X 4K 1A 1U 3V 1A 1U 1A 4K 1X 3K 1W 1U 2W 1U 2P 2U 1A 3K 1X 3K 4W 1J 2H 1J 1P 1A 3K 1X 3K 1V 3W 4P 1J 1A 3K 1X 3K 1V 1J 1W 4H 2J 1A 3K 1X 3K 1A 1P 1V 6P 1A 3K 1X 3K 1A 1U 1V 5P 1U 1A 3K 1X 4K 1A 1V 1U 2P 2U 1A 4K 1X 5K 1A 2W 2V 1A 5K 1X 16K": 37,
      "16K 1X 6K 1N 2H 1N 6K 1X 5K 1A 4H 1A 5K 1X 5K 1W 1A 2H 2A 5K 1X 5K 1W 4N 1A 5K 1X 5K 1A 3W 1V 1A 5K 1X 4K 1W 1K 3V 1A 1K 1A 4K 1X 3K 2W 1Z 1K 3E 2K 1V 3K 1X 2K 4W 1Z 1D 3E 2K 1V 2K 1X 2K 1V 1Z 1W 1Z 7E 1A 2K 1X 2K 1V 1E 1W 1E 1D 2Y 1D 3E 1A 2K 1X 2K 1A 1K 1V 7E 1K 1A 2K 1X 3K 1A 1V 6E 1K 1A 3K 1X 4K 1A 1K 4E 1K 1A 4K 1X 5K 1A 2W 2V 1A 5K 1X 16K": 38,
      "16K 1X 6K 1N 2H 1N 6K 1X 5K 1A 4H 1A 5K 1X 5K 1W 1A 2H 2A 5K 1X 5K 1W 4N 1A 5K 1X 5K 1A 3W 1V 1A 5K 1X 4K 1W 1U 3V 1A 1U 1A 4K 1X 3K 3W 1U 3P 2U 1V 3K 1X 2K 5W 2H 2J 2U 1V 2K 1X 2K 1V 3W 5P 1J 1P 1A 2K 1X 2K 1V 1J 1W 1J 4H 2J 1P 1A 2K 1X 2K 1A 1U 1V 7P 1U 1A 2K 1X 3K 1A 1V 6P 1U 1A 3K 1X 4K 1A 1U 4P 1U 1A 4K 1X 5K 1A 2W 2V 1A 5K 1X 16K": 39,
      "16K 1X 6K 1N 2H 1N 6K 1X 5K 1A 4H 1A 5K 1X 5K 1W 1A 2H 2A 5K 1X 5K 1W 4N 1A 5K 1X 5K 1A 3W 1V 1A 5K 1X 5K 1A 3V 2A 5K 1X 4K 1A 1K 3A 2K 1A 4K 1X 3K 1W 1V 2W 1A 2V 3A 3K 1X 3K 1W 1V 2W 5A 1V 3K 1X 3K 1V 1A 1W 1V 2Z 2V 1A 1V 3K 1X 3K 1A 1K 1V 5A 1K 1A 3K 1X 3K 2A 1K 1V 6A 3K 1X 4K 2A 1V 2A 1K 2A 4K 1X 6K 1A 2V 1A 6K 1X 16K": 40,
      "16K 1X 6K 1N 2H 1N 6K 1X 5K 1A 4H 1A 5K 1X 5K 1W 1A 2H 2A 5K 1X 5K 1W 4N 1A 5K 1X 5K 1A 3W 1V 1A 5K 1X 5K 1A 3V 2A 5K 1X 4K 1A 1K 3E 2K 1A 4K 1X 3K 1W 1Z 2W 1E 2D 2E 1A 3K 1X 3K 1W 1Z 2W 5E 1V 3K 1X 3K 1V 1E 1W 1D 2Y 1D 2E 1V 3K 1X 3K 1A 1K 1Z 5E 1K 1A 3K 1X 3K 2A 1K 1Z 4E 2A 3K 1X 4K 2A 1V 2E 1K 2A 4K 1X 6K 1A 2V 1A 6K 1X 16K": 41,
      "16K 1X 6K 1N 2H 1N 6K 1X 5K 1A 4H 1A 5K 1X 5K 1W 1A 2H 2A 5K 1X 5K 1W 4N 1A 5K 1X 5K 1A 3W 1V 1A 5K 1X 5K 1A 3V 2A 5K 1X 4K 1A 1K 3L 2K 1A 4K 1X 3K 1W 1Z 2W 5L 1A 3K 1X 3K 1W 1Z 2W 5L 1V 3K 1X 3K 1V 1E 1W 1L 2Y 3L 1V 3K 1X 3K 1A 1K 1Z 5L 1K 1A 3K 1X 3K 2A 1K 1Z 4L 2A 3K 1X 4K 2A 1V 2L 1K 2A 4K 1X 6K 1A 2V 1A 6K 1X 16K": 42,
      "16K 1X 6K 1N 2H 1N 6K 1X 5K 1A 4H 1A 5K 1X 5K 1W 1A 2H 2A 5K 1X 5K 1W 4N 1A 5K 1X 5K 1A 3W 1V 1A 5K 1X 5K 1A 3V 2A 5K 1X 4K 1A 1K 3N 2K 1A 4K 1X 3K 1W 1V 2W 1O 2V 1O 1N 1A 3K 1X 3K 1W 1V 2W 3E 1N 1O 1V 3K 1X 3K 1V 1E 1W 1V 2Z 2V 1N 1V 3K 1X 3K 1A 1K 1Z 4E 1N 1K 1A 3K 1X 3K 2A 1K 1Z 2E 2N 2A 3K 1X 4K 2A 1V 2N 1K 2A 4K 1X 6K 1A 2V 1A 6K 1X 16K": 43,
      "16K 1X 6K 1N 2H 1N 6K 1X 5K 1A 4H 1A 5K 1X 5K 1W 1A 2H 2A 5K 1X 5K 1W 4N 1A 5K 1X 5K 1A 3W 1V 1A 5K 1X 5K 1A 3V 2A 5K 1X 4K 1A 1K 3N 2K 1A 4K 1X 3K 1W 1Z 2W 1N 2V 2N 1A 3K 1X 3K 1W 1Z 2W 3R 2N 1V 3K 1X 3K 1V 1R 1W 1V 2H 2V 1N 1V 3K 1X 3K 1A 1K 1Z 4R 1N 1K 1A 3K 1X 3K 2A 1K 1Z 2R 2N 2A 3K 1X 4K 2A 1V 2N 1K 2A 4K 1X 6K 1A 2V 1A 6K 1X 16K": 44,
      "16K 1X 6K 1N 2H 1N 6K 1X 5K 1A 4H 1A 5K 1X 5K 1W 1A 2H 2A 5K 1X 5K 1W 4N 1A 5K 1X 5K 1A 3W 1V 1A 5K 1X 5K 1A 3V 2A 5K 1X 4K 1A 1N 3E 2N 1A 4K 1X 3K 1W 1Z 2W 1D 2Y 1D 1E 1A 3K 1X 3K 1W 1Z 2W 3O 1E 1D 1V 3K 1X 3K 1V 1E 1W 1Y 2Z 2Y 1E 1V 3K 1X 3K 1A 1N 1Z 4O 1E 1N 1A 3K 1X 3K 2A 1N 1Z 2O 2E 2A 3K 1X 4K 2A 1V 2E 1N 2A 4K 1X 6K 1A 2V 1A 6K 1X 16K": 45,
      "16K 1X 6K 1N 2H 1N 6K 1X 5K 1A 4H 1A 5K 1X 5K 1W 1A 2H 2A 5K 1X 5K 1W 4N 1A 5K 1X 5K 1A 3W 1V 1A 5K 1X 5K 1A 3V 2A 5K 1X 4K 1A 1U 3B 2U 1A 4K 1X 3K 4W 4S 1B 1A 3K 1X 3K 4W 4B 1S 1V 3K 1X 3K 1V 1B 1W 1S 2W 2S 1B 1V 3K 1X 3K 1A 1U 1W 5B 1U 1A 3K 1X 3K 2A 1U 1W 4B 2A 3K 1X 4K 2A 1V 2B 1U 2A 4K 1X 6K 1A 2V 1A 6K 1X 16K": 46,
      "16K 1X 6K 1N 2H 1N 6K 1X 5K 1A 4H 1A 5K 1X 5K 1W 1A 2H 2A 5K 1X 5K 1W 4N 1A 5K 1X 5K 1A 3W 1V 1A 5K 1X 5K 1A 3V 2A 5K 1X 4K 1A 1U 3P 2U 1A 4K 1X 3K 4W 1J 2H 1J 1P 1A 3K 1X 3K 4W 4P 1J 1V 3K 1X 3K 1V 1P 1W 4H 1J 1P 1V 3K 1X 3K 1A 1U 1W 5P 1U 1A 3K 1X 3K 2A 1U 1W 4P 2A 3K 1X 4K 2A 1V 2P 1U 2A 4K 1X 6K 1A 2V 1A 6K 1X 16K": 47,
      "16K 1X 6K 1N 2H 1N 6K 1X 5K 1A 4H 1A 5K 1X 5K 1W 1A 2H 2A 5K 1X 5K 1W 4N 1A 5K 1X 5K 1A 3W 1V 1A 5K 1X 5K 1A 3V 2A 5K 1X 4K 1A 6K 1A 4K 1X 3K 1W 1V 2W 4A 1K 1A 3K 1X 3K 1W 1V 2W 3N 1K 1A 1V 3K 1X 3K 1V 1K 1W 1A 2V 2A 1K 1V 3K 1X 3K 1A 1K 1V 4N 2K 1A 3K 1X 3K 2A 1K 1V 2N 2K 2A 3K 1X 4K 2A 1V 3K 2A 4K 1X 6K 1A 2V 1A 6K 1X 16K": 48,
      "16K 1X 6K 1N 2H 1N 6K 1X 5K 1A 4H 1A 5K 1X 5K 1W 1A 2H 2A 5K 1X 5K 1W 4N 1A 5K 1X 5K 1A 3W 1V 1A 5K 1X 5K 1A 3V 2A 5K 1X 4K 1A 6N 1A 4K 1X 3K 1W 1Z 2W 1O 2D 1O 1N 1A 3K 1X 3K 1W 1Z 2W 3O 1N 1O 1V 3K 1X 3K 1V 1O 1W 1D 2Z 1D 1O 1N 1V 3K 1X 3K 1A 1N 1Z 4O 2N 1A 3K 1X 3K 2A 1N 1Z 2O 2N 2A 3K 1X 4K 2A 1V 3N 2A 4K 1X 6K 1A 2V 1A 6K 1X 16K": 49,
      "16K 1X 6K 1N 2H 1N 6K 1X 5K 1A 4H 1A 5K 1X 5K 1W 1A 2H 2A 5K 1X 5K 1W 4N 1A 5K 1X 5K 1A 3W 1V 1A 5K 1X 5K 1A 3V 2A 5K 1X 4K 1A 6U 1A 4K 1X 3K 1W 1M 2W 4L 1U 1A 3K 1X 3K 1W 1M 2W 3L 1U 1L 1V 3K 1X 3K 1V 1L 1W 1L 2M 2L 1U 1V 3K 1X 3K 1A 1U 1M 4L 2U 1A 3K 1X 3K 2A 1U 1M 2L 2U 2A 3K 1X 4K 2A 1V 3U 2A 4K 1X 6K 1A 2V 1A 6K 1X 16K": 50,
      "16K 1X 6K 1N 2H 1N 6K 1X 5K 1A 4H 1A 5K 1X 5K 1W 1A 2H 2A 5K 1X 5K 1W 4N 1A 5K 1X 5K 1A 3W 1V 1A 5K 1X 5K 1A 3V 2A 5K 1X 4K 1A 6U 1A 4K 1X 3K 1W 1M 2W 4S 1U 1A 3K 1X 3K 1W 1M 2W 3L 1U 1S 1V 3K 1X 3K 1V 1U 1W 1S 2M 2S 1U 1V 3K 1X 3K 1A 1U 1M 4L 2U 1A 3K 1X 3K 2A 1U 1M 2L 2U 2A 3K 1X 4K 2A 1V 3U 2A 4K 1X 6K 1A 2V 1A 6K 1X 16K": 51,
      "16K 1X 6K 1N 2H 1N 6K 1X 5K 1A 4H 1A 5K 1X 5K 1W 1A 2H 2A 5K 1X 5K 1W 4N 1A 5K 1X 5K 1A 3W 1V 1A 5K 1X 5K 1A 3V 2A 5K 1X 4K 1A 6U 1A 4K 1X 3K 1W 1M 2W 4S 1U 1A 3K 1X 3K 1W 1M 2W 3S 1U 1S 1V 3K 1X 3K 1V 1S 1W 1S 2M 2S 1U 1V 3K 1X 3K 1A 1U 1M 4S 2U 1A 3K 1X 3K 2A 1U 1M 2S 2U 2A 3K 1X 4K 2A 1V 3U 2A 4K 1X 6K 1A 2V 1A 6K 1X 16K": 52,
      "16K 1X 6K 1N 2H 1N 6K 1X 5K 1A 4H 1A 5K 1X 5K 1W 1N 2H 1N 1A 5K 1X 5K 1W 4N 1A 5K 1X 5K 1A 3W 1V 1A 5K 1X 3K 1A 1W 1K 3V 1A 1K 1V 1A 3K 1X 3K 2W 1Z 1K 4L 2V 3K 1X 3K 3W 1Z 5L 1V 3K 1X 3K 1V 1Z 1W 1Z 5L 1V 3K 1X 3K 1A 1L 1W 1L 2Y 3L 1A 3K 1X 3K 1A 1K 1V 6L 1A 3K 1X 3K 1A 1K 1V 5L 1K 1A 3K 1X 3K 1A 1K 1V 4L 2K 1A 3K 1X 3K 1A 1V 4W 3V 1A 3K 1X 16K": 53,
      "16K 1X 6K 1N 2H 1N 6K 1X 5K 1A 4H 1A 5K 1X 5K 1W 1N 2H 1N 1A 5K 1X 5K 1W 4N 1A 5K 1X 5K 1A 3W 1V 1A 5K 1X 3K 1A 1W 1N 3V 1A 1N 1V 1A 3K 1X 3K 2W 1Z 5N 2V 3K 1X 3K 3W 1Z 1D 4O 1V 3K 1X 3K 1V 1Z 1W 1Z 5O 1V 3K 1X 3K 1A 1N 1W 1D 2Z 1D 2O 1A 3K 1X 3K 1A 1N 1V 5O 1N 1A 3K 1X 3K 1A 1N 1V 4O 2N 1A 3K 1X 3K 1A 1N 1V 6N 1A 3K 1X 3K 1A 1V 4W 3V 1A 3K 1X 16K": 54,
      "16K 1X 6K 1N 2H 1N 6K 1X 5K 1A 4H 1A 5K 1X 5K 1W 1N 2H 1N 1A 5K 1X 5K 1W 4N 1A 5K 1X 5K 1A 3W 1V 1A 5K 1X 3K 1A 1W 1U 3V 1A 1U 1V 1A 3K 1X 3K 2W 1M 5U 2V 3K 1X 3K 3W 1M 4S 1U 1V 3K 1X 3K 1V 1M 1W 1M 4L 1S 1V 3K 1X 3K 1A 1U 1W 1S 2M 3S 1A 3K 1X 3K 1A 1U 1V 5L 1U 1A 3K 1X 3K 1A 1U 1V 4L 2U 1A 3K 1X 3K 1A 1U 1V 6U 1A 3K 1X 3K 1A 1V 4W 3V 1A 3K 1X 16K": 55,
      "16K 1X 6K 1N 2H 1N 6K 1X 5K 1A 4H 1A 5K 1X 5K 1W 1N 2H 1N 1A 5K 1X 5K 1W 4N 1A 5K 1X 5K 1A 3W 1V 1A 5K 1X 4K 1W 1K 3V 1A 1K 1A 4K 1X 3K 1W 1A 1W 1N 3A 1N 1K 1V 3K 1X 2K 1W 1N 3W 5A 1K 1V 2K 1X 2K 1V 1N 2W 6A 1N 1A 2K 1X 2K 1V 1N 1W 1A 3Z 2V 1A 1N 1A 2K 1X 2K 1A 1K 1Z 7A 1K 1A 2K 1X 3K 1A 1V 6A 1N 1A 3K 1X 4K 1A 1K 1N 2A 1N 1K 1A 4K 1X 5K 1A 2W 2V 1A 5K 1X 16K": 56,
      "16K 1X 6K 1N 2H 1N 6K 1X 5K 1A 4H 1A 5K 1X 5K 1W 1N 2H 1N 1A 5K 1X 5K 1W 4N 1A 5K 1X 5K 1A 3W 1V 1A 5K 1X 4K 1W 1K 3V 1A 1K 1A 4K 1X 3K 1W 1K 1W 6K 1V 3K 1X 2K 1W 1K 3W 1V 3A 2K 1V 2K 1X 2K 1V 1K 2W 1V 4N 1A 1K 1A 2K 1X 2K 1V 1K 1W 4V 3A 1K 1A 2K 1X 2K 1A 1K 1Z 6N 2K 1A 2K 1X 3K 1A 1V 1K 4N 2K 1A 3K 1X 4K 1A 6K 1A 4K 1X 5K 1A 2W 2V 1A 5K 1X 16K": 57,
      "16K 1X 6K 1N 2H 1N 6K 1X 5K 1A 4H 1A 5K 1X 5K 1W 1N 2H 1N 1A 5K 1X 5K 1W 4N 1A 5K 1X 5K 1A 3W 1V 1A 5K 1X 4K 1W 1K 3V 1A 1K 1A 4K 1X 3K 2W 1Z 1K 3L 2K 1V 3K 1X 2K 4W 1Z 4L 2K 1V 2K 1X 2K 1V 1Z 1W 1Z 7L 1A 2K 1X 2K 1V 1L 1W 2L 2Y 4L 1A 2K 1X 2K 1A 1K 1V 7L 1K 1A 2K 1X 3K 1A 1V 6L 1K 1A 3K 1X 4K 1A 1K 4L 1K 1A 4K 1X 5K 1A 2W 2V 1A 5K 1X 16K": 58,
      "16K 1X 6K 1N 2H 1N 6K 1X 5K 1A 4H 1A 5K 1X 5K 1W 1N 2H 1N 1A 5K 1X 5K 1W 4N 1A 5K 1X 5K 1A 3W 1V 1A 5K 1X 4K 1W 1K 3V 1A 1K 1A 4K 1X 3K 2W 1Z 5N 1K 1V 3K 1X 2K 4W 1Z 1V 3O 1N 1K 1V 2K 1X 2K 1V 1Z 1W 1Z 1O 4E 1O 1N 1A 2K 1X 2K 1V 1N 1W 1O 1Z 2W 1Z 1V 1O 1N 1A 2K 1X 2K 1A 1K 1V 6E 1N 1K 1A 2K 1X 3K 1A 1V 1N 4E 2N 1A 3K 1X 4K 1A 1K 4N 1K 1A 4K 1X 5K 1A 2W 2V 1A 5K 1X 16K": 59,
      "16K 1X 6K 1N 2H 1N 6K 1X 5K 1A 4H 1A 5K 1X 5K 1W 1N 2H 1N 1A 5K 1X 5K 1W 4N 1A 5K 1X 5K 1A 3W 1V 1A 5K 1X 4K 1W 1K 3V 1A 1K 1A 4K 1X 3K 2W 1Z 5N 1K 1V 3K 1X 2K 4W 1Z 1V 4N 1K 1V 2K 1X 2K 1V 1Z 1W 1Z 1N 4R 2N 1A 2K 1X 2K 1V 1N 1W 1N 1H 2W 1H 1V 2N 1A 2K 1X 2K 1A 1K 1V 6R 1N 1K 1A 2K 1X 3K 1A 1V 1N 4R 2N 1A 3K 1X 4K 1A 1K 4N 1K 1A 4K 1X 5K 1A 2W 2V 1A 5K 1X 16K": 60,
      "16K 1X 6K 1N 2H 1N 6K 1X 5K 1A 4H 1A 5K 1X 5K 1W 1N 2H 1N 1A 5K 1X 5K 1W 4N 1A 5K 1X 5K 1A 3W 1V 1A 5K 1X 4K 1W 1N 3V 1A 1N 1A 4K 1X 3K 2W 1Z 1N 3E 2N 1V 3K 1X 2K 4W 1Z 1Y 3D 2N 1V 2K 1X 2K 1V 1Z 1W 1Z 5O 1D 1E 1A 2K 1X 2K 1V 1E 1W 1D 1Y 2Z 1Y 2D 1E 1A 2K 1X 2K 1A 1N 1V 6O 1E 1N 1A 2K 1X 3K 1A 1V 1E 4O 1E 1N 1A 3K 1X 4K 1A 1N 4E 1N 1A 4K 1X 5K 1A 2W 2V 1A 5K 1X 16K": 61,
      "16K 1X 6K 1N 2H 1N 6K 1X 5K 1A 4H 1A 5K 1X 5K 1W 1N 2H 1N 1A 5K 1X 5K 1W 4N 1A 5K 1X 5K 1A 3W 1V 1A 5K 1X 4K 1W 1N 3V 1A 1N 1A 4K 1X 3K 2W 1Z 6N 1V 3K 1X 2K 4W 1Z 1D 3O 2N 1V 2K 1X 2K 1V 1Z 1W 1Z 6O 1N 1A 2K 1X 2K 1V 1N 1W 1O 1D 2Z 1D 2O 1N 1A 2K 1X 2K 1A 1N 1V 6O 2N 1A 2K 1X 3K 1A 1V 1N 4O 2N 1A 3K 1X 4K 1A 6N 1A 4K 1X 5K 1A 2W 2V 1A 5K 1X 16K": 62,
      "16K 1X 6K 1N 2H 1N 6K 1X 5K 1A 4H 1A 5K 1X 5K 1W 1N 2H 1N 1A 5K 1X 5K 1W 4N 1A 5K 1X 5K 1A 3W 1V 1A 5K 1X 4K 1W 1U 3V 1A 1U 1A 4K 1X 3K 2W 1M 1U 3B 2U 1V 3K 1X 2K 4W 1M 4S 1B 1U 1V 2K 1X 2K 1V 1M 1W 1M 6S 1B 1A 2K 1X 2K 1V 1U 1W 1S 1M 2W 1M 2S 1B 1A 2K 1X 2K 1A 1U 1V 6S 1B 1U 1A 2K 1X 3K 1A 1V 1B 4S 1B 1U 1A 3K 1X 4K 1A 6U 1A 4K 1X 5K 1A 2W 2V 1A 5K 1X 16K": 63,
      "16K 1X 6K 1N 2H 1N 6K 1X 5K 1A 4H 1A 5K 1X 5K 1W 1N 2H 1N 1A 5K 1X 5K 1W 4N 1A 5K 1X 5K 1A 3W 1V 1A 5K 1X 4K 1W 1U 3V 1A 1U 1A 4K 1X 3K 2W 1M 6U 1V 3K 1X 2K 4W 1M 4L 2U 1V 2K 1X 2K 1V 1M 1W 1M 6L 1U 1A 2K 1X 2K 1V 1U 1W 2L 2M 3L 1U 1A 2K 1X 2K 1A 1U 1V 6L 2U 1A 2K 1X 3K 1A 1V 1U 4L 2U 1A 3K 1X 4K 1A 6U 1A 4K 1X 5K 1A 2W 2V 1A 5K 1X 16K": 64,
      "16K 1X 6K 1N 2H 1N 6K 1X 5K 1A 4H 1A 5K 1X 5K 1W 1N 2H 1N 1A 5K 1X 5K 1W 4N 1A 5K 1X 5K 1A 3W 1V 1A 5K 1X 4K 1W 1U 3V 1A 1U 1A 4K 1X 3K 2W 1M 6U 1V 3K 1X 2K 4W 1M 4S 2U 1V 2K 1X 2K 1V 1M 1W 1M 5L 1S 1U 1A 2K 1X 2K 1V 1U 1W 2S 2M 3S 1U 1A 2K 1X 2K 1A 1U 1V 6L 2U 1A 2K 1X 3K 1A 1V 1U 4L 2U 1A 3K 1X 4K 1A 6U 1A 4K 1X 5K 1A 2W 2V 1A 5K 1X 16K": 65,
      "16K 1X 6K 1N 2H 1N 6K 1X 5K 1A 4H 1A 5K 1X 5K 1W 1N 2H 1N 1A 5K 1X 5K 1W 4N 1A 5K 1X 5K 1A 3W 1V 1A 5K 1X 4K 1W 1U 3V 1A 1U 1A 4K 1X 3K 3W 1U 3B 2U 1V 3K 1X 2K 5W 4S 1B 1U 1V 2K 1X 2K 1V 3W 1S 4B 1S 1U 1A 2K 1X 2K 1V 1U 1W 2S 2W 3S 1U 1A 2K 1X 2K 1A 1U 1M 7B 1U 1A 2K 1X 3K 1A 1M 6B 1U 1A 3K 1X 4K 1A 1U 3B 2U 1A 4K 1X 5K 1A 2W 2V 1A 5K 1X 16K": 66,
      "16K 1X 6K 1N 2H 1N 6K 1X 5K 1A 4H 1A 5K 1X 5K 1W 1N 2H 1N 1A 5K 1X 5K 1W 4N 1A 5K 1X 5K 4W 1V 1A 5K 1X 3K 1A 1W 1K 3V 1A 1K 1V 1A 3K 1X 3K 2W 1V 1K 3A 1N 2V 3K 1X 3K 3W 1V 5A 1V 3K 1X 3K 2V 1W 6A 1V 3K 1X 3K 1A 1N 1W 1V 2Z 2V 2A 3K 1X 3K 1A 1N 1V 5A 1N 1A 3K 1X 3K 1A 1K 1V 5A 1K 1A 3K 1X 3K 1A 1K 1V 1N 3A 1N 1K 1A 3K 1X 3K 1A 1V 4W 3V 1A 3K 1X 16K": 67,
      "16K 1X 6K 1N 2H 1N 6K 1X 5K 1A 4H 1A 5K 1X 5K 1W 1N 2H 1N 1A 5K 1X 5K 1W 4N 1A 5K 1X 5K 4W 1V 1A 5K 1X 3K 1A 1W 1K 3V 1A 1K 1V 1A 3K 1X 3K 2W 1V 5K 2V 3K 1X 3K 3W 1V 4A 1K 1V 3K 1X 3K 2V 1W 5N 1A 1V 3K 1X 3K 1A 1K 1W 1A 2V 2A 1N 1A 3K 1X 3K 1A 1K 1V 5N 1K 1A 3K 1X 3K 1A 1K 1V 4N 2K 1A 3K 1X 3K 1A 1K 1V 6K 1A 3K 1X 3K 1A 1V 4W 3V 1A 3K 1X 16K": 68,
      "16K 1X 6K 1N 2H 1N 6K 1X 5K 1A 4H 1A 5K 1X 5K 1W 1N 2H 1N 1A 5K 1X 5K 1W 4N 1A 5K 1X 5K 4W 1V 1A 5K 1X 3K 1A 1W 1K 3V 1A 1K 1V 1A 3K 1X 3K 2W 1Z 1K 4N 2V 3K 1X 3K 3W 1Z 1V 3N 1K 1V 3K 1X 3K 1V 1Z 1W 1N 4R 1N 1V 3K 1X 3K 1A 1N 1W 1H 2W 1H 1V 1N 1A 3K 1X 3K 1A 1K 1V 5R 1N 1A 3K 1X 3K 1A 1K 1V 4R 1N 1K 1A 3K 1X 3K 1A 1K 1V 5N 1K 1A 3K 1X 3K 1A 1V 4W 3V 1A 3K 1X 16K": 69,
      "16K 1X 6K 1N 2H 1N 6K 1X 5K 1A 4H 1A 5K 1X 5K 1W 1N 2H 1N 1A 5K 1X 5K 1W 4N 1A 5K 1X 5K 4W 1V 1A 5K 1X 3K 1A 1W 1K 3V 1A 1K 1V 1A 3K 1X 3K 2W 1Z 1K 4N 2V 3K 1X 3K 3W 1Z 1V 3O 1K 1V 3K 1X 3K 1V 1Z 1W 1O 4E 1O 1V 3K 1X 3K 1A 1N 1W 1Z 2W 1Z 1V 1O 1A 3K 1X 3K 1A 1K 1V 5E 1N 1A 3K 1X 3K 1A 1K 1V 4E 1N 1K 1A 3K 1X 3K 1A 1K 1V 5N 1K 1A 3K 1X 3K 1A 1V 4W 3V 1A 3K 1X 16K": 70,
      "16K 1X 6K 1N 2H 1N 6K 1X 5K 1A 4H 1A 5K 1X 5K 1W 1N 2H 1N 1A 5K 1X 5K 1W 4N 1A 5K 1X 5K 4W 1V 1A 5K 1X 3K 1A 1W 1N 3V 1A 1N 1V 1A 3K 1X 3K 2W 1Z 1N 4E 2V 3K 1X 3K 3W 1Z 1Y 3D 1N 1V 3K 1X 3K 1V 1Z 1W 1Z 4O 1D 1V 3K 1X 3K 1A 1E 1W 1Y 2Z 1Y 2D 1A 3K 1X 3K 1A 1N 1V 5O 1E 1A 3K 1X 3K 1A 1N 1V 4O 1E 1N 1A 3K 1X 3K 1A 1N 1V 4E 2N 1A 3K 1X 3K 1A 1V 4W 3V 1A 3K 1X 16K": 71,
      "16K 1X 6K 1N 2H 1N 6K 1X 5K 1A 4H 1A 5K 1X 5K 1W 1N 2H 1N 1A 5K 1X 5K 1W 4N 1A 5K 1X 5K 4W 1V 1A 5K 1X 3K 1A 1W 1U 3V 1A 1U 1V 1A 3K 1X 3K 2W 1M 5U 2V 3K 1X 3K 3W 1M 4L 1U 1V 3K 1X 3K 1V 1M 1W 1M 5L 1V 3K 1X 3K 1A 1U 1W 1L 2M 3L 1A 3K 1X 3K 1A 1U 1V 5L 1U 1A 3K 1X 3K 1A 1U 1V 4L 2U 1A 3K 1X 3K 1A 1U 1V 6U 1A 3K 1X 3K 1A 1V 4W 3V 1A 3K 1X 16K": 72,
      "16K 1X 6K 1N 2H 1N 6K 1X 5K 1A 4H 1A 5K 1X 5K 1W 1N 2H 1N 1A 5K 1X 5K 1W 4N 1A 5K 1X 5K 4W 1V 1A 5K 1X 3K 1A 1W 1U 3V 1A 1U 1V 1A 3K 1X 3K 2W 1M 5U 2V 3K 1X 3K 3W 1M 4S 1U 1V 3K 1X 3K 1V 1M 1W 1M 5S 1V 3K 1X 3K 1A 1U 1W 1M 2W 1M 2S 1A 3K 1X 3K 1A 1U 1V 5S 1U 1A 3K 1X 3K 1A 1U 1V 4S 2U 1A 3K 1X 3K 1A 1U 1V 6U 1A 3K 1X 3K 1A 1V 4W 3V 1A 3K 1X 16K": 73,
      "16K 1X 6K 1N 2H 1N 6K 1X 5K 1A 4H 1A 5K 1X 5K 1W 1N 2H 1N 1A 5K 1X 5K 1W 4N 1A 5K 1X 5K 4W 1V 1A 5K 1X 3K 1A 1W 1U 3V 1A 1U 1V 1A 3K 1X 3K 3W 1U 4B 2V 3K 1X 3K 4W 4S 1U 1V 3K 1X 3K 1V 2W 1S 4B 1S 1V 3K 1X 3K 1A 1B 1W 1S 2W 3S 1A 3K 1X 3K 1A 1U 1V 6B 1A 3K 1X 3K 1A 1U 1V 5B 1U 1A 3K 1X 3K 1A 1U 1V 1B 5U 1A 3K 1X 3K 1A 1V 4W 3V 1A 3K 1X 16K": 74,
      "16K 1X 6K 1N 2H 1N 6K 1X 5K 1A 4H 1A 5K 1X 5K 1Z 1A 2H 2A 5K 1X 5K 1W 4N 1A 5K 1X 5K 1A 1Z 2W 1V 1A 5K 1X 4K 1A 1K 3V 1A 1K 1A 4K 1X 3K 1W 1N 2Z 4N 1K 1A 3K 1X 3K 1W 1Z 2W 1V 4N 1A 3K 1X 3K 1V 1Z 2W 4R 1N 1A 3K 1X 3K 1V 1N 1W 1V 2H 1V 2N 1A 3K 1X 3K 1A 1N 1V 5R 1N 1A 3K 1X 3K 1A 1N 1V 1N 3R 2N 1A 3K 1X 4K 2A 4N 1K 1A 4K 1X 5K 1A 2W 2V 1A 5K 1X 16K": 75,
      "16K 1X 7K 1L 8K 1X 6K 1E 1L 8K 1X 4K 1E 1L 1K 1E 2K 1L 5K 1X 5K 1E 1L 1K 1L 1E 6K 1X 16K 1X 4N 1K 1H 1O 1H 1O 1H 6K 1X 4N 5H 1O 1H 5K 1X 3N 5H 1O 1H 2O 4K 1X 3N 1O 3H 1O 1H 1O 1H 1O 4K 1X 3N 1H 1O 1H 1O 1H 1O 1H 1O 1D 4K 1X 3N 1O 1H 1O 1H 1O 1H 1O 1D 1O 4K 1X 3N 1H 1O 1H 1O 1H 1O 1D 2O 4K 1X 3N 1K 1H 3O 1D 2O 5K 1X 3N 2K 5O 6K 1X 3N 13K": 76,
      "1A 4U 11K 1X 2A 3U 11K 1X 3A 13K 1X [ Re2 ] [ 16K 1X ] 7K 1V 1H 7K 1X 6K 1H 1V 1H 1V 6K 1X 4K 2Z 2H 1Z 1H 2Z 4K 1X 3K 2Z 1V 2H 2Z 1V 2Z 3K 1X 3K 1H 1V 1H 2Z 1V 2Z 1V 1H 3K 1X 3K 1H 1V 1H 2Z 1V 2H 1V 1H 3K 1X 5K 2H 1V 3H 5K 1X [ Re4 ] [ 16K ]": 77,
      "1E 3U 12K 1X 6U 3K 1U 6K 1X [ Re2 ] [ 10U 6K 1X ] 10U 2K 2A 2K 1X 9U 1P 3A 1U 2K 1X 7U 1P 2A 2P 1U 3K 1X 2U 1P 4A 1V 2A 2P 4K 1X 1U 1P 2A 3V 2A 3P 4K 1X 1U 1P 6A 3P 5K 1X 1U 2P 4A 3P 6K 1X 1U 8P 7K 1X 2U 5P 9K 1X [ Re3 ] [ 5U 11K ]": 78,
      "1K 7N 1K 1N 6K 1X 1K 6N 9K 1X 3N 13K 1X 3N 7K 1L 2A 3K 1X 3N 6K 3E 4K 1X [ Re3 ] [ 3N 13K 1X ] 3N 1K 1N 3K 1N 7K 1X 2N 1H 3N 2K 1N 7K 1X 2N 1H 3N 1K 3N 1K 1N 4K 1X 1K 5N 1K 2N 1H 3N 3K 1X 2K 3N 2K 2N 1H 3N 3K 1X 8K 5N 3K 1X 9K 3N 4K 1X 5K 2A 9K": 79,
      "2E 7N 3L 4A 1X 3E 6N 3L 4A 1X 3E 6N 2L 1A 1K 3A 1X 3E 6N 1L 1A 1K 2A 2K 1X 3E 6N 1L 1K 2A 3K 1X 3E 7N 6K 1X 2E 5N 2O 3N 4K 1X 1E 5N 1O 8N 1K 1X 1E 4N 1O 9N 1K 1X 15N 1K 1X [ Re6 ] [ 14N 2K ]": 80,
      "3N 13K 1X [ Re2 ] [ 8N 8K 1X ] 8N 1K 1V 1A 5K 1X 5N 2Z 1H 1K 1A 1K 2N 3K 1X 4N 4H 1N 1K 2H 1N 3K 1X 3N 4H 2N 3H 1N 3K 1X 3N 1H 3N 5H 1N 3K 1X 3N 1H 3N 4H 2N 3K 1X [ Re2 ] [ 3K 4N 1H 5N 3K 1X ] 4K 4N 1H 3N 4K 1X 5K 5N 6K 1X [ Re3 ] [ 16K ]": 81,
      "4U 10K 2N 1X 4U 2K 6N 1K 3N 1X [ Re2 ] [ 16N 1X ] 7N 1H 8N 1X [ Re2 ] [ 16N 1X ] 5N 1H 10N 1X 6N 2H 8N 1X [ Re6 ] [ 16N 1X ] 12N 4U": 82,
      "5E 6L 3E 2A 1X 5E 6L 3E 1A 1K 1X 5E 1L 4E 4L 2K 1X 3E 1O 1D 1L 2D 2E 4L 2K 1X 2E 3D 2L 2D 1E 4L 2K 1X 2E 1D 1Z 3L 2D 1E 4L 2K 1X 2E 1O 1Z 3D 2E 1L 5E 1K 1X 2E 1O 1D 2Z 1E 1O 1D 1L 2D 3E 1K 1X 3E 2D 1E 3D 2L 2D 3E 1X 3E 2O 1E 1D 1Z 3L 2D 3E 1X 6E 1O 1Z 4D 1O 3E 1X 1N 5E 1O 1D 2Z 2D 1O 3E 1X 1N 6E 2D 1O 2D 4E 1X 1N 6E 2O 1E 2O 4E 1X [ Re2 ] [ 1N 15E ]": 83,
      "5L 4A 3K 4L 1X [ Re2 ] [ 5L 4A 7L 1X ] 3L 1A 1L 4Z 1L 2A 1M 3L 1X 2L 1M 1L 1V 4Z 1V 4L 2A 1X 1L 1M 1A 1L 1Z 2V 5Z 1V 1Z 2A 1X 3L 10Z 1V 1Z 1A 1X 1A 2Z 1V 9Z 1V 1Z 1A 1X 1A 3V 6Z 1V 3Z 2A 1X 1A 3Z 1V 4Z 4V 2A 1U 1X 1A 1E 1Z 1V 1Z 2V 2L 5Z 1A 1U 1X 2E 1A 3Z 1L 1M 1A 1L 1Z 1A 2Z 2A 1X 2E 4Z 1L 1A 1M 1A 1L 3Z 2A 1X 4E 2Z 5L 2Z 1E 2A 1X [ Re2 ] [ 7E 4L 3E 2A ]": 84,
      "5N 11K 1X 6N 3K 1V 6K 1X 6N 3K 1A 1V 5K 1X [ Re2 ] [ 6N 3K 2A 5K 1X ] 4N 5O 7K 1X 3N 2O 2D 3O 6K 1X 2N 1O 4D 4O 1K 1A 1V 2K 1X 2N 2O 1D 1O 2D 3O 2K 2A 1K 1X 2N 1O 4D 4O 3K 1A 1K 1X 2N 9O 5K 1X 2N 2O 1D 6O 5K 1X 2N 1K 7O 6K 1X 2N 2K 5O 7K 1X [ Re2 ] [ 2N 14K ]": 85,
      "5N 4L 7N 1X 5N 5L 5N 1E 1X 5N 1L 4N 3L 1N 2E 1X 5N 1L 4N 4L 2E 1X 5N 2L 3N 4L 2E 1X 3N 1H 3L 3N 4L 2E 1X 3N 1H 5N 1L 5N 1E 1X 4N 2H 3N 1L 5N 1E 1X 9N 2L 5N 1X 7N 1H 3L 5N 1X 7N 1H 8N 1X 8N 2H 6N 1X [ Re3 ] [ 16N 1X ] 6E 10N": 86,
      "5W 1S 10W 1X [ Re2 ] [ 4W 2S 10W 1X ] 3W 1S 1W 1S 2W 6N 2W 1X 2W 1S 2W 1S 7W 1N 2W 1X [ Re2 ] [ 5W 1S 4W 1A 2W 1N 2W 1X ] 4W 1S 5W 1A 1W 2N 2W 1X 4W 4S 2W 1A 1W 1N 3W 1X 4W 1S 4W 2A 1W 1N 3W 1X 3W 6A 3W 1N 3W 1X 3W 1A 7W 1N 4W 1X 3W 1A 5W 3N 4W 1X 3W 1A 2W 3N 2W 2N 3W 1X 7W 5N 4W 1X 16W": 87,
      "6K 2L 8K 1X 5K 4L 7K 1X 5K 1L 4K 6L 1X 3K 5L 2K 6L 1X 2K 7L 1K 6L 1X 2K 1L 1M 5L 1K 6L 1X 2K 1L 1M 3L 2K 1L 6K 1X 2K 2L 2M 1K 5L 4K 1X 3K 2L 1K 7L 3K 1X 3K 2L 1K 1L 1M 5L 3K 1X 6K 1L 1M 5L 3K 1X 1E 5K 2L 2M 3L 3K 1X 1E 6K 5L 4K 1X 1E 6K 2L 1K 2L 4K 1X [ Re2 ] [ 1E 15K ]": 88,
      "6U 10K 1X 6U 9K 1N 1X 6U 4K 3U 2K 1N 1X 3U 1A 1U 1A 3K 4U 2K 1N 1X 2U 1A 1U 1K 2U 2K 4U 2K 1N 1X 2U 2A 1U 1A 1U 2K 4U 2K 1N 1X 3U 2A 2U 1K 2U 1A 1U 1A 3K 1X 2U 1K 3U 2K 1U 1A 1U 1K 2U 2K 1X 2U 4K 3U 2A 1U 1A 1U 2K 1X 2U 2K 6U 2A 2U 2K 1X 5U 1A 1U 1A 2K 3U 3K 1X 4U 1A 1U 1K 2U 7K 1X 4U 2A 1U 1A 1U 6K 1N 1X 5U 2A 2U 6K 1N 1X 4U 1K 3U 7K 1N 1X 4U 11K 1N": 89,
      "7N 9E 1X [ Re3 ] [ 16N 1X ] 6N 1A 9N 1X 6N 2A 1O 2A 5N 1X 7N 2A 7N 1X 5N 1H 4A 1O 4N 1U 1X 9N 1A 1O 4N 1U 1X 6N 2H 7N 1U 1X 15N 1U 1X [ Re3 ] [ 1E 14N 1U 1X ] 1E 11N 3A 1U 1X 1E 9N 2L 4A": 90,
      "9E 7N 1X [ Re2 ] [ 16E 1X ] 4E 5H 7E 1X 3E 4H 2Z 2H 5E 1X 2E 6H 2Z 2H 4E 1X 2E 1H 1E 2H 5E 1H 3E 1N 1X 2E 1H 1N 1H 1E 5H 5E 1X 1K 2E 1H 1E 4H 2Z 2H 3E 1X 1K 3E 6H 2Z 2H 2E 1X 1K 3E 1H 1E 2H 1A 5H 2E 1X 1K 3E 1H 1N 8H 2E 1X 1K 4E 3H 1E 4H 3E 1X 1K 6E 4H 5E 1X 1K 15E 1X 16E": 91,
      "[ Re2 ] [ 16A 1X ] [ Re12 ] [ 2A 12W 2A 1X ] [ Re2 ] [ 16A ]": 92,
      "[ Re2 ] [ 16B 1X ] [ Re12 ] [ 2B 12W 2B 1X ] [ Re2 ] [ 16B ]": 93,
      "[ Re2 ] [ 16D 1X ] [ Re12 ] [ 2D 12W 2D 1X ] [ Re2 ] [ 16D ]": 94,
      "[ Re2 ] [ 16E 1X ] [ Re12 ] [ 2E 12W 2E 1X ] [ Re2 ] [ 16E ]": 95,
      "[ Re2 ] [ 16G 1X ] [ Re12 ] [ 2G 12W 2G 1X ] [ Re2 ] [ 16G ]": 96,
      "[ Re2 ] [ 16H 1X ] [ Re12 ] [ 2H 12W 2H 1X ] [ Re2 ] [ 16H ]": 97,
      "[ Re2 ] [ 16J 1X ] [ Re12 ] [ 2J 12W 2J 1X ] [ Re2 ] [ 16J ]": 98,
      "[ Re2 ] [ 16K 1X ] 15K 1N 1X 7K 1V 1L 6K 1N 1X 5K 1L 1K 1A 1K 1L 1A 4K 1N 1X 5K 1A 4K 1A 4K 1N 1X 6K 2A 1V 2K 5N 1X 1K 5N 3K 7N 1X 5N 1A 10N 1X 4K 1N 1O 2H 8N 1X 4K 1N 1A 1N 1E 4N 4K 1X 4K 8N 4K 1X 5K 6N 5K 1X [ Re3 ] [ 16K ]": 99,
      "[ Re2 ] [ 16K 1X ] 5K 1A 5E 5K 1X 3K 2A 2E 3A 3E 3K 1X 2K 1E 1A 2E 3A 5E 2K 1X 2K 1E 1V 1A 1E 2A 6E 2K 1X 1K 1E 1V 2A 1V 2A 1E 2A 4E 1K 1X 1K 1E 1V 2A 2V 4A 4E 1K 1X 1K 1E 1A 1E 1A 1E 1A 2V 1A 5E 1K 1X 1K 5E 3V 6E 1K 1X 1K 4E 2V 8E 1K 1X 2K 7E 2A 4E 1K 1X 2K 3E 5A 4E 2K 1X 3K 5E 2A 3E 3K 1X 5K 6E 5K 1X 16K": 100,
      "[ Re2 ] [ 16K 1X ] 5K 3N 8K 1X 4K 5N 7K 1X 3K 1N 2A 4N 6K 1X 2K 1N 1A 3N 9K 1X 2K 1A 2N 2K 3Z 1V 5K 1X 1K 3N 1K 2V 4A 2V 3K 1X 1K 2N 1K 1V 8A 1Z 2K 1X 1K 2N 1K 1Z 3V 5A 1V 2K 1X 1K 2N 1K 4V 5A 1V 2K 1X 2K 1N 2K 4V 3A 1V 3K 1X 5K 1N 2V 1Z 3V 4K 1X 5K 1N 6K 1N 3K 1X 6K 6N 4K 1X 3K 1U 12K": 101,
      "[ Re2 ] [ 16K 1X ] 6K 1N 2H 1N 6K 1X 5K 1A 4H 1A 5K 1X 5K 1W 1A 2H 2A 5K 1X 5K 1W 4N 1A 5K 1X 5K 1A 3W 1V 1A 5K 1X 3K 1A 1W 1K 3V 1A 1K 1V 1A 3K 1X 3K 2W 1Z 1K 4E 2V 3K 1X 3K 3W 1Z 5E 1V 3K 1X 3K 1V 1Z 1W 1D 2Y 1D 2E 1V 3K 1X 3K 1A 1E 1W 5E 1K 1A 3K 1X 3K 1A 1K 1V 4E 2K 1A 3K 1X 3K 1A 1V 4W 3V 1A 3K 1X [ Re2 ] [ 16K ]": 102,
      "[ Re2 ] [ 16K 1X ] 6K 1N 2H 1N 6K 1X 5K 1A 4H 1A 5K 1X 5K 1W 1A 2H 2A 5K 1X 5K 1W 4N 1A 5K 1X 5K 1A 3W 1V 1A 5K 1X 3K 1A 1W 1U 3V 1A 1U 1V 1A 3K 1X 3K 2W 1H 1U 4P 2V 3K 1X 3K 3W 1H 4P 1J 1V 3K 1X 3K 1V 1H 1W 4H 2J 1V 3K 1X 3K 1A 1P 1W 1U 4P 1U 1A 3K 1X 3K 1A 1U 1V 1U 3P 2U 1A 3K 1X 3K 1A 1V 4W 3V 1A 3K 1X [ Re2 ] [ 16K ]": 103,
      "[ Re2 ] [ 16K 1X ] 6K 1N 2H 1N 6K 1X 5K 1A 4H 1A 5K 1X 5K 1W 1N 2H 1N 1A 5K 1X 5K 1W 4N 1A 5K 1X 5K 1A 3W 1V 1A 5K 1X 3K 1A 1W 1K 3V 1A 1K 1V 1A 3K 1X 3K 2W 1Z 1K 4L 2V 3K 1X 3K 3W 1Z 5L 1V 3K 1X 3K 1V 1Z 1W 1L 2Y 3L 1V 3K 1X 3K 1A 1L 1W 5L 1K 1A 3K 1X 3K 1A 1K 1V 4L 2K 1A 3K 1X 3K 1A 1V 4W 3V 1A 3K 1X [ Re2 ] [ 16K ]": 104,
      "[ Re2 ] [ 16K 1X ] 6K 1N 2H 1N 6K 1X 5K 1A 4H 1A 5K 1X 5K 1W 1N 2H 1N 1A 5K 1X 5K 1W 4N 1A 5K 1X 5K 1A 3W 1V 1A 5K 1X 3K 1A 1W 1N 3V 1A 1N 1V 1A 3K 1X 3K 2W 1Z 5N 2V 3K 1X 3K 3W 1Z 5O 1V 3K 1X 3K 1V 1Z 1W 1D 2Z 1D 2O 1V 3K 1X 3K 1A 1N 1W 6N 1A 3K 1X 3K 1A 1N 1V 6N 1A 3K 1X 3K 1A 1V 4W 3V 1A 3K 1X [ Re2 ] [ 16K ]": 105,
      "[ Re2 ] [ 16K 1X ] 6K 1N 2H 1N 6K 1X 5K 1A 4H 1A 5K 1X 5K 1W 1N 2H 1N 1A 5K 1X 5K 1W 4N 1A 5K 1X 5K 1A 3W 1V 1A 5K 1X 3K 1A 1W 1U 3V 1A 1U 1V 1A 3K 1X 3K 2W 1M 5U 2V 3K 1X 3K 3W 1M 4L 1S 1V 3K 1X 3K 1V 1M 1W 1S 2M 3S 1V 3K 1X 3K 1A 1U 1W 6U 1A 3K 1X 3K 1A 1U 1V 6U 1A 3K 1X 3K 1A 1V 4W 3V 1A 3K 1X [ Re2 ] [ 16K ]": 106,
      "[ Re2 ] [ 16K 1X ] 6K 1N 2H 1N 6K 1X 5K 1A 4H 1A 5K 1X 5K 1W 1N 2H 1N 1A 5K 1X 5K 1W 4N 1A 5K 1X 5K 4W 1V 1A 5K 1X 3K 1A 1W 1K 3V 1A 1K 1V 1A 3K 1X 3K 2W 1V 5K 2V 3K 1X 3K 3W 1V 4A 1K 1V 3K 1X 3K 2V 1W 1A 2V 2A 1N 1V 3K 1X 3K 1A 1K 1W 1K 3N 2K 1A 3K 1X 3K 1A 1K 1V 1K 2N 3K 1A 3K 1X 3K 1A 1V 4W 3V 1A 3K 1X [ Re2 ] [ 16K ]": 107,
      "[ Re2 ] [ 16K 1X ] 6K 1N 2H 1N 6K 1X 5K 1A 4H 1A 5K 1X 5K 1W 1N 2H 1N 1A 5K 1X 5K 1W 4N 1A 5K 1X 5K 4W 1V 1A 5K 1X 3K 1A 1W 1K 3V 1A 1K 1V 1A 3K 1X 3K 2W 1Z 1K 4N 2V 3K 1X 3K 3W 1N 4R 1N 1V 3K 1X 3K 1V 1Z 1W 1H 2W 1H 1V 1N 1V 3K 1X 3K 1A 1N 1W 1N 3R 2N 1A 3K 1X 3K 1A 1K 1V 2N 2R 1N 1K 1A 3K 1X 3K 1A 1V 4W 3V 1A 3K 1X [ Re2 ] [ 16K ]": 108,
      "[ Re2 ] [ 16K 1X ] 6K 1N 2H 1N 6K 1X 5K 1A 4H 1A 5K 1X 5K 1W 1N 2H 1N 1A 5K 1X 5K 1W 4N 1A 5K 1X 5K 4W 1V 1A 5K 1X 3K 1A 1W 1K 3V 1A 1K 1V 1A 3K 1X 3K 2W 1Z 1K 4N 2V 3K 1X 3K 3W 1O 4E 1O 1V 3K 1X 3K 1V 1Z 1W 1Z 2W 1Z 1V 1O 1V 3K 1X 3K 1A 1N 1W 1N 3E 2N 1A 3K 1X 3K 1A 1K 1V 2N 2E 1N 1K 1A 3K 1X 3K 1A 1V 4W 3V 1A 3K 1X [ Re2 ] [ 16K ]": 109,
      "[ Re2 ] [ 16K 1X ] 6K 1N 2H 1N 6K 1X 5K 1A 4H 1A 5K 1X 5K 1W 1N 2H 1N 1A 5K 1X 5K 1W 4N 1A 5K 1X 5K 4W 1V 1A 5K 1X 3K 1A 1W 1K 3V 1A 1K 1V 1A 3K 1X 3K 3W 1K 3A 1N 2V 3K 1X 3K 4W 5A 1V 3K 1X 3K 1V 2W 1V 2Z 2V 1A 1V 3K 1X 3K 1A 1N 1W 1N 4A 1N 1A 3K 1X 3K 1A 1K 1V 1N 3A 1N 1K 1A 3K 1X 3K 1A 1V 4W 3V 1A 3K 1X [ Re2 ] [ 16K ]": 110,
      "[ Re2 ] [ 16K 1X ] 6K 1N 2H 1N 6K 1X 5K 1A 4H 1A 5K 1X 5K 1W 1N 2H 1N 1A 5K 1X 5K 1W 4N 1A 5K 1X 5K 4W 1V 1A 5K 1X 3K 1A 1W 1N 3V 1A 1N 1V 1A 3K 1X 3K 2W 1Z 1N 4E 2V 3K 1X 3K 3W 1Z 4O 1D 1V 3K 1X 3K 1V 1Z 1W 1Y 2Z 1Y 2D 1V 3K 1X 3K 1A 1E 1W 5E 1N 1A 3K 1X 3K 1A 1N 1V 4E 2N 1A 3K 1X 3K 1A 1V 4W 3V 1A 3K 1X [ Re2 ] [ 16K ]": 111,
      "[ Re2 ] [ 16K 1X ] 6K 1N 2H 1N 6K 1X 5K 1A 4H 1A 5K 1X 5K 1W 1N 2H 1N 1A 5K 1X 5K 1W 4N 1A 5K 1X 5K 4W 1V 1A 5K 1X 3K 1A 1W 1U 3V 1A 1U 1V 1A 3K 1X 3K 2W 1M 5U 2V 3K 1X 3K 3W 1M 5L 1V 3K 1X 3K 1V 1M 1W 1L 2M 3L 1V 3K 1X 3K 1A 1U 1W 6U 1A 3K 1X 3K 1A 1U 1V 6U 1A 3K 1X 3K 1A 1V 4W 3V 1A 3K 1X [ Re2 ] [ 16K ]": 112,
      "[ Re2 ] [ 16K 1X ] 6K 1N 2H 1N 6K 1X 5K 1A 4H 1A 5K 1X 5K 1W 1N 2H 1N 1A 5K 1X 5K 1W 4N 1A 5K 1X 5K 4W 1V 1A 5K 1X 3K 1A 1W 1U 3V 1A 1U 1V 1A 3K 1X 3K 2W 1M 5U 2V 3K 1X 3K 3W 1M 5S 1V 3K 1X 3K 1V 1M 1W 1M 2W 1M 2S 1V 3K 1X 3K 1A 1U 1W 6U 1A 3K 1X 3K 1A 1U 1V 6U 1A 3K 1X 3K 1A 1V 4W 3V 1A 3K 1X [ Re2 ] [ 16K ]": 113,
      "[ Re2 ] [ 16K 1X ] 6K 1N 2H 1N 6K 1X 5K 1A 4H 1A 5K 1X 5K 1W 1N 2H 1N 1A 5K 1X 5K 1W 4N 1A 5K 1X 5K 4W 1V 1A 5K 1X 3K 1A 1W 1U 3V 1A 1U 1V 1A 3K 1X 3K 3W 1U 4B 2V 3K 1X 3K 3W 1S 4B 1S 1V 3K 1X 3K 1V 2W 1S 2W 3S 1V 3K 1X 3K 1A 1B 1W 5B 1U 1A 3K 1X 3K 1A 1U 1V 3B 3U 1A 3K 1X 3K 1A 1V 4W 3V 1A 3K 1X [ Re2 ] [ 16K ]": 114,
      "[ Re2 ] [ 16K 1X ] 8K 1W 7K 1X 7K 1W 1K 1W 6K 1X 6K 1W 3K 1W 5K 1X 5K 1W 5K 1W 4K 1X 4K 1W 7K 1W 3K 1X 3K 1W 9K 1W 2K 1X 2K 1W 11K 1W 1K 1X 1K 1W 13K 1W 1X [ Re3 ] [ 1W 14K 1W 1X ] 16W 1X [ Re2 ] [ 16K ]": 115,
      "[ Re2 ] [ 16K 1X ] 8K 1W 7K 1X 7K 3W 6K 1X 6K 5W 5K 1X 5K 7W 4K 1X 4K 9W 3K 1X 3K 11W 2K 1X 2K 13W 1K 1X 1K 15W 1X [ Re4 ] [ 16W 1X ] [ Re2 ] [ 16K ]": 116,
      "[ Re2 ] [ 16K 1X ] 8K 1W 7K 1X 7K 3W 6K 1X 6K 5W 5K 1X 5K 7W 4K 1X 4K 9W 3K 1X 3K 11W 2K 1X 2K 13W 1K 1X 3K 11W 2K 1X 4K 9W 3K 1X 5K 7W 4K 1X 6K 5W 5K 1X 7K 3W 6K 1X 8K 1W 7K 1X 16K": 117,
      "[ Re2 ] [ 16K 1X ] [ Re12 ] [ 2K 12W 2K 1X ] [ Re2 ] [ 16K ]": 118,
      "[ Re2 ] [ 16K 1X ] [ Re6 ] [ 2K 12W 2K 1X 16K 1X ] [ Re2 ] [ 16K  ]": 119,
      "[ Re2 ] [ 16K 1X ] [ Re6 ] [ 2K 1W 1K 1W 1K 1W 1K 1W 1K 1W 1K 1W 3K 1X 3K 1W 1K 1W 1K 1W 1K 1W 1K 1W 1K 1W 2K 1X ] [ Re2 ] [ 16K  ]": 120,
      "[ Re2 ] [ 16K 1X ] [ Re6 ] [ 8K 1W 7K 1X ] 2K 12W 2K 1X [ Re5 ] [ 8K 1W 7K 1X ] [ Re2 ] [ 16K ]": 121,
      "[ Re2 ] [ 16L 1X ] [ Re12 ] [ 2L 12W 2L 1X ] [ Re2 ] [ 16L ]": 122,
      "[ Re2 ] [ 16M 1X ] [ Re12 ] [ 2M 12W 2M 1X ] [ Re2 ] [ 16M ]": 123,
      "[ Re2 ] [ 16N 1X ] [ Re12 ] [ 2N 12W 2N 1X ] [ Re2 ] [ 16N ]": 124,
      "[ Re2 ] [ 16O 1X ] [ Re12 ] [ 2O 12W 2O 1X ] [ Re2 ] [ 16O ]": 125,
      "[ Re2 ] [ 16P 1X ] [ Re12 ] [ 2P 12W 2P 1X ] [ Re2 ] [ 16P ]": 126,
      "[ Re2 ] [ 16R 1X ] [ Re12 ] [ 2R 12W 2R 1X ] [ Re2 ] [ 16R ]": 127,
      "[ Re2 ] [ 16S 1X ] [ Re12 ] [ 2S 12W 2S 1X ] [ Re2 ] [ 16S ]": 128,
      "[ Re2 ] [ 16U 1X ] [ Re12 ] [ 2U 12W 2U 1X ] [ Re2 ] [ 16U ]": 129,
      "[ Re2 ] [ 16V 1X ] [ Re12 ] [ 2V 12W 2V 1X ] [ Re2 ] [ 16V ]": 130,
      "[ Re2 ] [ 16W 1X ] 8W 1A 7W 1X 7W 1A 1W 1A 6W 1X 6W 1A 3W 1A 5W 1X 5W 1A 5W 1A 4W 1X 4W 1A 7W 1A 3W 1X 3W 1A 9W 1A 2W 1X 2W 1A 11W 1A 1W 1X 1W 1A 13W 1A 1X [ Re3 ] [ 1A 14W 1A 1X ] 16A 1X [ Re2 ] [ 16W ]": 131,
      "[ Re2 ] [ 16W 1X ] 8W 1A 7W 1X 7W 3A 6W 1X 6W 5A 5W 1X 5W 7A 4W 1X 4W 9A 3W 1X 3W 11A 2W 1X 2W 13A 1W 1X 1W 15A 1X [ Re4 ] [ 16A 1X ] [ Re2 ] [ 16W ]": 132,
      "[ Re2 ] [ 16W 1X ] 8W 1A 7W 1X 7W 3A 6W 1X 6W 5A 5W 1X 5W 7A 4W 1X 4W 9A 3W 1X 3W 11A 2W 1X 2W 13A 1W 1X 3W 11A 2W 1X 4W 9A 3W 1X 5W 7A 4W 1X 6W 5A 5W 1X 7W 3A 6W 1X 8W 1A 7W 1X 16W": 133,
      "[ Re2 ] [ 16W 1X ] 8W 1B 7W 1X 7W 1B 1W 1B 6W 1X 6W 1B 3W 1B 5W 1X 5W 1B 5W 1B 4W 1X 4W 1B 7W 1B 3W 1X 3W 1B 9W 1B 2W 1X 2W 1B 11W 1B 1W 1X 1W 1B 13W 1B 1X [ Re3 ] [ 1B 14W 1B 1X ] 16B 1X [ Re2 ] [ 16W ]": 134,
      "[ Re2 ] [ 16W 1X ] 8W 1B 7W 1X 7W 3B 6W 1X 6W 5B 5W 1X 5W 7B 4W 1X 4W 9B 3W 1X 3W 11B 2W 1X 2W 13B 1W 1X 1W 15B 1X [ Re4 ] [ 16B 1X ] [ Re2 ] [ 16W ]": 135,
      "[ Re2 ] [ 16W 1X ] 8W 1B 7W 1X 7W 3B 6W 1X 6W 5B 5W 1X 5W 7B 4W 1X 4W 9B 3W 1X 3W 11B 2W 1X 2W 13B 1W 1X 3W 11B 2W 1X 4W 9B 3W 1X 5W 7B 4W 1X 6W 5B 5W 1X 7W 3B 6W 1X 8W 1B 7W 1X 16W": 136,
      "[ Re2 ] [ 16W 1X ] 8W 1D 7W 1X 7W 1D 1W 1D 6W 1X 6W 1D 3W 1D 5W 1X 5W 1D 5W 1D 4W 1X 4W 1D 7W 1D 3W 1X 3W 1D 9W 1D 2W 1X 2W 1D 11W 1D 1W 1X 1W 1D 13W 1D 1X [ Re3 ] [ 1D 14W 1D 1X ] 16D 1X [ Re2 ] [ 16W ]": 137,
      "[ Re2 ] [ 16W 1X ] 8W 1D 7W 1X 7W 3D 6W 1X 6W 5D 5W 1X 5W 7D 4W 1X 4W 9D 3W 1X 3W 11D 2W 1X 2W 13D 1W 1X 1W 15D 1X [ Re4 ] [ 16D 1X ] [ Re2 ] [ 16W ]": 138,
      "[ Re2 ] [ 16W 1X ] 8W 1D 7W 1X 7W 3D 6W 1X 6W 5D 5W 1X 5W 7D 4W 1X 4W 9D 3W 1X 3W 11D 2W 1X 2W 13D 1W 1X 3W 11D 2W 1X 4W 9D 3W 1X 5W 7D 4W 1X 6W 5D 5W 1X 7W 3D 6W 1X 8W 1D 7W 1X 16W": 139,
      "[ Re2 ] [ 16W 1X ] 8W 1E 7W 1X 7W 1E 1W 1E 6W 1X 6W 1E 3W 1E 5W 1X 5W 1E 5W 1E 4W 1X 4W 1E 7W 1E 3W 1X 3W 1E 9W 1E 2W 1X 2W 1E 11W 1E 1W 1X 1W 1E 13W 1E 1X [ Re3 ] [ 1E 14W 1E 1X ] 16E 1X [ Re2 ] [ 16W ]": 140,
      "[ Re2 ] [ 16W 1X ] 8W 1E 7W 1X 7W 3E 6W 1X 6W 5E 5W 1X 5W 7E 4W 1X 4W 9E 3W 1X 3W 11E 2W 1X 2W 13E 1W 1X 1W 15E 1X [ Re4 ] [ 16E 1X ] [ Re2 ] [ 16W ]": 141,
      "[ Re2 ] [ 16W 1X ] 8W 1E 7W 1X 7W 3E 6W 1X 6W 5E 5W 1X 5W 7E 4W 1X 4W 9E 3W 1X 3W 11E 2W 1X 2W 13E 1W 1X 3W 11E 2W 1X 4W 9E 3W 1X 5W 7E 4W 1X 6W 5E 5W 1X 7W 3E 6W 1X 8W 1E 7W 1X 16W": 142,
      "[ Re2 ] [ 16W 1X ] 8W 1G 7W 1X 7W 1G 1W 1G 6W 1X 6W 1G 3W 1G 5W 1X 5W 1G 5W 1G 4W 1X 4W 1G 7W 1G 3W 1X 3W 1G 9W 1G 2W 1X 2W 1G 11W 1G 1W 1X 1W 1G 13W 1G 1X [ Re3 ] [ 1G 14W 1G 1X ] 16G 1X [ Re2 ] [ 16W ]": 143,
      "[ Re2 ] [ 16W 1X ] 8W 1G 7W 1X 7W 3G 6W 1X 6W 5G 5W 1X 5W 7G 4W 1X 4W 9G 3W 1X 3W 11G 2W 1X 2W 13G 1W 1X 1W 15G 1X [ Re4 ] [ 16G 1X ] [ Re2 ] [ 16W ]": 144,
      "[ Re2 ] [ 16W 1X ] 8W 1G 7W 1X 7W 3G 6W 1X 6W 5G 5W 1X 5W 7G 4W 1X 4W 9G 3W 1X 3W 11G 2W 1X 2W 13G 1W 1X 3W 11G 2W 1X 4W 9G 3W 1X 5W 7G 4W 1X 6W 5G 5W 1X 7W 3G 6W 1X 8W 1G 7W 1X 16W": 145,
      "[ Re2 ] [ 16W 1X ] 8W 1H 7W 1X 7W 1H 1W 1H 6W 1X 6W 1H 3W 1H 5W 1X 5W 1H 5W 1H 4W 1X 4W 1H 7W 1H 3W 1X 3W 1H 9W 1H 2W 1X 2W 1H 11W 1H 1W 1X 1W 1H 13W 1H 1X [ Re3 ] [ 1H 14W 1H 1X ] 16H 1X [ Re2 ] [ 16W ]": 146,
      "[ Re2 ] [ 16W 1X ] 8W 1H 7W 1X 7W 3H 6W 1X 6W 5H 5W 1X 5W 7H 4W 1X 4W 9H 3W 1X 3W 11H 2W 1X 2W 13H 1W 1X 1W 15H 1X [ Re4 ] [ 16H 1X ] [ Re2 ] [ 16W ]": 147,
      "[ Re2 ] [ 16W 1X ] 8W 1H 7W 1X 7W 3H 6W 1X 6W 5H 5W 1X 5W 7H 4W 1X 4W 9H 3W 1X 3W 11H 2W 1X 2W 13H 1W 1X 3W 11H 2W 1X 4W 9H 3W 1X 5W 7H 4W 1X 6W 5H 5W 1X 7W 3H 6W 1X 8W 1H 7W 1X 16W": 148,
      "[ Re2 ] [ 16W 1X ] 8W 1J 7W 1X 7W 1J 1W 1J 6W 1X 6W 1J 3W 1J 5W 1X 5W 1J 5W 1J 4W 1X 4W 1J 7W 1J 3W 1X 3W 1J 9W 1J 2W 1X 2W 1J 11W 1J 1W 1X 1W 1J 13W 1J 1X [ Re3 ] [ 1J 14W 1J 1X ] 16J 1X [ Re2 ] [ 16W ]": 149,
      "[ Re2 ] [ 16W 1X ] 8W 1J 7W 1X 7W 3J 6W 1X 6W 5J 5W 1X 5W 7J 4W 1X 4W 9J 3W 1X 3W 11J 2W 1X 2W 13J 1W 1X 1W 15J 1X [ Re4 ] [ 16J 1X ] [ Re2 ] [ 16W ]": 150,
      "[ Re2 ] [ 16W 1X ] 8W 1J 7W 1X 7W 3J 6W 1X 6W 5J 5W 1X 5W 7J 4W 1X 4W 9J 3W 1X 3W 11J 2W 1X 2W 13J 1W 1X 3W 11J 2W 1X 4W 9J 3W 1X 5W 7J 4W 1X 6W 5J 5W 1X 7W 3J 6W 1X 8W 1J 7W 1X 16W": 151,
      "[ Re2 ] [ 16W 1X ] 8W 1K 7W 1X 7W 1K 1W 1K 6W 1X 6W 1K 3W 1K 5W 1X 5W 1K 5W 1K 4W 1X 4W 1K 7W 1K 3W 1X 3W 1K 9W 1K 2W 1X 2W 1K 11W 1K 1W 1X 1W 1K 13W 1K 1X [ Re3 ] [ 1K 14W 1K 1X ] 16K 1X [ Re2 ] [ 16W ]": 152,
      "[ Re2 ] [ 16W 1X ] 8W 1K 7W 1X 7W 3K 6W 1X 6W 5K 5W 1X 5W 7K 4W 1X 4W 9K 3W 1X 3W 11K 2W 1X 2W 13K 1W 1X 1W 15K 1X [ Re4 ] [ 16K 1X ] [ Re2 ] [ 16W ]": 153,
      "[ Re2 ] [ 16W 1X ] 8W 1K 7W 1X 7W 3K 6W 1X 6W 5K 5W 1X 5W 7K 4W 1X 4W 9K 3W 1X 3W 11K 2W 1X 2W 13K 1W 1X 3W 11K 2W 1X 4W 9K 3W 1X 5W 7K 4W 1X 6W 5K 5W 1X 7W 3K 6W 1X 8W 1K 7W 1X 16W": 154,
      "[ Re2 ] [ 16W 1X ] 8W 1L 7W 1X 7W 1L 1W 1L 6W 1X 6W 1L 3W 1L 5W 1X 5W 1L 5W 1L 4W 1X 4W 1L 7W 1L 3W 1X 3W 1L 9W 1L 2W 1X 2W 1L 11W 1L 1W 1X 1W 1L 13W 1L 1X [ Re3 ] [ 1L 14W 1L 1X ] 16L 1X [ Re2 ] [ 16W ]": 155,
      "[ Re2 ] [ 16W 1X ] 8W 1L 7W 1X 7W 3L 6W 1X 6W 5L 5W 1X 5W 7L 4W 1X 4W 9L 3W 1X 3W 11L 2W 1X 2W 13L 1W 1X 1W 15L 1X [ Re4 ] [ 16L 1X ] [ Re2 ] [ 16W ]": 156,
      "[ Re2 ] [ 16W 1X ] 8W 1L 7W 1X 7W 3L 6W 1X 6W 5L 5W 1X 5W 7L 4W 1X 4W 9L 3W 1X 3W 11L 2W 1X 2W 13L 1W 1X 3W 11L 2W 1X 4W 9L 3W 1X 5W 7L 4W 1X 6W 5L 5W 1X 7W 3L 6W 1X 8W 1L 7W 1X 16W": 157,
      "[ Re2 ] [ 16W 1X ] 8W 1M 7W 1X 7W 1M 1W 1M 6W 1X 6W 1M 3W 1M 5W 1X 5W 1M 5W 1M 4W 1X 4W 1M 7W 1M 3W 1X 3W 1M 9W 1M 2W 1X 2W 1M 11W 1M 1W 1X 1W 1M 13W 1M 1X [ Re3 ] [ 1M 14W 1M 1X ] 16M 1X [ Re2 ] [ 16W ]": 158,
      "[ Re2 ] [ 16W 1X ] 8W 1M 7W 1X 7W 3M 6W 1X 6W 5M 5W 1X 5W 7M 4W 1X 4W 9M 3W 1X 3W 11M 2W 1X 2W 13M 1W 1X 1W 15M 1X [ Re4 ] [ 16M 1X ] [ Re2 ] [ 16W ]": 159,
      "[ Re2 ] [ 16W 1X ] 8W 1M 7W 1X 7W 3M 6W 1X 6W 5M 5W 1X 5W 7M 4W 1X 4W 9M 3W 1X 3W 11M 2W 1X 2W 13M 1W 1X 3W 11M 2W 1X 4W 9M 3W 1X 5W 7M 4W 1X 6W 5M 5W 1X 7W 3M 6W 1X 8W 1M 7W 1X 16W": 160,
      "[ Re2 ] [ 16W 1X ] 8W 1N 7W 1X 7W 1N 1W 1N 6W 1X 6W 1N 3W 1N 5W 1X 5W 1N 5W 1N 4W 1X 4W 1N 7W 1N 3W 1X 3W 1N 9W 1N 2W 1X 2W 1N 11W 1N 1W 1X 1W 1N 13W 1N 1X [ Re3 ] [ 1N 14W 1N 1X ] 16N 1X [ Re2 ] [ 16W ]": 161,
      "[ Re2 ] [ 16W 1X ] 8W 1N 7W 1X 7W 3N 6W 1X 6W 5N 5W 1X 5W 7N 4W 1X 4W 9N 3W 1X 3W 11N 2W 1X 2W 13N 1W 1X 1W 15N 1X [ Re4 ] [ 16N 1X ] [ Re2 ] [ 16W ]": 162,
      "[ Re2 ] [ 16W 1X ] 8W 1N 7W 1X 7W 3N 6W 1X 6W 5N 5W 1X 5W 7N 4W 1X 4W 9N 3W 1X 3W 11N 2W 1X 2W 13N 1W 1X 3W 11N 2W 1X 4W 9N 3W 1X 5W 7N 4W 1X 6W 5N 5W 1X 7W 3N 6W 1X 8W 1N 7W 1X 16W": 163,
      "[ Re2 ] [ 16W 1X ] 8W 1O 7W 1X 7W 1O 1W 1O 6W 1X 6W 1O 3W 1O 5W 1X 5W 1O 5W 1O 4W 1X 4W 1O 7W 1O 3W 1X 3W 1O 9W 1O 2W 1X 2W 1O 11W 1O 1W 1X 1W 1O 13W 1O 1X [ Re3 ] [ 1O 14W 1O 1X ] 16O 1X [ Re2 ] [ 16W ]": 164,
      "[ Re2 ] [ 16W 1X ] 8W 1O 7W 1X 7W 3O 6W 1X 6W 5O 5W 1X 5W 7O 4W 1X 4W 9O 3W 1X 3W 11O 2W 1X 2W 13O 1W 1X 1W 15O 1X [ Re4 ] [ 16O 1X ] [ Re2 ] [ 16W ]": 165,
      "[ Re2 ] [ 16W 1X ] 8W 1O 7W 1X 7W 3O 6W 1X 6W 5O 5W 1X 5W 7O 4W 1X 4W 9O 3W 1X 3W 11O 2W 1X 2W 13O 1W 1X 3W 11O 2W 1X 4W 9O 3W 1X 5W 7O 4W 1X 6W 5O 5W 1X 7W 3O 6W 1X 8W 1O 7W 1X 16W": 166,
      "[ Re2 ] [ 16W 1X ] 8W 1P 7W 1X 7W 1P 1W 1P 6W 1X 6W 1P 3W 1P 5W 1X 5W 1P 5W 1P 4W 1X 4W 1P 7W 1P 3W 1X 3W 1P 9W 1P 2W 1X 2W 1P 11W 1P 1W 1X 1W 1P 13W 1P 1X [ Re3 ] [ 1P 14W 1P 1X ] 16P 1X [ Re2 ] [ 16W ]": 167,
      "[ Re2 ] [ 16W 1X ] 8W 1P 7W 1X 7W 3P 6W 1X 6W 5P 5W 1X 5W 7P 4W 1X 4W 9P 3W 1X 3W 11P 2W 1X 2W 13P 1W 1X 1W 15P 1X [ Re4 ] [ 16P 1X ] [ Re2 ] [ 16W ]": 168,
      "[ Re2 ] [ 16W 1X ] 8W 1P 7W 1X 7W 3P 6W 1X 6W 5P 5W 1X 5W 7P 4W 1X 4W 9P 3W 1X 3W 11P 2W 1X 2W 13P 1W 1X 3W 11P 2W 1X 4W 9P 3W 1X 5W 7P 4W 1X 6W 5P 5W 1X 7W 3P 6W 1X 8W 1P 7W 1X 16W": 169,
      "[ Re2 ] [ 16W 1X ] 8W 1R 7W 1X 7W 1R 1W 1R 6W 1X 6W 1R 3W 1R 5W 1X 5W 1R 5W 1R 4W 1X 4W 1R 7W 1R 3W 1X 3W 1R 9W 1R 2W 1X 2W 1R 11W 1R 1W 1X 1W 1R 13W 1R 1X [ Re3 ] [ 1R 14W 1R 1X ] 16R 1X [ Re2 ] [ 16W ]": 170,
      "[ Re2 ] [ 16W 1X ] 8W 1R 7W 1X 7W 3R 6W 1X 6W 5R 5W 1X 5W 7R 4W 1X 4W 9R 3W 1X 3W 11R 2W 1X 2W 13R 1W 1X 1W 15R 1X [ Re4 ] [ 16R 1X ] [ Re2 ] [ 16W ]": 171,
      "[ Re2 ] [ 16W 1X ] 8W 1R 7W 1X 7W 3R 6W 1X 6W 5R 5W 1X 5W 7R 4W 1X 4W 9R 3W 1X 3W 11R 2W 1X 2W 13R 1W 1X 3W 11R 2W 1X 4W 9R 3W 1X 5W 7R 4W 1X 6W 5R 5W 1X 7W 3R 6W 1X 8W 1R 7W 1X 16W": 172,
      "[ Re2 ] [ 16W 1X ] 8W 1S 7W 1X 7W 1S 1W 1S 6W 1X 6W 1S 3W 1S 5W 1X 5W 1S 5W 1S 4W 1X 4W 1S 7W 1S 3W 1X 3W 1S 9W 1S 2W 1X 2W 1S 11W 1S 1W 1X 1W 1S 13W 1S 1X [ Re3 ] [ 1S 14W 1S 1X ] 16S 1X [ Re2 ] [ 16W ]": 173,
      "[ Re2 ] [ 16W 1X ] 8W 1S 7W 1X 7W 3S 6W 1X 6W 5S 5W 1X 5W 7S 4W 1X 4W 9S 3W 1X 3W 11S 2W 1X 2W 13S 1W 1X 1W 15S 1X [ Re4 ] [ 16S 1X ] [ Re2 ] [ 16W ]": 174,
      "[ Re2 ] [ 16W 1X ] 8W 1S 7W 1X 7W 3S 6W 1X 6W 5S 5W 1X 5W 7S 4W 1X 4W 9S 3W 1X 3W 11S 2W 1X 2W 13S 1W 1X 3W 11S 2W 1X 4W 9S 3W 1X 5W 7S 4W 1X 6W 5S 5W 1X 7W 3S 6W 1X 8W 1S 7W 1X 16W": 175,
      "[ Re2 ] [ 16W 1X ] 8W 1U 7W 1X 7W 1U 1W 1U 6W 1X 6W 1U 3W 1U 5W 1X 5W 1U 5W 1U 4W 1X 4W 1U 7W 1U 3W 1X 3W 1U 9W 1U 2W 1X 2W 1U 11W 1U 1W 1X 1W 1U 13W 1U 1X [ Re3 ] [ 1U 14W 1U 1X ] 16U 1X [ Re2 ] [ 16W ]": 176,
      "[ Re2 ] [ 16W 1X ] 8W 1U 7W 1X 7W 3U 6W 1X 6W 5U 5W 1X 5W 7U 4W 1X 4W 9U 3W 1X 3W 11U 2W 1X 2W 13U 1W 1X 1W 15U 1X [ Re4 ] [ 16U 1X ] [ Re2 ] [ 16W ]": 177,
      "[ Re2 ] [ 16W 1X ] 8W 1U 7W 1X 7W 3U 6W 1X 6W 5U 5W 1X 5W 7U 4W 1X 4W 9U 3W 1X 3W 11U 2W 1X 2W 13U 1W 1X 3W 11U 2W 1X 4W 9U 3W 1X 5W 7U 4W 1X 6W 5U 5W 1X 7W 3U 6W 1X 8W 1U 7W 1X 16W": 178,
      "[ Re2 ] [ 16W 1X ] 8W 1V 7W 1X 7W 1V 1W 1V 6W 1X 6W 1V 3W 1V 5W 1X 5W 1V 5W 1V 4W 1X 4W 1V 7W 1V 3W 1X 3W 1V 9W 1V 2W 1X 2W 1V 11W 1V 1W 1X 1W 1V 13W 1V 1X [ Re3 ] [ 1V 14W 1V 1X ] 16V 1X [ Re2 ] [ 16W ]": 179,
      "[ Re2 ] [ 16W 1X ] 8W 1V 7W 1X 7W 3V 6W 1X 6W 5V 5W 1X 5W 7V 4W 1X 4W 9V 3W 1X 3W 11V 2W 1X 2W 13V 1W 1X 1W 15V 1X [ Re4 ] [ 16V 1X ] [ Re2 ] [ 16W ]": 180,
      "[ Re2 ] [ 16W 1X ] 8W 1V 7W 1X 7W 3V 6W 1X 6W 5V 5W 1X 5W 7V 4W 1X 4W 9V 3W 1X 3W 11V 2W 1X 2W 13V 1W 1X 3W 11V 2W 1X 4W 9V 3W 1X 5W 7V 4W 1X 6W 5V 5W 1X 7W 3V 6W 1X 8W 1V 7W 1X 16W": 181,
      "[ Re2 ] [ 16W 1X ] 8W 1Y 7W 1X 7W 1Y 1W 1Y 6W 1X 6W 1Y 3W 1Y 5W 1X 5W 1Y 5W 1Y 4W 1X 4W 1Y 7W 1Y 3W 1X 3W 1Y 9W 1Y 2W 1X 2W 1Y 11W 1Y 1W 1X 1W 1Y 13W 1Y 1X [ Re3 ] [ 1Y 14W 1Y 1X ] 16Y 1X [ Re2 ] [ 16W ]": 182,
      "[ Re2 ] [ 16W 1X ] 8W 1Y 7W 1X 7W 3Y 6W 1X 6W 5Y 5W 1X 5W 7Y 4W 1X 4W 9Y 3W 1X 3W 11Y 2W 1X 2W 13Y 1W 1X 1W 15Y 1X [ Re4 ] [ 16Y 1X ] [ Re2 ] [ 16W ]": 183,
      "[ Re2 ] [ 16W 1X ] 8W 1Y 7W 1X 7W 3Y 6W 1X 6W 5Y 5W 1X 5W 7Y 4W 1X 4W 9Y 3W 1X 3W 11Y 2W 1X 2W 13Y 1W 1X 3W 11Y 2W 1X 4W 9Y 3W 1X 5W 7Y 4W 1X 6W 5Y 5W 1X 7W 3Y 6W 1X 8W 1Y 7W 1X 16W": 184,
      "[ Re2 ] [ 16W 1X ] 8W 1Z 7W 1X 7W 1Z 1W 1Z 6W 1X 6W 1Z 3W 1Z 5W 1X 5W 1Z 5W 1Z 4W 1X 4W 1Z 7W 1Z 3W 1X 3W 1Z 9W 1Z 2W 1X 2W 1Z 11W 1Z 1W 1X 1W 1Z 13W 1Z 1X [ Re3 ] [ 1Z 14W 1Z 1X ] 16Z 1X [ Re2 ] [ 16W ]": 185,
      "[ Re2 ] [ 16W 1X ] 8W 1Z 7W 1X 7W 3Z 6W 1X 6W 5Z 5W 1X 5W 7Z 4W 1X 4W 9Z 3W 1X 3W 11Z 2W 1X 2W 13Z 1W 1X 1W 15Z 1X [ Re4 ] [ 16Z 1X ] [ Re2 ] [ 16W ]": 186,
      "[ Re2 ] [ 16W 1X ] 8W 1Z 7W 1X 7W 3Z 6W 1X 6W 5Z 5W 1X 5W 7Z 4W 1X 4W 9Z 3W 1X 3W 11Z 2W 1X 2W 13Z 1W 1X 3W 11Z 2W 1X 4W 9Z 3W 1X 5W 7Z 4W 1X 6W 5Z 5W 1X 7W 3Z 6W 1X 8W 1Z 7W 1X 16W": 187,
      "[ Re2 ] [ 16W 1X ] [ Re12 ] [ 2W 12K 2W 1X ] [ Re2 ] [ 16W ]": 188,
      "[ Re2 ] [ 16W 1X ] [ Re6 ] [ 2W 12A 2W 1X 16W 1X ] [ Re2 ] [ 16W  ]": 189,
      "[ Re2 ] [ 16W 1X ] [ Re6 ] [ 2W 12B 2W 1X 16W 1X ] [ Re2 ] [ 16W  ]": 190,
      "[ Re2 ] [ 16W 1X ] [ Re6 ] [ 2W 12D 2W 1X 16W 1X ] [ Re2 ] [ 16W  ]": 191,
      "[ Re2 ] [ 16W 1X ] [ Re6 ] [ 2W 12E 2W 1X 16W 1X ] [ Re2 ] [ 16W  ]": 192,
      "[ Re2 ] [ 16W 1X ] [ Re6 ] [ 2W 12G 2W 1X 16W 1X ] [ Re2 ] [ 16W  ]": 193,
      "[ Re2 ] [ 16W 1X ] [ Re6 ] [ 2W 12H 2W 1X 16W 1X ] [ Re2 ] [ 16W  ]": 194,
      "[ Re2 ] [ 16W 1X ] [ Re6 ] [ 2W 12J 2W 1X 16W 1X ] [ Re2 ] [ 16W  ]": 195,
      "[ Re2 ] [ 16W 1X ] [ Re6 ] [ 2W 12K 2W 1X 16W 1X ] [ Re2 ] [ 16W  ]": 196,
      "[ Re2 ] [ 16W 1X ] [ Re6 ] [ 2W 12L 2W 1X 16W 1X ] [ Re2 ] [ 16W  ]": 197,
      "[ Re2 ] [ 16W 1X ] [ Re6 ] [ 2W 12M 2W 1X 16W 1X ] [ Re2 ] [ 16W  ]": 198,
      "[ Re2 ] [ 16W 1X ] [ Re6 ] [ 2W 12N 2W 1X 16W 1X ] [ Re2 ] [ 16W  ]": 199,
      "[ Re2 ] [ 16W 1X ] [ Re6 ] [ 2W 12O 2W 1X 16W 1X ] [ Re2 ] [ 16W  ]": 200,
      "[ Re2 ] [ 16W 1X ] [ Re6 ] [ 2W 12P 2W 1X 16W 1X ] [ Re2 ] [ 16W  ]": 201,
      "[ Re2 ] [ 16W 1X ] [ Re6 ] [ 2W 12R 2W 1X 16W 1X ] [ Re2 ] [ 16W  ]": 202,
      "[ Re2 ] [ 16W 1X ] [ Re6 ] [ 2W 12S 2W 1X 16W 1X ] [ Re2 ] [ 16W  ]": 203,
      "[ Re2 ] [ 16W 1X ] [ Re6 ] [ 2W 12U 2W 1X 16W 1X ] [ Re2 ] [ 16W  ]": 204,
      "[ Re2 ] [ 16W 1X ] [ Re6 ] [ 2W 12V 2W 1X 16W 1X ] [ Re2 ] [ 16W  ]": 205,
      "[ Re2 ] [ 16W 1X ] [ Re6 ] [ 2W 12Y 2W 1X 16W 1X ] [ Re2 ] [ 16W  ]": 206,
      "[ Re2 ] [ 16W 1X ] [ Re6 ] [ 2W 12Z 2W 1X 16W 1X ] [ Re2 ] [ 16W  ]": 207,
      "[ Re2 ] [ 16W 1X ] [ Re6 ] [ 2W 1A 1W 1A 1W 1A 1W 1A 1W 1A 1W 1A 3W 1X 3W 1A 1W 1A 1W 1A 1W 1A 1W 1A 1W 1A 2W 1X ] [ Re2 ] [ 16W  ]": 208,
      "[ Re2 ] [ 16W 1X ] [ Re6 ] [ 2W 1B 1W 1B 1W 1B 1W 1B 1W 1B 1W 1B 3W 1X 3W 1B 1W 1B 1W 1B 1W 1B 1W 1B 1W 1B 2W 1X ] [ Re2 ] [ 16W  ]": 209,
      "[ Re2 ] [ 16W 1X ] [ Re6 ] [ 2W 1D 1W 1D 1W 1D 1W 1D 1W 1D 1W 1D 3W 1X 3W 1D 1W 1D 1W 1D 1W 1D 1W 1D 1W 1D 2W 1X ] [ Re2 ] [ 16W  ]": 210,
      "[ Re2 ] [ 16W 1X ] [ Re6 ] [ 2W 1E 1W 1E 1W 1E 1W 1E 1W 1E 1W 1E 3W 1X 3W 1E 1W 1E 1W 1E 1W 1E 1W 1E 1W 1E 2W 1X ] [ Re2 ] [ 16W  ]": 211,
      "[ Re2 ] [ 16W 1X ] [ Re6 ] [ 2W 1G 1W 1G 1W 1G 1W 1G 1W 1G 1W 1G 3W 1X 3W 1G 1W 1G 1W 1G 1W 1G 1W 1G 1W 1G 2W 1X ] [ Re2 ] [ 16W  ]": 212,
      "[ Re2 ] [ 16W 1X ] [ Re6 ] [ 2W 1H 1W 1H 1W 1H 1W 1H 1W 1H 1W 1H 3W 1X 3W 1H 1W 1H 1W 1H 1W 1H 1W 1H 1W 1H 2W 1X ] [ Re2 ] [ 16W  ]": 213,
      "[ Re2 ] [ 16W 1X ] [ Re6 ] [ 2W 1J 1W 1J 1W 1J 1W 1J 1W 1J 1W 1J 3W 1X 3W 1J 1W 1J 1W 1J 1W 1J 1W 1J 1W 1J 2W 1X ] [ Re2 ] [ 16W  ]": 214,
      "[ Re2 ] [ 16W 1X ] [ Re6 ] [ 2W 1K 1W 1K 1W 1K 1W 1K 1W 1K 1W 1K 3W 1X 3W 1K 1W 1K 1W 1K 1W 1K 1W 1K 1W 1K 2W 1X ] [ Re2 ] [ 16W  ]": 215,
      "[ Re2 ] [ 16W 1X ] [ Re6 ] [ 2W 1L 1W 1L 1W 1L 1W 1L 1W 1L 1W 1L 3W 1X 3W 1L 1W 1L 1W 1L 1W 1L 1W 1L 1W 1L 2W 1X ] [ Re2 ] [ 16W  ]": 216,
      "[ Re2 ] [ 16W 1X ] [ Re6 ] [ 2W 1M 1W 1M 1W 1M 1W 1M 1W 1M 1W 1M 3W 1X 3W 1M 1W 1M 1W 1M 1W 1M 1W 1M 1W 1M 2W 1X ] [ Re2 ] [ 16W  ]": 217,
      "[ Re2 ] [ 16W 1X ] [ Re6 ] [ 2W 1N 1W 1N 1W 1N 1W 1N 1W 1N 1W 1N 3W 1X 3W 1N 1W 1N 1W 1N 1W 1N 1W 1N 1W 1N 2W 1X ] [ Re2 ] [ 16W  ]": 218,
      "[ Re2 ] [ 16W 1X ] [ Re6 ] [ 2W 1O 1W 1O 1W 1O 1W 1O 1W 1O 1W 1O 3W 1X 3W 1O 1W 1O 1W 1O 1W 1O 1W 1O 1W 1O 2W 1X ] [ Re2 ] [ 16W  ]": 219,
      "[ Re2 ] [ 16W 1X ] [ Re6 ] [ 2W 1P 1W 1P 1W 1P 1W 1P 1W 1P 1W 1P 3W 1X 3W 1P 1W 1P 1W 1P 1W 1P 1W 1P 1W 1P 2W 1X ] [ Re2 ] [ 16W  ]": 220,
      "[ Re2 ] [ 16W 1X ] [ Re6 ] [ 2W 1R 1W 1R 1W 1R 1W 1R 1W 1R 1W 1R 3W 1X 3W 1R 1W 1R 1W 1R 1W 1R 1W 1R 1W 1R 2W 1X ] [ Re2 ] [ 16W  ]": 221,
      "[ Re2 ] [ 16W 1X ] [ Re6 ] [ 2W 1S 1W 1S 1W 1S 1W 1S 1W 1S 1W 1S 3W 1X 3W 1S 1W 1S 1W 1S 1W 1S 1W 1S 1W 1S 2W 1X ] [ Re2 ] [ 16W  ]": 222,
      "[ Re2 ] [ 16W 1X ] [ Re6 ] [ 2W 1U 1W 1U 1W 1U 1W 1U 1W 1U 1W 1U 3W 1X 3W 1U 1W 1U 1W 1U 1W 1U 1W 1U 1W 1U 2W 1X ] [ Re2 ] [ 16W  ]": 223,
      "[ Re2 ] [ 16W 1X ] [ Re6 ] [ 2W 1V 1W 1V 1W 1V 1W 1V 1W 1V 1W 1V 3W 1X 3W 1V 1W 1V 1W 1V 1W 1V 1W 1V 1W 1V 2W 1X ] [ Re2 ] [ 16W  ]": 224,
      "[ Re2 ] [ 16W 1X ] [ Re6 ] [ 2W 1Y 1W 1Y 1W 1Y 1W 1Y 1W 1Y 1W 1Y 3W 1X 3W 1Y 1W 1Y 1W 1Y 1W 1Y 1W 1Y 1W 1Y 2W 1X ] [ Re2 ] [ 16W  ]": 225,
      "[ Re2 ] [ 16W 1X ] [ Re6 ] [ 2W 1Z 1W 1Z 1W 1Z 1W 1Z 1W 1Z 1W 1Z 3W 1X 3W 1Z 1W 1Z 1W 1Z 1W 1Z 1W 1Z 1W 1Z 2W 1X ] [ Re2 ] [ 16W  ]": 226,
      "[ Re2 ] [ 16W 1X ] [ Re6 ] [ 8W 1A 7W 1X ] 2W 12A 2W 1X [ Re5 ] [ 8W 1A 7W 1X ] [ Re2 ] [ 16W ]": 227,
      "[ Re2 ] [ 16W 1X ] [ Re6 ] [ 8W 1B 7W 1X ] 2W 12B 2W 1X [ Re5 ] [ 8W 1B 7W 1X ] [ Re2 ] [ 16W ]": 228,
      "[ Re2 ] [ 16W 1X ] [ Re6 ] [ 8W 1D 7W 1X ] 2W 12D 2W 1X [ Re5 ] [ 8W 1D 7W 1X ] [ Re2 ] [ 16W ]": 229,
      "[ Re2 ] [ 16W 1X ] [ Re6 ] [ 8W 1E 7W 1X ] 2W 12E 2W 1X [ Re5 ] [ 8W 1E 7W 1X ] [ Re2 ] [ 16W ]": 230,
      "[ Re2 ] [ 16W 1X ] [ Re6 ] [ 8W 1G 7W 1X ] 2W 12G 2W 1X [ Re5 ] [ 8W 1G 7W 1X ] [ Re2 ] [ 16W ]": 231,
      "[ Re2 ] [ 16W 1X ] [ Re6 ] [ 8W 1H 7W 1X ] 2W 12H 2W 1X [ Re5 ] [ 8W 1H 7W 1X ] [ Re2 ] [ 16W ]": 232,
      "[ Re2 ] [ 16W 1X ] [ Re6 ] [ 8W 1J 7W 1X ] 2W 12J 2W 1X [ Re5 ] [ 8W 1J 7W 1X ] [ Re2 ] [ 16W ]": 233,
      "[ Re2 ] [ 16W 1X ] [ Re6 ] [ 8W 1K 7W 1X ] 2W 12K 2W 1X [ Re5 ] [ 8W 1K 7W 1X ] [ Re2 ] [ 16W ]": 234,
      "[ Re2 ] [ 16W 1X ] [ Re6 ] [ 8W 1L 7W 1X ] 2W 12L 2W 1X [ Re5 ] [ 8W 1L 7W 1X ] [ Re2 ] [ 16W ]": 235,
      "[ Re2 ] [ 16W 1X ] [ Re6 ] [ 8W 1M 7W 1X ] 2W 12M 2W 1X [ Re5 ] [ 8W 1M 7W 1X ] [ Re2 ] [ 16W ]": 236,
      "[ Re2 ] [ 16W 1X ] [ Re6 ] [ 8W 1N 7W 1X ] 2W 12N 2W 1X [ Re5 ] [ 8W 1N 7W 1X ] [ Re2 ] [ 16W ]": 237,
      "[ Re2 ] [ 16W 1X ] [ Re6 ] [ 8W 1O 7W 1X ] 2W 12O 2W 1X [ Re5 ] [ 8W 1O 7W 1X ] [ Re2 ] [ 16W ]": 238,
      "[ Re2 ] [ 16W 1X ] [ Re6 ] [ 8W 1P 7W 1X ] 2W 12P 2W 1X [ Re5 ] [ 8W 1P 7W 1X ] [ Re2 ] [ 16W ]": 239,
      "[ Re2 ] [ 16W 1X ] [ Re6 ] [ 8W 1R 7W 1X ] 2W 12R 2W 1X [ Re5 ] [ 8W 1R 7W 1X ] [ Re2 ] [ 16W ]": 240,
      "[ Re2 ] [ 16W 1X ] [ Re6 ] [ 8W 1S 7W 1X ] 2W 12S 2W 1X [ Re5 ] [ 8W 1S 7W 1X ] [ Re2 ] [ 16W ]": 241,
      "[ Re2 ] [ 16W 1X ] [ Re6 ] [ 8W 1U 7W 1X ] 2W 12U 2W 1X [ Re5 ] [ 8W 1U 7W 1X ] [ Re2 ] [ 16W ]": 242,
      "[ Re2 ] [ 16W 1X ] [ Re6 ] [ 8W 1V 7W 1X ] 2W 12V 2W 1X [ Re5 ] [ 8W 1V 7W 1X ] [ Re2 ] [ 16W ]": 243,
      "[ Re2 ] [ 16W 1X ] [ Re6 ] [ 8W 1Y 7W 1X ] 2W 12Y 2W 1X [ Re5 ] [ 8W 1Y 7W 1X ] [ Re2 ] [ 16W ]": 244,
      "[ Re2 ] [ 16W 1X ] [ Re6 ] [ 8W 1Z 7W 1X ] 2W 12Z 2W 1X [ Re5 ] [ 8W 1Z 7W 1X ] [ Re2 ] [ 16W ]": 245,
      "[ Re2 ] [ 16Y 1X ] [ Re12 ] [ 2Y 12W 2Y 1X ] [ Re2 ] [ 16Y ]": 246,
      "[ Re2 ] [ 16Z 1X ] [ Re12 ] [ 2Z 12W 2Z 1X ] [ Re2 ] [ 16Z ]": 247,
      "[ Re2 ] [ 6N 10K 1X ] 6N 3K 1V 6K 1X 7N 2K 1L 1V 5K 1X 2K 6N 1K 2E 5K 1X 9N 1K 1E 2K 2V 1K 1X 5N 4O 2N 1K 2A 1E 1K 1X 3N 2O 2H 3O 1N 1K 2E 2K 1X 2N 2O 1H 6O 1N 4K 1X 2N 10O 4K 1X 1N 11O 4K 1X 1K 11O 4K 1X 1K 10O 5K 1X 2K 8O 6K 1X [ Re2 ] [ 12K 2E 2K ]": 248,
      "[ Re3 ] [ 16K 1X ] 3K 10W 3K 1X [ Re8 ] [ 3K 1W 8K 1W 3K 1X ] 3K 10W 3K 1X [ Re3 ] [ 16K ]": 249,
      "[ Re3 ] [ 16K 1X ] 5K 2O 9K 1X 4K 1E 3O 8K 1X 3K 1E 5O 7K 1X 3K 4O 1E 1O 7K 1X 2K 6O 1K 4A 3K 1X 2K 5O 1K 1A 4V 1A 2K 1X 2K 1O 1E 2O 1K 1A 1V 1E 1V 1E 2V 1A 1K 1X 2K 1E 2O 1E 1K 1A 2V 2Z 1E 1V 1A 1K 1X 3K 1E 2O 1K 1A 1V 1E 2Z 2V 1A 1K 1X 4K 2E 1K 1A 2V 1E 1V 1E 1V 1A 1K 1X 8K 1A 4V 1A 2K 1X 9K 4A 3K 1X 1K 3N 1K 3N 8K": 250,
      "[ Re3 ] [ 16K 1X ] 6K 1N 2H 1N 6K 1X 5K 1A 4H 1A 5K 1X 5K 1W 1A 2H 2A 5K 1X 5K 1W 4N 1A 5K 1X 5K 1A 3W 1V 1A 5K 1X 4K 1W 1K 3V 1A 1K 1A 4K 1X 4K 1V 2W 3E 1N 1A 4K 1X 4K 1V 2W 2Z 1V 1O 1A 4K 1X 4K 1A 1V 1N 3E 1N 1A 4K 1X 4K 1A 1V 1K 3N 1K 1A 4K 1X 5K 1A 2W 2V 1A 5K 1X [ Re2 ] [ 16K ]": 251,
      "[ Re3 ] [ 16K 1X ] 6K 1N 2H 1N 6K 1X 5K 1A 4H 1A 5K 1X 5K 1W 1A 2H 2A 5K 1X 5K 1W 4N 1A 5K 1X 5K 1A 3W 1V 1A 5K 1X 4K 1W 1K 3V 1A 1K 1A 4K 1X 4K 1V 2W 4E 1A 4K 1X 4K 1V 2W 2Y 1D 1E 1A 4K 1X 4K 1A 1V 5E 1A 4K 1X 4K 1A 1V 1K 3E 1K 1A 4K 1X 5K 1A 2W 2V 1A 5K 1X [ Re2 ] [ 16K ]": 252,
      "[ Re3 ] [ 16K 1X ] 6K 1N 2H 1N 6K 1X 5K 1A 4H 1A 5K 1X 5K 1W 1A 2H 2A 5K 1X 5K 1W 4N 1A 5K 1X 5K 1A 3W 1V 1A 5K 1X 4K 1W 1K 3V 1A 1K 1A 4K 1X 4K 1V 2W 4L 1A 4K 1X 4K 1V 2W 2Y 2L 1A 4K 1X 4K 1A 1V 5L 1A 4K 1X 4K 1A 1V 1K 3L 1K 1A 4K 1X 5K 1A 2W 2V 1A 5K 1X [ Re2 ] [ 16K ]": 253,
      "[ Re3 ] [ 16K 1X ] 6K 1N 2H 1N 6K 1X 5K 1A 4H 1A 5K 1X 5K 1W 1A 2H 2A 5K 1X 5K 1W 4N 1A 5K 1X 5K 1A 3W 1V 1A 5K 1X 4K 1W 1K 3Z 1V 1K 1A 4K 1X 4K 1V 2W 3N 1K 1A 4K 1X 4K 1V 2W 2Z 1V 2A 4K 1X 4K 1A 1Z 1K 3N 1K 1A 4K 1X 4K 1A 1Z 5K 1A 4K 1X 5K 1A 2W 2V 1A 5K 1X [ Re2 ] [ 16K ]": 254,
      "[ Re3 ] [ 16K 1X ] 6K 1N 2H 1N 6K 1X 5K 1A 4H 1A 5K 1X 5K 1W 1A 2H 2A 5K 1X 5K 1W 4N 1A 5K 1X 5K 1A 3W 1V 1A 5K 1X 4K 1W 1K 3Z 1V 1K 1A 4K 1X 4K 1V 2W 5A 4K 1X 4K 1V 2W 2Z 1V 2A 4K 1X 4K 1A 1Z 6A 4K 1X 4K 1A 1Z 1K 3A 1K 1A 4K 1X 5K 1A 2W 2V 1A 5K 1X [ Re2 ] [ 16K ]": 255,
      "[ Re3 ] [ 16K 1X ] 6K 1N 2H 1N 6K 1X 5K 1A 4H 1A 5K 1X 5K 1W 1A 2H 2A 5K 1X 5K 1W 4N 1A 5K 1X 5K 1A 3W 1V 1A 5K 1X 4K 1W 1N 3V 1A 1N 1A 4K 1X 4K 1V 2W 3O 1E 1A 4K 1X 4K 1V 2W 1Y 1Z 1Y 1D 1A 4K 1X 4K 1A 1V 1E 3O 1E 1A 4K 1X 4K 1A 1V 1N 3E 1N 1A 4K 1X 5K 1A 2W 2V 1A 5K 1X [ Re2 ] [ 16K ]": 256,
      "[ Re3 ] [ 16K 1X ] 6K 1N 2H 1N 6K 1X 5K 1A 4H 1A 5K 1X 5K 1W 1A 2H 2A 5K 1X 5K 1W 4N 1A 5K 1X 5K 1A 3W 1V 1A 5K 1X 4K 1W 1N 3V 1A 1N 1A 4K 1X 4K 1V 2W 3O 1N 1A 4K 1X 4K 1V 2W 1D 1Z 1D 1O 1A 4K 1X 4K 1A 1V 1N 3O 1N 1A 4K 1X 4K 1A 1V 5N 1A 4K 1X 5K 1A 2W 2V 1A 5K 1X [ Re2 ] [ 16K ]": 257,
      "[ Re3 ] [ 16K 1X ] 6K 1N 2H 1N 6K 1X 5K 1A 4H 1A 5K 1X 5K 1W 1A 2H 2A 5K 1X 5K 1W 4N 1A 5K 1X 5K 1A 3W 1V 1A 5K 1X 4K 1W 1U 3V 1A 1U 1A 4K 1X 4K 1V 2W 3L 1U 1A 4K 1X 4K 1V 2W 2M 2L 1A 4K 1X 4K 1A 1V 1U 3L 1U 1A 4K 1X 4K 1A 1V 5U 1A 4K 1X 5K 1A 2W 2V 1A 5K 1X [ Re2 ] [ 16K ]": 258,
      "[ Re3 ] [ 16K 1X ] 6K 1N 2H 1N 6K 1X 5K 1A 4H 1A 5K 1X 5K 1W 1A 2H 2A 5K 1X 5K 1W 4N 1A 5K 1X 5K 1A 3W 1V 1A 5K 1X 4K 1W 1U 3V 1A 1U 1A 4K 1X 4K 1V 2W 3L 1U 1A 4K 1X 4K 1V 2W 2M 2S 1A 4K 1X 4K 1A 1V 1U 3L 1U 1A 4K 1X 4K 1A 1V 5U 1A 4K 1X 5K 1A 2W 2V 1A 5K 1X [ Re2 ] [ 16K ]": 259,
      "[ Re3 ] [ 16K 1X ] 6K 1N 2H 1N 6K 1X 5K 1A 4H 1A 5K 1X 5K 1W 1A 2H 2A 5K 1X 5K 1W 4N 1A 5K 1X 5K 1A 3W 1V 1A 5K 1X 4K 1W 1U 3V 1A 1U 1A 4K 1X 4K 1V 2W 3S 1U 1A 4K 1X 4K 1V 2W 2M 2S 1A 4K 1X 4K 1A 1V 1U 3S 1U 1A 4K 1X 4K 1A 1V 5U 1A 4K 1X 5K 1A 2W 2V 1A 5K 1X [ Re2 ] [ 16K ]": 260,
      "[ Re3 ] [ 16K 1X ] 6K 1N 2H 1N 6K 1X 5K 1A 4H 1A 5K 1X 5K 1W 1A 2H 2A 5K 1X 5K 1W 4N 1A 5K 1X 5K 1A 3W 1V 1A 5K 1X 4K 1W 1U 3V 1A 1U 1A 4K 1X 4K 1V 2W 4B 1A 4K 1X 4K 1V 4W 2S 1A 4K 1X 4K 1A 1V 5B 1A 4K 1X 4K 1A 1V 1U 3B 1U 1A 4K 1X 5K 1A 2W 2V 1A 5K 1X [ Re2 ] [ 16K ]": 261,
      "[ Re3 ] [ 16K 1X ] 6K 1N 2H 1N 6K 1X 5K 1A 4H 1A 5K 1X 5K 1W 1A 2H 2A 5K 1X 5K 1W 4N 1A 5K 1X 5K 1A 3W 1V 1A 5K 1X 4K 1W 1U 3V 1A 1U 1A 4K 1X 4K 1V 2W 4P 1A 4K 1X 4K 1V 2W 3H 1J 1A 4K 1X 4K 1A 1V 5P 1A 4K 1X 4K 1A 1V 1U 3P 1U 1A 4K 1X 5K 1A 2W 2V 1A 5K 1X [ Re2 ] [ 16K ]": 262,
      "[ Re3 ] [ 16K 1X ] 6K 1N 2H 1N 6K 1X 5K 1A 4H 1A 5K 1X 5K 1Z 1A 2H 2A 5K 1X 5K 1W 4N 1A 5K 1X 5K 1A 1Z 2W 1V 1A 5K 1X 4K 1W 1N 3V 1A 1N 1A 4K 1X 4K 1V 2W 3R 1N 1A 4K 1X 4K 1V 2W 2H 1V 1N 1A 4K 1X 4K 1A 1V 1N 3R 1N 1A 4K 1X 4K 1A 1V 5N 1A 4K 1X 5K 1A 2W 2V 1A 5K 1X [ Re2 ] [ 16K ]": 263,
      "[ Re3 ] [ 16K 1X ] 7K 2A 7K 1X 7K 2N 2A 5K 1X 5K 1A 3N 7K 1X 4K 1N 2K 2A 1K 2N 4K 1X 3K 5N 1K 4N 3K 1X 3K 2N 1H 7N 3K 1X 3K 3N 2H 5N 3K 1X 3K 10N 3K 1X 4K 8N 4K 1X 5K 6N 5K 1X [ Re2 ] [ 16K 1X ] 1K 4U 11K": 264,
      "[ Re3 ] [ 16K 1X ] [ Re10 ] [ 3K 10W 3K 1X ] [ Re3 ] [ 16K ]": 265,
      "[ Re3 ] [ 16U 1X ] 4U 6L 6U 1X 2U 2L 2U 2L 2M 2L 4U 1X 2U 1K 3L 1U 1L 2V 2M 1L 3U 1X 1U 2L 1K 1L 1M 1U 2L 2V 1A 1L 3K 1X 1U 2L 1K 1L 2M 1U 1L 2M 1A 2L 2K 1X 1U 2L 1K 3M 1A 2L 1A 1L 1V 1U 2K 1X 1U 2L 1K 1L 2M 1L 2A 1L 2M 1U 2K 1X 1U 2L 1K 2L 2M 2L 2M 1A 1L 2K 1X 1U 1K 2L 1K 2L 1V 1M 1V 1M 1A 1M 1L 2K 1X 2K 3L 1K 2L 1V 1L 1A 2L 3K 1X 3K 3L 1K 3L 1U 1L 4K 1X 5K 2L 1K 2L 6K 1X 16K": 266,
      "[ Re3 ] [ 16U 1X ] 5U 2E 1U 1E 7U 1X 5U 1A 1U 2E 2A 5U 1X 3U 4A 1U 1E 1K 3A 3U 1X 2U 1A 4U 3K 3U 2A 1U 1X 1U 1A 2U 2A 1U 1A 1U 2A 3U 1E 1U 1X 1K 1E 1U 9A 2U 1E 1K 1X 1K 1E 2U 8A 3U 1K 1X 1K 4U 6A 1U 1E 2U 1K 1X 1K 4U 1E 6U 1E 2U 1K 1X 2K 3U 1E 6U 1E 1U 2K 1X 3K 2U 1E 6U 1E 3K 1X 5K 1E 5U 5K 1X 13K 3E": 267,
      "[ Re3 ] [ 16W 1X ] 3W 10A 3W 1X [ Re8 ] [ 3W 1A 8W 1A 3W 1X ] 3W 10A 3W 1X [ Re3 ] [ 16W ]": 268,
      "[ Re3 ] [ 16W 1X ] 3W 10B 3W 1X [ Re8 ] [ 3W 1B 8W 1B 3W 1X ] 3W 10B 3W 1X [ Re3 ] [ 16W ]": 269,
      "[ Re3 ] [ 16W 1X ] 3W 10D 3W 1X [ Re8 ] [ 3W 1D 8W 1D 3W 1X ] 3W 10D 3W 1X [ Re3 ] [ 16W ]": 270,
      "[ Re3 ] [ 16W 1X ] 3W 10E 3W 1X [ Re8 ] [ 3W 1E 8W 1E 3W 1X ] 3W 10E 3W 1X [ Re3 ] [ 16W ]": 271,
      "[ Re3 ] [ 16W 1X ] 3W 10G 3W 1X [ Re8 ] [ 3W 1G 8W 1G 3W 1X ] 3W 10G 3W 1X [ Re3 ] [ 16W ]": 272,
      "[ Re3 ] [ 16W 1X ] 3W 10H 3W 1X [ Re8 ] [ 3W 1H 8W 1H 3W 1X ] 3W 10H 3W 1X [ Re3 ] [ 16W ]": 273,
      "[ Re3 ] [ 16W 1X ] 3W 10J 3W 1X [ Re8 ] [ 3W 1J 8W 1J 3W 1X ] 3W 10J 3W 1X [ Re3 ] [ 16W ]": 274,
      "[ Re3 ] [ 16W 1X ] 3W 10K 3W 1X [ Re8 ] [ 3W 1K 8W 1K 3W 1X ] 3W 10K 3W 1X [ Re3 ] [ 16W ]": 275,
      "[ Re3 ] [ 16W 1X ] 3W 10L 3W 1X [ Re8 ] [ 3W 1L 8W 1L 3W 1X ] 3W 10L 3W 1X [ Re3 ] [ 16W ]": 276,
      "[ Re3 ] [ 16W 1X ] 3W 10M 3W 1X [ Re8 ] [ 3W 1M 8W 1M 3W 1X ] 3W 10M 3W 1X [ Re3 ] [ 16W ]": 277,
      "[ Re3 ] [ 16W 1X ] 3W 10N 3W 1X [ Re8 ] [ 3W 1N 8W 1N 3W 1X ] 3W 10N 3W 1X [ Re3 ] [ 16W ]": 278,
      "[ Re3 ] [ 16W 1X ] 3W 10O 3W 1X [ Re8 ] [ 3W 1O 8W 1O 3W 1X ] 3W 10O 3W 1X [ Re3 ] [ 16W ]": 279,
      "[ Re3 ] [ 16W 1X ] 3W 10P 3W 1X [ Re8 ] [ 3W 1P 8W 1P 3W 1X ] 3W 10P 3W 1X [ Re3 ] [ 16W ]": 280,
      "[ Re3 ] [ 16W 1X ] 3W 10R 3W 1X [ Re8 ] [ 3W 1R 8W 1R 3W 1X ] 3W 10R 3W 1X [ Re3 ] [ 16W ]": 281,
      "[ Re3 ] [ 16W 1X ] 3W 10S 3W 1X [ Re8 ] [ 3W 1S 8W 1S 3W 1X ] 3W 10S 3W 1X [ Re3 ] [ 16W ]": 282,
      "[ Re3 ] [ 16W 1X ] 3W 10U 3W 1X [ Re8 ] [ 3W 1U 8W 1U 3W 1X ] 3W 10U 3W 1X [ Re3 ] [ 16W ]": 283,
      "[ Re3 ] [ 16W 1X ] 3W 10V 3W 1X [ Re8 ] [ 3W 1V 8W 1V 3W 1X ] 3W 10V 3W 1X [ Re3 ] [ 16W ]": 284,
      "[ Re3 ] [ 16W 1X ] 3W 10Y 3W 1X [ Re8 ] [ 3W 1Y 8W 1Y 3W 1X ] 3W 10Y 3W 1X [ Re3 ] [ 16W ]": 285,
      "[ Re3 ] [ 16W 1X ] 3W 10Z 3W 1X [ Re8 ] [ 3W 1Z 8W 1Z 3W 1X ] 3W 10Z 3W 1X [ Re3 ] [ 16W ]": 286,
      "[ Re3 ] [ 16W 1X ] [ Re10 ] [ 3W 10A 3W 1X ] [ Re3 ] [ 16W ]": 287,
      "[ Re3 ] [ 16W 1X ] [ Re10 ] [ 3W 10B 3W 1X ] [ Re3 ] [ 16W ]": 288,
      "[ Re3 ] [ 16W 1X ] [ Re10 ] [ 3W 10D 3W 1X ] [ Re3 ] [ 16W ]": 289,
      "[ Re3 ] [ 16W 1X ] [ Re10 ] [ 3W 10E 3W 1X ] [ Re3 ] [ 16W ]": 290,
      "[ Re3 ] [ 16W 1X ] [ Re10 ] [ 3W 10G 3W 1X ] [ Re3 ] [ 16W ]": 291,
      "[ Re3 ] [ 16W 1X ] [ Re10 ] [ 3W 10H 3W 1X ] [ Re3 ] [ 16W ]": 292,
      "[ Re3 ] [ 16W 1X ] [ Re10 ] [ 3W 10J 3W 1X ] [ Re3 ] [ 16W ]": 293,
      "[ Re3 ] [ 16W 1X ] [ Re10 ] [ 3W 10K 3W 1X ] [ Re3 ] [ 16W ]": 294,
      "[ Re3 ] [ 16W 1X ] [ Re10 ] [ 3W 10L 3W 1X ] [ Re3 ] [ 16W ]": 295,
      "[ Re3 ] [ 16W 1X ] [ Re10 ] [ 3W 10M 3W 1X ] [ Re3 ] [ 16W ]": 296,
      "[ Re3 ] [ 16W 1X ] [ Re10 ] [ 3W 10N 3W 1X ] [ Re3 ] [ 16W ]": 297,
      "[ Re3 ] [ 16W 1X ] [ Re10 ] [ 3W 10O 3W 1X ] [ Re3 ] [ 16W ]": 298,
      "[ Re3 ] [ 16W 1X ] [ Re10 ] [ 3W 10P 3W 1X ] [ Re3 ] [ 16W ]": 299,
      "[ Re3 ] [ 16W 1X ] [ Re10 ] [ 3W 10R 3W 1X ] [ Re3 ] [ 16W ]": 300,
      "[ Re3 ] [ 16W 1X ] [ Re10 ] [ 3W 10S 3W 1X ] [ Re3 ] [ 16W ]": 301,
      "[ Re3 ] [ 16W 1X ] [ Re10 ] [ 3W 10U 3W 1X ] [ Re3 ] [ 16W ]": 302,
      "[ Re3 ] [ 16W 1X ] [ Re10 ] [ 3W 10V 3W 1X ] [ Re3 ] [ 16W ]": 303,
      "[ Re3 ] [ 16W 1X ] [ Re10 ] [ 3W 10Y 3W 1X ] [ Re3 ] [ 16W ]": 304,
      "[ Re3 ] [ 16W 1X ] [ Re10 ] [ 3W 10Z 3W 1X ] [ Re3 ] [ 16W ]": 305,
      "[ Re3 ] [ 3K 13N 1X ] 3K 8N 1E 2Z 2N 1X 3K 8N 3E 2K 1X 2K 9N 3E 1K 1N 1X 2K 8N 1E 1D 1O 1E 1O 1N 1X 2K 7N 1H 1E 2D 1E 1O 1N 1X 2K 5N 1H 1D 1O 2H 1E 2D 1K 1X 2K 3N 1H 1D 2O 1H 1D 1H 1E 1D 1O 1K 1X 2K 1E 2H 2O 2H 2D 1E 1H 1D 1O 1K 1X 5K 2H 2D 2O 1H 2D 1O 1K 1X 2K 1E 2Y 2D 2O 2H 2D 1O 2K 1X 7K 2H 3D 1O 3K 1X 5K 1E 1Y 3D 1O 5K 1X 16K": 306,
      "[ Re4 ] [ 16E 1X ] 3E 1V 1H 6E 3V 2E 1X 3E 1V 1H 1V 6E 1V 3E 1X 4E 1V 5E 1V 1H 4E 1X 16E 1X 8E 2V 6E 1X 5E 1V 2H 8E 1X 6E 1H 1V 7E 1N 1X 3E 3V 9E 1N 1X 2E 1V 11E 2N 1X 2E 2V 10E 2N 1X [ Re2 ] [ 13E 3N ]": 307,
      "a": 308,
      "b": 309,
      "c": 310,
      "d": 311,
      "e": 312,
      "f": 313,
      "g": 314,
      "h": 315,
      "i": 316,
      "k": 317,
      "l": 318,
      "m": 319,
      "n": 320,
      "o": 321,
      "p": 322,
      "q": 323,
      "r": 324,
      "s": 325,
      "t": 326,
      "u": 327,
      "v": 328,
      "w": 329,
      "x": 330,
      "y": 331,
      "z": 332,
      "ra": 333,
      "ar": 334,
      "ge": 335,
      "te": 336,
      "ri": 337,
      "le": 338,
      "on": 339,
      "er": 340,
      "ow": 341,
      "gen": 342,
      "el": 343,
      "pi": 344,
      "ma": 345,
      "re": 346,
      "ho": 347,
      "tri": 348,
      "low": 349,
      "ot": 350,
      "an": 351,
      "dra": 352,
      "era": 353,
      "ke": 354,
      "xel": 355,
      "art": 356,
      "genera": 357,
      "pixel": 358,
      "make": 359,
      "draw": 360,
      "generate": 361,
      "ion": 362,
      "pot": 363,
      "potion": 364,
      "bo": 365,
      "gle": 366,
      "llow": 367,
      "qu": 368,
      "squ": 369,
      "are": 370,
      "hollow": 371,
      "trian": 372,
      "square": 373,
      "triangle": 374,
      "me": 375,
      "bl": 376,
      "der": 377,
      "ard": 378,
      "st": 379,
      "ck": 380,
      "ta": 381,
      "li": 382,
      "di": 383,
      "ue": 384,
      "blue": 385,
      "es": 386,
      "ch": 387,
      "pri": 388,
      "be": 389,
      "sk": 390,
      "spri": 391,
      "sprite": 392,
      "mon": 393,
      "pes": 394,
      "amon": 395,
      "cr": 396,
      "eck": 397,
      "fra": 398,
      "os": 399,
      "rder": 400,
      "stri": 401,
      "zon": 402,
      "rizon": 403,
      "erbo": 404,
      "horizon": 405,
      "border": 406,
      "tal": 407,
      "diamon": 408,
      "check": 409,
      "cros": 410,
      "frame": 411,
      "stripes": 412,
      "erboard": 413,
      "horizontal": 414,
      "diamond": 415,
      "checkerboard": 416,
      "cross": 417,
      "ple": 418,
      "in": 419,
      "pu": 420,
      "en": 421,
      "gra": 422,
      "gre": 423,
      "nk": 424,
      "nge": 425,
      "ora": 426,
      "rple": 427,
      "yel": 428,
      "purple": 429,
      "green": 430,
      "orange": 431,
      "yellow": 432,
      "br": 433,
      "go": 434,
      "hi": 435,
      "il": 436,
      "sil": 437,
      "ver": 438,
      "whi": 439,
      "own": 440,
      "pink": 441,
      "red": 442,
      "lime": 443,
      "gray": 444,
      "brown": 445,
      "silver": 446,
      "white": 447,
      "test": 448,
      "agen": 449,
      "ask": 450,
      "bre": 451,
      "bot": 452,
      "dard": 453,
      "ed": 454,
      "fl": 455,
      "lar": 456,
      "nder": 457,
      "sle": 458,
      "tu": 459,
      "tle": 460,
      "wed": 461,
      "reagen": 462,
      "andard": 463,
      "standard": 464,
      "brewed": 465,
      "bottle": 466,
      "flask": 467,
      "large": 468,
      "slender": 469,
      "tube": 470,
      "reagent": 471,
      "av": 472,
      "ack": 473,
      "ige": 474,
      "ld": 475,
      "min": 476,
      "nav": 477,
      "oli": 478,
      "ve": 479,
      "genta": 480,
      "magenta": 481,
      "black": 482,
      "beige": 483,
      "sky": 484,
      "gold": 485,
      "mint": 486,
      "navy": 487,
      "olive": 488,
      "al": 489,
      "teal": 490,
      "digo": 491,
      "indigo": 492,
      "to": 493,
      "ca": 494,
      "ries": 495,
      "erries": 496,
      "ap": 497,
      "apri": 498,
      "berries": 499,
      "co": 500,
      "fr": 501,
      "it": 502,
      "ka": 503,
      "ll": 504,
      "pe": 505,
      "papri": 506,
      "sma": 507,
      "uit": 508,
      "mato": 509,
      "tomato": 510,
      "apple": 511,
      "fruit": 512,
      "paprika": 513,
      "small": 514,
      "at": 515,
      "age": 516,
      "ate": 517,
      "ach": 518,
      "ato": 519,
      "bb": 520,
      "bi": 521,
      "ban": 522,
      "car": 523,
      "con": 524,
      "do": 525,
      "eg": 526,
      "eapple": 527,
      "flow": 528,
      "gp": 529,
      "gar": 530,
      "gon": 531,
      "gin": 532,
      "iw": 533,
      "kin": 534,
      "kiw": 535,
      "lan": 536,
      "mp": 537,
      "mel": 538,
      "neapple": 539,
      "oca": 540,
      "rn": 541,
      "ry": 542,
      "rot": 543,
      "rmel": 544,
      "ut": 545,
      "uli": 546,
      "unk": 547,
      "wberries": 548,
      "wate": 549,
      "rawberries": 550,
      "ger": 551,
      "lemon": 552,
      "onion": 553,
      "erry": 554,
      "pineapple": 555,
      "ana": 556,
      "dragon": 557,
      "potato": 558,
      "meat": 559,
      "strawberries": 560,
      "lic": 561,
      "blueberries": 562,
      "cherries": 563,
      "chunk": 564,
      "cherry": 565,
      "pump": 566,
      "grapes": 567,
      "avoca": 568,
      "cabb": 569,
      "cauli": 570,
      "cocon": 571,
      "corn": 572,
      "pear": 573,
      "peach": 574,
      "big": 575,
      "banana": 576,
      "carrot": 577,
      "eggp": 578,
      "flower": 579,
      "garlic": 580,
      "ginger": 581,
      "kiwi": 582,
      "lant": 583,
      "rmelon": 584,
      "watermelon": 585,
      "potatoes": 586,
      "pumpkin": 587,
      "avocado": 588,
      "cabbage": 589,
      "cauliflower": 590,
      "coconut": 591,
      "eggplant": 592
    },
    "merges": [
      [
        "r",
        "a"
      ],
      [
        "a",
        "r"
      ],
      [
        "g",
        "e"
      ],
      [
        "t",
        "e"
      ],
      [
        "r",
        "i"
      ],
      [
        "l",
        "e"
      ],
      [
        "o",
        "n"
      ],
      [
        "e",
        "r"
      ],
      [
        "o",
        "w"
      ],
      [
        "ge",
        "n"
      ],
      [
        "e",
        "l"
      ],
      [
        "p",
        "i"
      ],
      [
        "m",
        "a"
      ],
      [
        "r",
        "e"
      ],
      [
        "h",
        "o"
      ],
      [
        "t",
        "ri"
      ],
      [
        "l",
        "ow"
      ],
      [
        "o",
        "t"
      ],
      [
        "a",
        "n"
      ],
      [
        "d",
        "ra"
      ],
      [
        "e",
        "ra"
      ],
      [
        "k",
        "e"
      ],
      [
        "x",
        "el"
      ],
      [
        "ar",
        "t"
      ],
      [
        "gen",
        "era"
      ],
      [
        "pi",
        "xel"
      ],
      [
        "ma",
        "ke"
      ],
      [
        "dra",
        "w"
      ],
      [
        "genera",
        "te"
      ],
      [
        "i",
        "on"
      ],
      [
        "p",
        "ot"
      ],
      [
        "pot",
        "ion"
      ],
      [
        "b",
        "o"
      ],
      [
        "g",
        "le"
      ],
      [
        "l",
        "low"
      ],
      [
        "q",
        "u"
      ],
      [
        "s",
        "qu"
      ],
      [
        "ar",
        "e"
      ],
      [
        "ho",
        "llow"
      ],
      [
        "tri",
        "an"
      ],
      [
        "squ",
        "are"
      ],
      [
        "trian",
        "gle"
      ],
      [
        "m",
        "e"
      ],
      [
        "b",
        "l"
      ],
      [
        "d",
        "er"
      ],
      [
        "ar",
        "d"
      ],
      [
        "s",
        "t"
      ],
      [
        "c",
        "k"
      ],
      [
        "t",
        "a"
      ],
      [
        "l",
        "i"
      ],
      [
        "d",
        "i"
      ],
      [
        "u",
        "e"
      ],
      [
        "bl",
        "ue"
      ],
      [
        "e",
        "s"
      ],
      [
        "c",
        "h"
      ],
      [
        "p",
        "ri"
      ],
      [
        "b",
        "e"
      ],
      [
        "s",
        "k"
      ],
      [
        "s",
        "pri"
      ],
      [
        "spri",
        "te"
      ],
      [
        "m",
        "on"
      ],
      [
        "p",
        "es"
      ],
      [
        "a",
        "mon"
      ],
      [
        "c",
        "r"
      ],
      [
        "e",
        "ck"
      ],
      [
        "f",
        "ra"
      ],
      [
        "o",
        "s"
      ],
      [
        "r",
        "der"
      ],
      [
        "s",
        "tri"
      ],
      [
        "z",
        "on"
      ],
      [
        "ri",
        "zon"
      ],
      [
        "er",
        "bo"
      ],
      [
        "ho",
        "rizon"
      ],
      [
        "bo",
        "rder"
      ],
      [
        "ta",
        "l"
      ],
      [
        "di",
        "amon"
      ],
      [
        "ch",
        "eck"
      ],
      [
        "cr",
        "os"
      ],
      [
        "fra",
        "me"
      ],
      [
        "stri",
        "pes"
      ],
      [
        "erbo",
        "ard"
      ],
      [
        "horizon",
        "tal"
      ],
      [
        "diamon",
        "d"
      ],
      [
        "check",
        "erboard"
      ],
      [
        "cros",
        "s"
      ],
      [
        "p",
        "le"
      ],
      [
        "i",
        "n"
      ],
      [
        "p",
        "u"
      ],
      [
        "e",
        "n"
      ],
      [
        "g",
        "ra"
      ],
      [
        "g",
        "re"
      ],
      [
        "n",
        "k"
      ],
      [
        "n",
        "ge"
      ],
      [
        "o",
        "ra"
      ],
      [
        "r",
        "ple"
      ],
      [
        "y",
        "el"
      ],
      [
        "pu",
        "rple"
      ],
      [
        "gre",
        "en"
      ],
      [
        "ora",
        "nge"
      ],
      [
        "yel",
        "low"
      ],
      [
        "b",
        "r"
      ],
      [
        "g",
        "o"
      ],
      [
        "h",
        "i"
      ],
      [
        "i",
        "l"
      ],
      [
        "s",
        "il"
      ],
      [
        "v",
        "er"
      ],
      [
        "w",
        "hi"
      ],
      [
        "ow",
        "n"
      ],
      [
        "pi",
        "nk"
      ],
      [
        "re",
        "d"
      ],
      [
        "li",
        "me"
      ],
      [
        "gra",
        "y"
      ],
      [
        "br",
        "own"
      ],
      [
        "sil",
        "ver"
      ],
      [
        "whi",
        "te"
      ],
      [
        "te",
        "st"
      ],
      [
        "a",
        "gen"
      ],
      [
        "a",
        "sk"
      ],
      [
        "b",
        "re"
      ],
      [
        "b",
        "ot"
      ],
      [
        "d",
        "ard"
      ],
      [
        "e",
        "d"
      ],
      [
        "f",
        "l"
      ],
      [
        "l",
        "ar"
      ],
      [
        "n",
        "der"
      ],
      [
        "s",
        "le"
      ],
      [
        "t",
        "u"
      ],
      [
        "t",
        "le"
      ],
      [
        "w",
        "ed"
      ],
      [
        "re",
        "agen"
      ],
      [
        "an",
        "dard"
      ],
      [
        "st",
        "andard"
      ],
      [
        "bre",
        "wed"
      ],
      [
        "bot",
        "tle"
      ],
      [
        "fl",
        "ask"
      ],
      [
        "lar",
        "ge"
      ],
      [
        "sle",
        "nder"
      ],
      [
        "tu",
        "be"
      ],
      [
        "reagen",
        "t"
      ],
      [
        "a",
        "v"
      ],
      [
        "a",
        "ck"
      ],
      [
        "i",
        "ge"
      ],
      [
        "l",
        "d"
      ],
      [
        "m",
        "in"
      ],
      [
        "n",
        "av"
      ],
      [
        "o",
        "li"
      ],
      [
        "v",
        "e"
      ],
      [
        "gen",
        "ta"
      ],
      [
        "ma",
        "genta"
      ],
      [
        "bl",
        "ack"
      ],
      [
        "be",
        "ige"
      ],
      [
        "sk",
        "y"
      ],
      [
        "go",
        "ld"
      ],
      [
        "min",
        "t"
      ],
      [
        "nav",
        "y"
      ],
      [
        "oli",
        "ve"
      ],
      [
        "a",
        "l"
      ],
      [
        "te",
        "al"
      ],
      [
        "di",
        "go"
      ],
      [
        "in",
        "digo"
      ],
      [
        "t",
        "o"
      ],
      [
        "c",
        "a"
      ],
      [
        "ri",
        "es"
      ],
      [
        "er",
        "ries"
      ],
      [
        "a",
        "p"
      ],
      [
        "a",
        "pri"
      ],
      [
        "b",
        "erries"
      ],
      [
        "c",
        "o"
      ],
      [
        "f",
        "r"
      ],
      [
        "i",
        "t"
      ],
      [
        "k",
        "a"
      ],
      [
        "l",
        "l"
      ],
      [
        "p",
        "e"
      ],
      [
        "p",
        "apri"
      ],
      [
        "s",
        "ma"
      ],
      [
        "u",
        "it"
      ],
      [
        "ma",
        "to"
      ],
      [
        "to",
        "mato"
      ],
      [
        "ap",
        "ple"
      ],
      [
        "fr",
        "uit"
      ],
      [
        "papri",
        "ka"
      ],
      [
        "sma",
        "ll"
      ],
      [
        "a",
        "t"
      ],
      [
        "a",
        "ge"
      ],
      [
        "a",
        "te"
      ],
      [
        "a",
        "ch"
      ],
      [
        "a",
        "to"
      ],
      [
        "b",
        "b"
      ],
      [
        "b",
        "i"
      ],
      [
        "b",
        "an"
      ],
      [
        "c",
        "ar"
      ],
      [
        "c",
        "on"
      ],
      [
        "d",
        "o"
      ],
      [
        "e",
        "g"
      ],
      [
        "e",
        "apple"
      ],
      [
        "f",
        "low"
      ],
      [
        "g",
        "p"
      ],
      [
        "g",
        "ar"
      ],
      [
        "g",
        "on"
      ],
      [
        "g",
        "in"
      ],
      [
        "i",
        "w"
      ],
      [
        "k",
        "in"
      ],
      [
        "k",
        "iw"
      ],
      [
        "l",
        "an"
      ],
      [
        "m",
        "p"
      ],
      [
        "m",
        "el"
      ],
      [
        "n",
        "eapple"
      ],
      [
        "o",
        "ca"
      ],
      [
        "r",
        "n"
      ],
      [
        "r",
        "y"
      ],
      [
        "r",
        "ot"
      ],
      [
        "r",
        "mel"
      ],
      [
        "u",
        "t"
      ],
      [
        "u",
        "li"
      ],
      [
        "u",
        "nk"
      ],
      [
        "w",
        "berries"
      ],
      [
        "w",
        "ate"
      ],
      [
        "ra",
        "wberries"
      ],
      [
        "ge",
        "r"
      ],
      [
        "le",
        "mon"
      ],
      [
        "on",
        "ion"
      ],
      [
        "er",
        "ry"
      ],
      [
        "pi",
        "neapple"
      ],
      [
        "an",
        "a"
      ],
      [
        "dra",
        "gon"
      ],
      [
        "pot",
        "ato"
      ],
      [
        "me",
        "at"
      ],
      [
        "st",
        "rawberries"
      ],
      [
        "li",
        "c"
      ],
      [
        "blue",
        "berries"
      ],
      [
        "ch",
        "erries"
      ],
      [
        "ch",
        "unk"
      ],
      [
        "ch",
        "erry"
      ],
      [
        "pu",
        "mp"
      ],
      [
        "gra",
        "pes"
      ],
      [
        "av",
        "oca"
      ],
      [
        "ca",
        "bb"
      ],
      [
        "ca",
        "uli"
      ],
      [
        "co",
        "con"
      ],
      [
        "co",
        "rn"
      ],
      [
        "pe",
        "ar"
      ],
      [
        "pe",
        "ach"
      ],
      [
        "bi",
        "g"
      ],
      [
        "ban",
        "ana"
      ],
      [
        "car",
        "rot"
      ],
      [
        "eg",
        "gp"
      ],
      [
        "flow",
        "er"
      ],
      [
        "gar",
        "lic"
      ],
      [
        "gin",
        "ger"
      ],
      [
        "kiw",
        "i"
      ],
      [
        "lan",
        "t"
      ],
      [
        "rmel",
        "on"
      ],
      [
        "wate",
        "rmelon"
      ],
      [
        "potato",
        "es"
      ],
      [
        "pump",
        "kin"
      ],
      [
        "avoca",
        "do"
      ],
      [
        "cabb",
        "age"
      ],
      [
        "cauli",
        "flower"
      ],
      [
        "cocon",
        "ut"
      ],
      [
        "eggp",
        "lant"
      ]
    ]
  }
}