{
  "version": "1.0",
  "truncation": null,
  "padding": null,
  "added_tokens": [
    {
      "id": 0,
      "content": "<PAD>",
      "single_word": false,
      "lstrip": false,
      "rstrip": false,
      "normalized": false,
      "special": true
    },
    {
      "id": 1,
      "content": "<SOS>",
      "single_word": false,
      "lstrip": false,
      "rstrip": false,
      "normalized": false,
      "special": true
    },
    {
      "id": 2,
      "content": "<EOS>",
      "single_word": false,
      "lstrip": false,
      "rstrip": false,
      "normalized": false,
      "special": true
    },
    {
      "id": 3,
      "content": "<UNK>",
      "single_word": false,
      "lstrip": false,
      "rstrip": false,
      "normalized": false,
      "special": true
    }
  ],
  "normalizer": null,
  "pre_tokenizer": {
    "type": "Whitespace"
  },
  "post_processor": null,
  "decoder": null,
  "model": {
    "type": "BPE",
    "dropout": null,
    "unk_token": "<UNK>",
    "continuing_subword_prefix": null,
    "end_of_word_suffix": null,
    "fuse_unk": false,
    "byte_fallback": false,
    "ignore_merges": false,
    "vocab": {
      "<PAD>": 0,
      "<SOS>": 1,
      "<EOS>": 2,
      "<UNK>": 3,
      "0": 4,
      "1": 5,
      "2": 6,
      "3": 7,
      "4": 8,
      "5": 9,
      "6": 10,
      "7": 11,
      "8": 12,
      "9": 13,
      "A": 14,
      "B": 15,
      "C": 16,
      "D": 17,
      "E": 18,
      "G": 19,
      "H": 20,
      "I": 21,
      "J": 22,
      "K": 23,
      "L": 24,
      "M": 25,
      "N": 26,
      "O": 27,
      "P": 28,
      "R": 29,
      "S": 30,
      "T": 31,
      "U": 32,
      "V": 33,
      "W": 34,
      "X": 35,
      "Y": 36,
      "Z": 37,
      "[": 38,
      "]": 39,
      "a": 40,
      "b": 41,
      "c": 42,
      "d": 43,
      "e": 44,
      "f": 45,
      "g": 46,
      "h": 47,
      "i": 48,
      "k": 49,
      "l": 50,
      "m": 51,
      "n": 52,
      "o": 53,
      "p": 54,
      "q": 55,
      "r": 56,
      "s": 57,
      "t": 58,
      "u": 59,
      "v": 60,
      "w": 61,
      "x": 62,
      "y": 63,
      "z": 64,
      "1X": 65,
      "1A": 66,
      "5K": 67,
      "3K": 68,
      "1V": 69,
      "1W": 70,
      "16": 71,
      "Re": 72,
      "1N": 73,
      "4K": 74,
      "3W": 75,
      "1K": 76,
      "2W": 77,
      "16W": 78,
      "Re2": 79,
      "1U": 80,
      "6K": 81,
      "2K": 82,
      "4W": 83,
      "2H": 84,
      "16K": 85,
      "1E": 86,
      "2A": 87,
      "7W": 88,
      "1Z": 89,
      "5W": 90,
      "1O": 91,
      "ra": 92,
      "6W": 93,
      "ar": 94,
      "2V": 95,
      "4N": 96,
      "3V": 97,
      "8W": 98,
      "Re3": 99,
      "1M": 100,
      "1H": 101,
      "1L": 102,
      "ge": 103,
      "1D": 104,
      "4H": 105,
      "te": 106,
      "10": 107,
      "ri": 108,
      "2N": 109,
      "le": 110,
      "on": 111,
      "1S": 112,
      "1P": 113,
      "3N": 114,
      "er": 115,
      "ow": 116,
      "gen": 117,
      "el": 118,
      "2E": 119,
      "pi": 120,
      "5N": 121,
      "ma": 122,
      "3E": 123,
      "Re6": 124,
      "2U": 125,
      "2Z": 126,
      "tri": 127,
      "ho": 128,
      "2L": 129,
      "low": 130,
      "re": 131,
      "ot": 132,
      "an": 133,
      "1J": 134,
      "1Y": 135,
      "1B": 136,
      "raw": 137,
      "draw": 138,
      "era": 139,
      "ke": 140,
      "xel": 141,
      "art": 142,
      "genera": 143,
      "pixel": 144,
      "make": 145,
      "generate": 146,
      "3L": 147,
      "4L": 148,
      "3A": 149,
      "ion": 150,
      "pot": 151,
      "5L": 152,
      "potion": 153,
      "1R": 154,
      "gle": 155,
      "llow": 156,
      "qu": 157,
      "are": 158,
      "angle": 159,
      "quare": 160,
      "bo": 161,
      "square": 162,
      "triangle": 163,
      "hollow": 164,
      "4E": 165,
      "12": 166,
      "1G": 167,
      "5E": 168,
      "me": 169,
      "2O": 170,
      "7K": 171,
      "der": 172,
      "ard": 173,
      "2M": 174,
      "6N": 175,
      "5U": 176,
      "bl": 177,
      "5A": 178,
      "st": 179,
      "ck": 180,
      "ta": 181,
      "2D": 182,
      "2P": 183,
      "di": 184,
      "ue": 185,
      "13": 186,
      "4A": 187,
      "6U": 188,
      "Re10": 189,
      "es": 190,
      "li": 191,
      "3O": 192,
      "ch": 193,
      "pri": 194,
      "blue": 195,
      "3U": 196,
      "spri": 197,
      "sprite": 198,
      "be": 199,
      "sk": 200,
      "mon": 201,
      "pes": 202,
      "Re4": 203,
      "amon": 204,
      "eck": 205,
      "fra": 206,
      "os": 207,
      "rder": 208,
      "ros": 209,
      "stri": 210,
      "zon": 211,
      "rizon": 212,
      "erbo": 213,
      "tal": 214,
      "amond": 215,
      "eckerbo": 216,
      "frame": 217,
      "ross": 218,
      "stripes": 219,
      "rizontal": 220,
      "eckerboard": 221,
      "cross": 222,
      "in": 223,
      "horizontal": 224,
      "border": 225,
      "diamond": 226,
      "checkerboard": 227,
      "2Y": 228,
      "6E": 229,
      "7N": 230,
      "11W": 231,
      "13W": 232,
      "12W": 233,
      "14W": 234,
      "9W": 235,
      "ple": 236,
      "Re5": 237,
      "Re8": 238,
      "Re12": 239,
      "3S": 240,
      "5O": 241,
      "6A": 242,
      "4S": 243,
      "9K": 244,
      "en": 245,
      "nge": 246,
      "rple": 247,
      "urple": 248,
      "range": 249,
      "ellow": 250,
      "reen": 251,
      "4U": 252,
      "hi": 253,
      "il": 254,
      "row": 255,
      "ver": 256,
      "ray": 257,
      "hite": 258,
      "ilver": 259,
      "rown": 260,
      "2S": 261,
      "agen": 262,
      "la": 263,
      "3Z": 264,
      "4O": 265,
      "test": 266,
      "go": 267,
      "green": 268,
      "nk": 269,
      "purple": 270,
      "yellow": 271,
      "orange": 272,
      "3P": 273,
      "4P": 274,
      "bre": 275,
      "bot": 276,
      "dard": 277,
      "ed": 278,
      "fla": 279,
      "lar": 280,
      "nder": 281,
      "sle": 282,
      "tu": 283,
      "tle": 284,
      "wed": 285,
      "reagen": 286,
      "andard": 287,
      "standard": 288,
      "brewed": 289,
      "bottle": 290,
      "flask": 291,
      "large": 292,
      "slender": 293,
      "tube": 294,
      "reagent": 295,
      "brown": 296,
      "gray": 297,
      "silver": 298,
      "white": 299,
      "pink": 300,
      "red": 301,
      "lime": 302,
      "3D": 303,
      "6L": 304,
      "8N": 305,
      "15": 306,
      "7E": 307,
      "9N": 308,
      "11K": 309,
      "3B": 310,
      "5P": 311,
      "8K": 312,
      "16N": 313,
      "av": 314,
      "3R": 315,
      "5B": 316,
      "5H": 317,
      "13K": 318,
      "ige": 319,
      "ld": 320,
      "ve": 321,
      "live": 322,
      "int": 323,
      "avy": 324,
      "4B": 325,
      "5S": 326,
      "10K": 327,
      "10N": 328,
      "3H": 329,
      "7L": 330,
      "16E": 331,
      "12K": 332,
      "ack": 333,
      "mint": 334,
      "navy": 335,
      "olive": 336,
      "genta": 337,
      "magenta": 338,
      "black": 339,
      "beige": 340,
      "sky": 341,
      "gold": 342,
      "Re16": 343,
      "11N": 344,
      "2J": 345,
      "4R": 346,
      "5Z": 347,
      "6O": 348,
      "7A": 349,
      "al": 350,
      "digo": 351,
      "2B": 352,
      "4V": 353,
      "5R": 354,
      "9E": 355,
      "16U": 356,
      "teal": 357,
      "indigo": 358,
      "10H": 359,
      "10O": 360,
      "10U": 361,
      "11O": 362,
      "4D": 363,
      "7U": 364,
      "to": 365,
      "10E": 366,
      "10Z": 367,
      "11E": 368,
      "12N": 369,
      "2R": 370,
      "3J": 371,
      "3M": 372,
      "4Z": 373,
      "6H": 374,
      "7B": 375,
      "7O": 376,
      "7P": 377,
      "8E": 378,
      "9A": 379,
      "9O": 380,
      "9U": 381,
      "9Z": 382,
      "16A": 383,
      "16B": 384,
      "16D": 385,
      "16G": 386,
      "16H": 387,
      "16J": 388,
      "16L": 389,
      "16M": 390,
      "16O": 391,
      "16P": 392,
      "16R": 393,
      "16S": 394,
      "16V": 395,
      "16Y": 396,
      "16Z": 397,
      "15K": 398,
      "10A": 399,
      "10B": 400,
      "10D": 401,
      "10G": 402,
      "10J": 403,
      "10L": 404,
      "10M": 405,
      "10P": 406,
      "10R": 407,
      "10S": 408,
      "10V": 409,
      "10Y": 410,
      "11A": 411,
      "11V": 412,
      "11U": 413,
      "11Z": 414,
      "11M": 415,
      "11H": 416,
      "11L": 417,
      "11D": 418,
      "11S": 419,
      "11P": 420,
      "13N": 421,
      "15N": 422,
      "13E": 423,
      "11J": 424,
      "11Y": 425,
      "11B": 426,
      "11R": 427,
      "11G": 428,
      "15E": 429,
      "3G": 430,
      "3Y": 431,
      "5D": 432,
      "5G": 433,
      "5J": 434,
      "5M": 435,
      "5V": 436,
      "5Y": 437,
      "6B": 438,
      "6P": 439,
      "7D": 440,
      "7G": 441,
      "7H": 442,
      "7J": 443,
      "7M": 444,
      "7R": 445,
      "7S": 446,
      "7V": 447,
      "7Y": 448,
      "7Z": 449,
      "9B": 450,
      "9D": 451,
      "9G": 452,
      "9H": 453,
      "9J": 454,
      "9L": 455,
      "9M": 456,
      "9P": 457,
      "9R": 458,
      "9S": 459,
      "9V": 460,
      "9Y": 461,
      "Bl": 462,
      "Orange": 463,
      "Pin": 464,
      "ries": 465,
      "erries": 466,
      "Blue": 467,
      "Brown": 468,
      "Green": 469,
      "Gray": 470,
      "Li": 471,
      "Purple": 472,
      "Silver": 473,
      "White": 474,
      "Yellow": 475,
      "Red": 476,
      "Pink": 477,
      "Lime": 478,
      "ca": 479,
      "ea": 480,
      "12H": 481,
      "12A": 482,
      "12V": 483,
      "14N": 484,
      "13V": 485,
      "12E": 486,
      "12U": 487,
      "12Z": 488,
      "12L": 489,
      "13L": 490,
      "13A": 491,
      "2G": 492,
      "6S": 493,
      "8A": 494,
      "8Z": 495,
      "apri": 496,
      "berries": 497,
      "fr": 498,
      "it": 499,
      "ka": 500,
      "ll": 501,
      "pple": 502,
      "sma": 503,
      "uit": 504,
      "10W": 505,
      "mato": 506,
      "12B": 507,
      "12D": 508,
      "12G": 509,
      "12J": 510,
      "12M": 511,
      "12O": 512,
      "12P": 513,
      "12R": 514,
      "12S": 515,
      "12Y": 516,
      "13B": 517,
      "13D": 518,
      "13G": 519,
      "13H": 520,
      "13J": 521,
      "13M": 522,
      "13O": 523,
      "13P": 524,
      "13R": 525,
      "13S": 526,
      "13U": 527,
      "13Y": 528,
      "13Z": 529,
      "aprika": 530,
      "fruit": 531,
      "small": 532,
      "Be": 533,
      "Bla": 534,
      "Go": 535,
      "Magen": 536,
      "Mint": 537,
      "Navy": 538,
      "Olive": 539,
      "Sk": 540,
      "co": 541,
      "paprika": 542,
      "tomato": 543,
      "Beige": 544,
      "Black": 545,
      "Gold": 546,
      "Magenta": 547,
      "Sky": 548,
      "Te": 549,
      "In": 550,
      "Teal": 551,
      "Indigo": 552,
      "14K": 553,
      "15L": 554,
      "15U": 555,
      "15A": 556,
      "15O": 557,
      "6D": 558,
      "6R": 559,
      "6Z": 560,
      "8H": 561,
      "8L": 562,
      "8O": 563,
      "8P": 564,
      "age": 565,
      "ate": 566,
      "ato": 567,
      "bb": 568,
      "bi": 569,
      "con": 570,
      "do": 571,
      "ear": 572,
      "flow": 573,
      "gg": 574,
      "gon": 575,
      "iw": 576,
      "kin": 577,
      "lan": 578,
      "mp": 579,
      "mel": 580,
      "oca": 581,
      "plan": 582,
      "rn": 583,
      "ry": 584,
      "rot": 585,
      "rmel": 586,
      "ut": 587,
      "uli": 588,
      "unk": 589,
      "ump": 590,
      "rapes": 591,
      "ragon": 592,
      "arli": 593,
      "arrot": 594,
      "ger": 595,
      "erry": 596,
      "ana": 597,
      "anana": 598,
      "rawberries": 599,
      "chunk": 600,
      "inger": 601,
      "15B": 602,
      "15D": 603,
      "15G": 604,
      "15H": 605,
      "15J": 606,
      "15M": 607,
      "15P": 608,
      "15R": 609,
      "15S": 610,
      "15V": 611,
      "15Y": 612,
      "15Z": 613,
      "each": 614,
      "eapple": 615,
      "atermel": 616,
      "atoes": 617,
      "bbage": 618,
      "big": 619,
      "conut": 620,
      "flower": 621,
      "ggplan": 622,
      "iwi": 623,
      "ocado": 624,
      "uliflower": 625,
      "umpkin": 626,
      "arlic": 627,
      "atermelon": 628,
      "ggplant": 629,
      "at": 630,
      "apple": 631,
      "banana": 632,
      "carrot": 633,
      "dragon": 634,
      "eggplant": 635,
      "grapes": 636,
      "ginger": 637,
      "garlic": 638,
      "kiwi": 639,
      "neapple": 640,
      "pear": 641,
      "peach": 642,
      "pumpkin": 643,
      "watermelon": 644,
      "lemon": 645,
      "onion": 646,
      "pineapple": 647,
      "potatoes": 648,
      "meat": 649,
      "strawberries": 650,
      "cherries": 651,
      "cherry": 652,
      "blueberries": 653,
      "avocado": 654,
      "cabbage": 655,
      "cauliflower": 656,
      "corn": 657,
      "coconut": 658,
      "Ch": 659,
      "Ho": 660,
      "Ca": 661,
      "Co": 662,
      "Paprika": 663,
      "To": 664,
      "Hollow": 665,
      "Tomato": 666,
      "Av": 667,
      "Apple": 668,
      "Bo": 669,
      "Banana": 670,
      "Cross": 671,
      "Carrot": 672,
      "Di": 673,
      "Dragon": 674,
      "Eggplant": 675,
      "Grapes": 676,
      "Ginger": 677,
      "Garlic": 678,
      "Kiwi": 679,
      "Le": 680,
      "Mea": 681,
      "On": 682,
      "Pot": 683,
      "Pear": 684,
      "Peach": 685,
      "Pumpkin": 686,
      "St": 687,
      "Square": 688,
      "Tri": 689,
      "Watermelon": 690,
      "Pineapple": 691,
      "Blueberries": 692,
      "Test": 693,
      "Checkerboard": 694,
      "Cherries": 695,
      "Cherry": 696,
      "Horizontal": 697,
      "Cabbage": 698,
      "Cauliflower": 699,
      "Corn": 700,
      "Coconut": 701,
      "Avocado": 702,
      "Border": 703,
      "Diamond": 704,
      "Lemon": 705,
      "Meat": 706,
      "Onion": 707,
      "Potatoes": 708,
      "Strawberries": 709,
      "Triangle": 710
    },
    "merges": [
      [
        "1",
        "X"
      ],
      [
        "1",
        "A"
      ],
      [
        "5",
        "K"
      ],
      [
        "3",
        "K"
      ],
      [
        "1",
        "V"
      ],
      [
        "1",
        "W"
      ],
      [
        "1",
        "6"
      ],
      [
        "R",
        "e"
      ],
      [
        "1",
        "N"
      ],
      [
        "4",
        "K"
      ],
      [
        "3",
        "W"
      ],
      [
        "1",
        "K"
      ],
      [
        "2",
        "W"
      ],
      [
        "16",
        "W"
      ],
      [
        "Re",
        "2"
      ],
      [
        "1",
        "U"
      ],
      [
        "6",
        "K"
      ],
      [
        "2",
        "K"
      ],
      [
        "4",
        "W"
      ],
      [
        "2",
        "H"
      ],
      [
        "16",
        "K"
      ],
      [
        "1",
        "E"
      ],
      [
        "2",
        "A"
      ],
      [
        "7",
        "W"
      ],
      [
        "1",
        "Z"
      ],
      [
        "5",
        "W"
      ],
      [
        "1",
        "O"
      ],
      [
        "r",
        "a"
      ],
      [
        "6",
        "W"
      ],
      [
        "a",
        "r"
      ],
      [
        "2",
        "V"
      ],
      [
        "4",
        "N"
      ],
      [
        "3",
        "V"
      ],
      [
        "8",
        "W"
      ],
      [
        "Re",
        "3"
      ],
      [
        "1",
        "M"
      ],
      [
        "1",
        "H"
      ],
      [
        "1",
        "L"
      ],
      [
        "g",
        "e"
      ],
      [
        "1",
        "D"
      ],
      [
        "4",
        "H"
      ],
      [
        "t",
        "e"
      ],
      [
        "1",
        "0"
      ],
      [
        "r",
        "i"
      ],
      [
        "2",
        "N"
      ],
      [
        "l",
        "e"
      ],
      [
        "o",
        "n"
      ],
      [
        "1",
        "S"
      ],
      [
        "1",
        "P"
      ],
      [
        "3",
        "N"
      ],
      [
        "e",
        "r"
      ],
      [
        "o",
        "w"
      ],
      [
        "ge",
        "n"
      ],
      [
        "e",
        "l"
      ],
      [
        "2",
        "E"
      ],
      [
        "p",
        "i"
      ],
      [
        "5",
        "N"
      ],
      [
        "m",
        "a"
      ],
      [
        "3",
        "E"
      ],
      [
        "Re",
        "6"
      ],
      [
        "2",
        "U"
      ],
      [
        "2",
        "Z"
      ],
      [
        "t",
        "ri"
      ],
      [
        "h",
        "o"
      ],
      [
        "2",
        "L"
      ],
      [
        "l",
        "ow"
      ],
      [
        "r",
        "e"
      ],
      [
        "o",
        "t"
      ],
      [
        "a",
        "n"
      ],
      [
        "1",
        "J"
      ],
      [
        "1",
        "Y"
      ],
      [
        "1",
        "B"
      ],
      [
        "ra",
        "w"
      ],
      [
        "d",
        "raw"
      ],
      [
        "e",
        "ra"
      ],
      [
        "k",
        "e"
      ],
      [
        "x",
        "el"
      ],
      [
        "ar",
        "t"
      ],
      [
        "gen",
        "era"
      ],
      [
        "pi",
        "xel"
      ],
      [
        "ma",
        "ke"
      ],
      [
        "genera",
        "te"
      ],
      [
        "3",
        "L"
      ],
      [
        "4",
        "L"
      ],
      [
        "3",
        "A"
      ],
      [
        "i",
        "on"
      ],
      [
        "p",
        "ot"
      ],
      [
        "5",
        "L"
      ],
      [
        "pot",
        "ion"
      ],
      [
        "1",
        "R"
      ],
      [
        "g",
        "le"
      ],
      [
        "l",
        "low"
      ],
      [
        "q",
        "u"
      ],
      [
        "ar",
        "e"
      ],
      [
        "an",
        "gle"
      ],
      [
        "qu",
        "are"
      ],
      [
        "b",
        "o"
      ],
      [
        "s",
        "quare"
      ],
      [
        "tri",
        "angle"
      ],
      [
        "ho",
        "llow"
      ],
      [
        "4",
        "E"
      ],
      [
        "1",
        "2"
      ],
      [
        "1",
        "G"
      ],
      [
        "5",
        "E"
      ],
      [
        "m",
        "e"
      ],
      [
        "2",
        "O"
      ],
      [
        "7",
        "K"
      ],
      [
        "d",
        "er"
      ],
      [
        "ar",
        "d"
      ],
      [
        "2",
        "M"
      ],
      [
        "6",
        "N"
      ],
      [
        "5",
        "U"
      ],
      [
        "b",
        "l"
      ],
      [
        "5",
        "A"
      ],
      [
        "s",
        "t"
      ],
      [
        "c",
        "k"
      ],
      [
        "t",
        "a"
      ],
      [
        "2",
        "D"
      ],
      [
        "2",
        "P"
      ],
      [
        "d",
        "i"
      ],
      [
        "u",
        "e"
      ],
      [
        "1",
        "3"
      ],
      [
        "4",
        "A"
      ],
      [
        "6",
        "U"
      ],
      [
        "Re",
        "10"
      ],
      [
        "e",
        "s"
      ],
      [
        "l",
        "i"
      ],
      [
        "3",
        "O"
      ],
      [
        "c",
        "h"
      ],
      [
        "p",
        "ri"
      ],
      [
        "bl",
        "ue"
      ],
      [
        "3",
        "U"
      ],
      [
        "s",
        "pri"
      ],
      [
        "spri",
        "te"
      ],
      [
        "b",
        "e"
      ],
      [
        "s",
        "k"
      ],
      [
        "m",
        "on"
      ],
      [
        "p",
        "es"
      ],
      [
        "Re",
        "4"
      ],
      [
        "a",
        "mon"
      ],
      [
        "e",
        "ck"
      ],
      [
        "f",
        "ra"
      ],
      [
        "o",
        "s"
      ],
      [
        "r",
        "der"
      ],
      [
        "r",
        "os"
      ],
      [
        "s",
        "tri"
      ],
      [
        "z",
        "on"
      ],
      [
        "ri",
        "zon"
      ],
      [
        "er",
        "bo"
      ],
      [
        "ta",
        "l"
      ],
      [
        "amon",
        "d"
      ],
      [
        "eck",
        "erbo"
      ],
      [
        "fra",
        "me"
      ],
      [
        "ros",
        "s"
      ],
      [
        "stri",
        "pes"
      ],
      [
        "rizon",
        "tal"
      ],
      [
        "eckerbo",
        "ard"
      ],
      [
        "c",
        "ross"
      ],
      [
        "i",
        "n"
      ],
      [
        "ho",
        "rizontal"
      ],
      [
        "bo",
        "rder"
      ],
      [
        "di",
        "amond"
      ],
      [
        "ch",
        "eckerboard"
      ],
      [
        "2",
        "Y"
      ],
      [
        "6",
        "E"
      ],
      [
        "7",
        "N"
      ],
      [
        "1",
        "1W"
      ],
      [
        "1",
        "3W"
      ],
      [
        "1",
        "2W"
      ],
      [
        "1",
        "4W"
      ],
      [
        "9",
        "W"
      ],
      [
        "p",
        "le"
      ],
      [
        "Re",
        "5"
      ],
      [
        "Re",
        "8"
      ],
      [
        "Re",
        "12"
      ],
      [
        "3",
        "S"
      ],
      [
        "5",
        "O"
      ],
      [
        "6",
        "A"
      ],
      [
        "4",
        "S"
      ],
      [
        "9",
        "K"
      ],
      [
        "e",
        "n"
      ],
      [
        "n",
        "ge"
      ],
      [
        "r",
        "ple"
      ],
      [
        "u",
        "rple"
      ],
      [
        "ra",
        "nge"
      ],
      [
        "el",
        "low"
      ],
      [
        "re",
        "en"
      ],
      [
        "4",
        "U"
      ],
      [
        "h",
        "i"
      ],
      [
        "i",
        "l"
      ],
      [
        "r",
        "ow"
      ],
      [
        "v",
        "er"
      ],
      [
        "ra",
        "y"
      ],
      [
        "hi",
        "te"
      ],
      [
        "il",
        "ver"
      ],
      [
        "row",
        "n"
      ],
      [
        "2",
        "S"
      ],
      [
        "a",
        "gen"
      ],
      [
        "l",
        "a"
      ],
      [
        "3",
        "Z"
      ],
      [
        "4",
        "O"
      ],
      [
        "te",
        "st"
      ],
      [
        "g",
        "o"
      ],
      [
        "g",
        "reen"
      ],
      [
        "n",
        "k"
      ],
      [
        "p",
        "urple"
      ],
      [
        "y",
        "ellow"
      ],
      [
        "o",
        "range"
      ],
      [
        "3",
        "P"
      ],
      [
        "4",
        "P"
      ],
      [
        "b",
        "re"
      ],
      [
        "b",
        "ot"
      ],
      [
        "d",
        "ard"
      ],
      [
        "e",
        "d"
      ],
      [
        "f",
        "la"
      ],
      [
        "l",
        "ar"
      ],
      [
        "n",
        "der"
      ],
      [
        "s",
        "le"
      ],
      [
        "t",
        "u"
      ],
      [
        "t",
        "le"
      ],
      [
        "w",
        "ed"
      ],
      [
        "re",
        "agen"
      ],
      [
        "an",
        "dard"
      ],
      [
        "st",
        "andard"
      ],
      [
        "bre",
        "wed"
      ],
      [
        "bot",
        "tle"
      ],
      [
        "fla",
        "sk"
      ],
      [
        "lar",
        "ge"
      ],
      [
        "sle",
        "nder"
      ],
      [
        "tu",
        "be"
      ],
      [
        "reagen",
        "t"
      ],
      [
        "b",
        "rown"
      ],
      [
        "g",
        "ray"
      ],
      [
        "s",
        "ilver"
      ],
      [
        "w",
        "hite"
      ],
      [
        "pi",
        "nk"
      ],
      [
        "re",
        "d"
      ],
      [
        "li",
        "me"
      ],
      [
        "3",
        "D"
      ],
      [
        "6",
        "L"
      ],
      [
        "8",
        "N"
      ],
      [
        "1",
        "5"
      ],
      [
        "7",
        "E"
      ],
      [
        "9",
        "N"
      ],
      [
        "1",
        "1K"
      ],
      [
        "3",
        "B"
      ],
      [
        "5",
        "P"
      ],
      [
        "8",
        "K"
      ],
      [
        "16",
        "N"
      ],
      [
        "a",
        "v"
      ],
      [
        "3",
        "R"
      ],
      [
        "5",
        "B"
      ],
      [
        "5",
        "H"
      ],
      [
        "1",
        "3K"
      ],
      [
        "i",
        "ge"
      ],
      [
        "l",
        "d"
      ],
      [
        "v",
        "e"
      ],
      [
        "li",
        "ve"
      ],
      [
        "in",
        "t"
      ],
      [
        "av",
        "y"
      ],
      [
        "4",
        "B"
      ],
      [
        "5",
        "S"
      ],
      [
        "10",
        "K"
      ],
      [
        "10",
        "N"
      ],
      [
        "3",
        "H"
      ],
      [
        "7",
        "L"
      ],
      [
        "16",
        "E"
      ],
      [
        "1",
        "2K"
      ],
      [
        "a",
        "ck"
      ],
      [
        "m",
        "int"
      ],
      [
        "n",
        "avy"
      ],
      [
        "o",
        "live"
      ],
      [
        "gen",
        "ta"
      ],
      [
        "ma",
        "genta"
      ],
      [
        "bl",
        "ack"
      ],
      [
        "be",
        "ige"
      ],
      [
        "sk",
        "y"
      ],
      [
        "go",
        "ld"
      ],
      [
        "Re",
        "16"
      ],
      [
        "1",
        "1N"
      ],
      [
        "2",
        "J"
      ],
      [
        "4",
        "R"
      ],
      [
        "5",
        "Z"
      ],
      [
        "6",
        "O"
      ],
      [
        "7",
        "A"
      ],
      [
        "a",
        "l"
      ],
      [
        "di",
        "go"
      ],
      [
        "2",
        "B"
      ],
      [
        "4",
        "V"
      ],
      [
        "5",
        "R"
      ],
      [
        "9",
        "E"
      ],
      [
        "16",
        "U"
      ],
      [
        "te",
        "al"
      ],
      [
        "in",
        "digo"
      ],
      [
        "10",
        "H"
      ],
      [
        "10",
        "O"
      ],
      [
        "10",
        "U"
      ],
      [
        "1",
        "1O"
      ],
      [
        "4",
        "D"
      ],
      [
        "7",
        "U"
      ],
      [
        "t",
        "o"
      ],
      [
        "10",
        "E"
      ],
      [
        "10",
        "Z"
      ],
      [
        "1",
        "1E"
      ],
      [
        "1",
        "2N"
      ],
      [
        "2",
        "R"
      ],
      [
        "3",
        "J"
      ],
      [
        "3",
        "M"
      ],
      [
        "4",
        "Z"
      ],
      [
        "6",
        "H"
      ],
      [
        "7",
        "B"
      ],
      [
        "7",
        "O"
      ],
      [
        "7",
        "P"
      ],
      [
        "8",
        "E"
      ],
      [
        "9",
        "A"
      ],
      [
        "9",
        "O"
      ],
      [
        "9",
        "U"
      ],
      [
        "9",
        "Z"
      ],
      [
        "16",
        "A"
      ],
      [
        "16",
        "B"
      ],
      [
        "16",
        "D"
      ],
      [
        "16",
        "G"
      ],
      [
        "16",
        "H"
      ],
      [
        "16",
        "J"
      ],
      [
        "16",
        "L"
      ],
      [
        "16",
        "M"
      ],
      [
        "16",
        "O"
      ],
      [
        "16",
        "P"
      ],
      [
        "16",
        "R"
      ],
      [
        "16",
        "S"
      ],
      [
        "16",
        "V"
      ],
      [
        "16",
        "Y"
      ],
      [
        "16",
        "Z"
      ],
      [
        "1",
        "5K"
      ],
      [
        "10",
        "A"
      ],
      [
        "10",
        "B"
      ],
      [
        "10",
        "D"
      ],
      [
        "10",
        "G"
      ],
      [
        "10",
        "J"
      ],
      [
        "10",
        "L"
      ],
      [
        "10",
        "M"
      ],
      [
        "10",
        "P"
      ],
      [
        "10",
        "R"
      ],
      [
        "10",
        "S"
      ],
      [
        "10",
        "V"
      ],
      [
        "10",
        "Y"
      ],
      [
        "1",
        "1A"
      ],
      [
        "1",
        "1V"
      ],
      [
        "1",
        "1U"
      ],
      [
        "1",
        "1Z"
      ],
      [
        "1",
        "1M"
      ],
      [
        "1",
        "1H"
      ],
      [
        "1",
        "1L"
      ],
      [
        "1",
        "1D"
      ],
      [
        "1",
        "1S"
      ],
      [
        "1",
        "1P"
      ],
      [
        "1",
        "3N"
      ],
      [
        "1",
        "5N"
      ],
      [
        "1",
        "3E"
      ],
      [
        "1",
        "1J"
      ],
      [
        "1",
        "1Y"
      ],
      [
        "1",
        "1B"
      ],
      [
        "1",
        "1R"
      ],
      [
        "1",
        "1G"
      ],
      [
        "1",
        "5E"
      ],
      [
        "3",
        "G"
      ],
      [
        "3",
        "Y"
      ],
      [
        "5",
        "D"
      ],
      [
        "5",
        "G"
      ],
      [
        "5",
        "J"
      ],
      [
        "5",
        "M"
      ],
      [
        "5",
        "V"
      ],
      [
        "5",
        "Y"
      ],
      [
        "6",
        "B"
      ],
      [
        "6",
        "P"
      ],
      [
        "7",
        "D"
      ],
      [
        "7",
        "G"
      ],
      [
        "7",
        "H"
      ],
      [
        "7",
        "J"
      ],
      [
        "7",
        "M"
      ],
      [
        "7",
        "R"
      ],
      [
        "7",
        "S"
      ],
      [
        "7",
        "V"
      ],
      [
        "7",
        "Y"
      ],
      [
        "7",
        "Z"
      ],
      [
        "9",
        "B"
      ],
      [
        "9",
        "D"
      ],
      [
        "9",
        "G"
      ],
      [
        "9",
        "H"
      ],
      [
        "9",
        "J"
      ],
      [
        "9",
        "L"
      ],
      [
        "9",
        "M"
      ],
      [
        "9",
        "P"
      ],
      [
        "9",
        "R"
      ],
      [
        "9",
        "S"
      ],
      [
        "9",
        "V"
      ],
      [
        "9",
        "Y"
      ],
      [
        "B",
        "l"
      ],
      [
        "O",
        "range"
      ],
      [
        "P",
        "in"
      ],
      [
        "ri",
        "es"
      ],
      [
        "er",
        "ries"
      ],
      [
        "Bl",
        "ue"
      ],
      [
        "B",
        "rown"
      ],
      [
        "G",
        "reen"
      ],
      [
        "G",
        "ray"
      ],
      [
        "L",
        "i"
      ],
      [
        "P",
        "urple"
      ],
      [
        "S",
        "ilver"
      ],
      [
        "W",
        "hite"
      ],
      [
        "Y",
        "ellow"
      ],
      [
        "Re",
        "d"
      ],
      [
        "Pin",
        "k"
      ],
      [
        "Li",
        "me"
      ],
      [
        "c",
        "a"
      ],
      [
        "e",
        "a"
      ],
      [
        "1",
        "2H"
      ],
      [
        "1",
        "2A"
      ],
      [
        "1",
        "2V"
      ],
      [
        "1",
        "4N"
      ],
      [
        "1",
        "3V"
      ],
      [
        "1",
        "2E"
      ],
      [
        "1",
        "2U"
      ],
      [
        "1",
        "2Z"
      ],
      [
        "1",
        "2L"
      ],
      [
        "1",
        "3L"
      ],
      [
        "1",
        "3A"
      ],
      [
        "2",
        "G"
      ],
      [
        "6",
        "S"
      ],
      [
        "8",
        "A"
      ],
      [
        "8",
        "Z"
      ],
      [
        "a",
        "pri"
      ],
      [
        "b",
        "erries"
      ],
      [
        "f",
        "r"
      ],
      [
        "i",
        "t"
      ],
      [
        "k",
        "a"
      ],
      [
        "l",
        "l"
      ],
      [
        "p",
        "ple"
      ],
      [
        "s",
        "ma"
      ],
      [
        "u",
        "it"
      ],
      [
        "10",
        "W"
      ],
      [
        "ma",
        "to"
      ],
      [
        "12",
        "B"
      ],
      [
        "12",
        "D"
      ],
      [
        "12",
        "G"
      ],
      [
        "12",
        "J"
      ],
      [
        "12",
        "M"
      ],
      [
        "12",
        "O"
      ],
      [
        "12",
        "P"
      ],
      [
        "12",
        "R"
      ],
      [
        "12",
        "S"
      ],
      [
        "12",
        "Y"
      ],
      [
        "13",
        "B"
      ],
      [
        "13",
        "D"
      ],
      [
        "13",
        "G"
      ],
      [
        "13",
        "H"
      ],
      [
        "13",
        "J"
      ],
      [
        "13",
        "M"
      ],
      [
        "13",
        "O"
      ],
      [
        "13",
        "P"
      ],
      [
        "13",
        "R"
      ],
      [
        "13",
        "S"
      ],
      [
        "13",
        "U"
      ],
      [
        "13",
        "Y"
      ],
      [
        "13",
        "Z"
      ],
      [
        "apri",
        "ka"
      ],
      [
        "fr",
        "uit"
      ],
      [
        "sma",
        "ll"
      ],
      [
        "B",
        "e"
      ],
      [
        "B",
        "la"
      ],
      [
        "G",
        "o"
      ],
      [
        "M",
        "agen"
      ],
      [
        "M",
        "int"
      ],
      [
        "N",
        "avy"
      ],
      [
        "O",
        "live"
      ],
      [
        "S",
        "k"
      ],
      [
        "c",
        "o"
      ],
      [
        "p",
        "aprika"
      ],
      [
        "to",
        "mato"
      ],
      [
        "Be",
        "ige"
      ],
      [
        "Bla",
        "ck"
      ],
      [
        "Go",
        "ld"
      ],
      [
        "Magen",
        "ta"
      ],
      [
        "Sk",
        "y"
      ],
      [
        "T",
        "e"
      ],
      [
        "I",
        "n"
      ],
      [
        "Te",
        "al"
      ],
      [
        "In",
        "digo"
      ],
      [
        "1",
        "4K"
      ],
      [
        "1",
        "5L"
      ],
      [
        "1",
        "5U"
      ],
      [
        "1",
        "5A"
      ],
      [
        "1",
        "5O"
      ],
      [
        "6",
        "D"
      ],
      [
        "6",
        "R"
      ],
      [
        "6",
        "Z"
      ],
      [
        "8",
        "H"
      ],
      [
        "8",
        "L"
      ],
      [
        "8",
        "O"
      ],
      [
        "8",
        "P"
      ],
      [
        "a",
        "ge"
      ],
      [
        "a",
        "te"
      ],
      [
        "a",
        "to"
      ],
      [
        "b",
        "b"
      ],
      [
        "b",
        "i"
      ],
      [
        "c",
        "on"
      ],
      [
        "d",
        "o"
      ],
      [
        "e",
        "ar"
      ],
      [
        "f",
        "low"
      ],
      [
        "g",
        "g"
      ],
      [
        "g",
        "on"
      ],
      [
        "i",
        "w"
      ],
      [
        "k",
        "in"
      ],
      [
        "l",
        "an"
      ],
      [
        "m",
        "p"
      ],
      [
        "m",
        "el"
      ],
      [
        "o",
        "ca"
      ],
      [
        "p",
        "lan"
      ],
      [
        "r",
        "n"
      ],
      [
        "r",
        "y"
      ],
      [
        "r",
        "ot"
      ],
      [
        "r",
        "mel"
      ],
      [
        "u",
        "t"
      ],
      [
        "u",
        "li"
      ],
      [
        "u",
        "nk"
      ],
      [
        "u",
        "mp"
      ],
      [
        "ra",
        "pes"
      ],
      [
        "ra",
        "gon"
      ],
      [
        "ar",
        "li"
      ],
      [
        "ar",
        "rot"
      ],
      [
        "ge",
        "r"
      ],
      [
        "er",
        "ry"
      ],
      [
        "an",
        "a"
      ],
      [
        "an",
        "ana"
      ],
      [
        "raw",
        "berries"
      ],
      [
        "ch",
        "unk"
      ],
      [
        "in",
        "ger"
      ],
      [
        "15",
        "B"
      ],
      [
        "15",
        "D"
      ],
      [
        "15",
        "G"
      ],
      [
        "15",
        "H"
      ],
      [
        "15",
        "J"
      ],
      [
        "15",
        "M"
      ],
      [
        "15",
        "P"
      ],
      [
        "15",
        "R"
      ],
      [
        "15",
        "S"
      ],
      [
        "15",
        "V"
      ],
      [
        "15",
        "Y"
      ],
      [
        "15",
        "Z"
      ],
      [
        "ea",
        "ch"
      ],
      [
        "ea",
        "pple"
      ],
      [
        "ate",
        "rmel"
      ],
      [
        "ato",
        "es"
      ],
      [
        "bb",
        "age"
      ],
      [
        "bi",
        "g"
      ],
      [
        "con",
        "ut"
      ],
      [
        "flow",
        "er"
      ],
      [
        "gg",
        "plan"
      ],
      [
        "iw",
        "i"
      ],
      [
        "oca",
        "do"
      ],
      [
        "uli",
        "flower"
      ],
      [
        "ump",
        "kin"
      ],
      [
        "arli",
        "c"
      ],
      [
        "atermel",
        "on"
      ],
      [
        "ggplan",
        "t"
      ],
      [
        "a",
        "t"
      ],
      [
        "a",
        "pple"
      ],
      [
        "b",
        "anana"
      ],
      [
        "c",
        "arrot"
      ],
      [
        "d",
        "ragon"
      ],
      [
        "e",
        "ggplant"
      ],
      [
        "g",
        "rapes"
      ],
      [
        "g",
        "inger"
      ],
      [
        "g",
        "arlic"
      ],
      [
        "k",
        "iwi"
      ],
      [
        "n",
        "eapple"
      ],
      [
        "p",
        "ear"
      ],
      [
        "p",
        "each"
      ],
      [
        "p",
        "umpkin"
      ],
      [
        "w",
        "atermelon"
      ],
      [
        "le",
        "mon"
      ],
      [
        "on",
        "ion"
      ],
      [
        "pi",
        "neapple"
      ],
      [
        "pot",
        "atoes"
      ],
      [
        "me",
        "at"
      ],
      [
        "st",
        "rawberries"
      ],
      [
        "ch",
        "erries"
      ],
      [
        "ch",
        "erry"
      ],
      [
        "blue",
        "berries"
      ],
      [
        "av",
        "ocado"
      ],
      [
        "ca",
        "bbage"
      ],
      [
        "ca",
        "uliflower"
      ],
      [
        "co",
        "rn"
      ],
      [
        "co",
        "conut"
      ],
      [
        "C",
        "h"
      ],
      [
        "H",
        "o"
      ],
      [
        "C",
        "a"
      ],
      [
        "C",
        "o"
      ],
      [
        "P",
        "aprika"
      ],
      [
        "T",
        "o"
      ],
      [
        "Ho",
        "llow"
      ],
      [
        "To",
        "mato"
      ],
      [
        "A",
        "v"
      ],
      [
        "A",
        "pple"
      ],
      [
        "B",
        "o"
      ],
      [
        "B",
        "anana"
      ],
      [
        "C",
        "ross"
      ],
      [
        "C",
        "arrot"
      ],
      [
        "D",
        "i"
      ],
      [
        "D",
        "ragon"
      ],
      [
        "E",
        "ggplant"
      ],
      [
        "G",
        "rapes"
      ],
      [
        "G",
        "inger"
      ],
      [
        "G",
        "arlic"
      ],
      [
        "K",
        "iwi"
      ],
      [
        "L",
        "e"
      ],
      [
        "M",
        "ea"
      ],
      [
        "O",
        "n"
      ],
      [
        "P",
        "ot"
      ],
      [
        "P",
        "ear"
      ],
      [
        "P",
        "each"
      ],
      [
        "P",
        "umpkin"
      ],
      [
        "S",
        "t"
      ],
      [
        "S",
        "quare"
      ],
      [
        "T",
        "ri"
      ],
      [
        "W",
        "atermelon"
      ],
      [
        "Pin",
        "eapple"
      ],
      [
        "Blue",
        "berries"
      ],
      [
        "Te",
        "st"
      ],
      [
        "Ch",
        "eckerboard"
      ],
      [
        "Ch",
        "erries"
      ],
      [
        "Ch",
        "erry"
      ],
      [
        "Ho",
        "rizontal"
      ],
      [
        "Ca",
        "bbage"
      ],
      [
        "Ca",
        "uliflower"
      ],
      [
        "Co",
        "rn"
      ],
      [
        "Co",
        "conut"
      ],
      [
        "Av",
        "ocado"
      ],
      [
        "Bo",
        "rder"
      ],
      [
        "Di",
        "amond"
      ],
      [
        "Le",
        "mon"
      ],
      [
        "Mea",
        "t"
      ],
      [
        "On",
        "ion"
      ],
      [
        "Pot",
        "atoes"
      ],
      [
        "St",
        "rawberries"
      ],
      [
        "Tri",
        "angle"
      ]
    ]
  }
}