{
  "version": "1.0",
  "truncation": null,
  "padding": null,
  "added_tokens": [
    {
      "id": 0,
      "content": "<PAD>",
      "single_word": false,
      "lstrip": false,
      "rstrip": false,
      "normalized": false,
      "special": true
    },
    {
      "id": 1,
      "content": "<SOS>",
      "single_word": false,
      "lstrip": false,
      "rstrip": false,
      "normalized": false,
      "special": true
    },
    {
      "id": 2,
      "content": "<EOS>",
      "single_word": false,
      "lstrip": false,
      "rstrip": false,
      "normalized": false,
      "special": true
    },
    {
      "id": 3,
      "content": "<UNK>",
      "single_word": false,
      "lstrip": false,
      "rstrip": false,
      "normalized": false,
      "special": true
    }
  ],
  "normalizer": null,
  "pre_tokenizer": {
    "type": "Whitespace"
  },
  "post_processor": null,
  "decoder": null,
  "model": {
    "type": "BPE",
    "dropout": null,
    "unk_token": "<UNK>",
    "continuing_subword_prefix": null,
    "end_of_word_suffix": null,
    "fuse_unk": false,
    "byte_fallback": false,
    "ignore_merges": false,
    "vocab": {
      "<PAD>": 0,
      "<SOS>": 1,
      "<EOS>": 2,
      "<UNK>": 3,
      "0": 4,
      "1": 5,
      "2": 6,
      "3": 7,
      "4": 8,
      "5": 9,
      "6": 10,
      "7": 11,
      "8": 12,
      "9": 13,
      "A": 14,
      "B": 15,
      "C": 16,
      "D": 17,
      "E": 18,
      "G": 19,
      "H": 20,
      "J": 21,
      "K": 22,
      "L": 23,
      "M": 24,
      "N": 25,
      "O": 26,
      "P": 27,
      "R": 28,
      "S": 29,
      "U": 30,
      "V": 31,
      "W": 32,
      "X": 33,
      "Y": 34,
      "Z": 35,
      "[": 36,
      "]": 37,
      "a": 38,
      "b": 39,
      "c": 40,
      "d": 41,
      "e": 42,
      "f": 43,
      "g": 44,
      "h": 45,
      "i": 46,
      "k": 47,
      "l": 48,
      "m": 49,
      "n": 50,
      "o": 51,
      "p": 52,
      "q": 53,
      "r": 54,
      "s": 55,
      "t": 56,
      "u": 57,
      "v": 58,
      "w": 59,
      "x": 60,
      "y": 61,
      "z": 62,
      "1X": 63,
      "Re": 64,
      "6W": 65,
      "3W": 66,
      "16W": 67,
      "1W": 68,
      "Re2": 69,
      "2W": 70,
      "7W": 71,
      "4W": 72,
      "5W": 73,
      "re": 74,
      "16": 75,
      "8W": 76,
      "le": 77,
      "ri": 78,
      "er": 79,
      "ol": 80,
      "Re3": 81,
      "te": 82,
      "10": 83,
      "in": 84,
      "ple": 85,
      "an": 86,
      "or": 87,
      "tri": 88,
      "Re6": 89,
      "ow": 90,
      "11": 91,
      "12": 92,
      "ra": 93,
      "ate": 94,
      "ou": 95,
      "ge": 96,
      "low": 97,
      "ar": 98,
      "der": 99,
      "me": 100,
      "col": 101,
      "ke": 102,
      "ro": 103,
      "are": 104,
      "gle": 105,
      "hol": 106,
      "on": 107,
      "qu": 108,
      "squ": 109,
      "angle": 110,
      "triangle": 111,
      "hollow": 112,
      "square": 113,
      "as": 114,
      "pleas": 115,
      "please": 116,
      "13": 117,
      "ch": 118,
      "el": 119,
      "you": 120,
      "red": 121,
      "int": 122,
      "1A": 123,
      "1B": 124,
      "1D": 125,
      "1E": 126,
      "1G": 127,
      "1H": 128,
      "1J": 129,
      "1K": 130,
      "1L": 131,
      "1M": 132,
      "1N": 133,
      "1O": 134,
      "1P": 135,
      "1R": 136,
      "1S": 137,
      "1U": 138,
      "1V": 139,
      "1Y": 140,
      "1Z": 141,
      "ma": 142,
      "gen": 143,
      "be": 144,
      "si": 145,
      "ck": 146,
      "ta": 147,
      "aint": 148,
      "bl": 149,
      "gri": 150,
      "ix": 151,
      "nder": 152,
      "ored": 153,
      "pix": 154,
      "reate": 155,
      "erate": 156,
      "raw": 157,
      "art": 158,
      "colored": 159,
      "grid": 160,
      "pixel": 161,
      "create": 162,
      "draw": 163,
      "paint": 164,
      "render": 165,
      "make": 166,
      "generate": 167,
      "au": 168,
      "fu": 169,
      "ifu": 170,
      "mple": 171,
      "tro": 172,
      "tifu": 173,
      "x16": 174,
      "retro": 175,
      "16x16": 176,
      "beau": 177,
      "simple": 178,
      "tiful": 179,
      "beautiful": 180,
      "am": 181,
      "bo": 182,
      "bor": 183,
      "cro": 184,
      "di": 185,
      "es": 186,
      "eck": 187,
      "fra": 188,
      "ho": 189,
      "pes": 190,
      "ss": 191,
      "stri": 192,
      "zon": 193,
      "rizon": 194,
      "erbo": 195,
      "ard": 196,
      "ond": 197,
      "check": 198,
      "tal": 199,
      "amond": 200,
      "border": 201,
      "cross": 202,
      "diamond": 203,
      "frame": 204,
      "horizon": 205,
      "stripes": 206,
      "erboard": 207,
      "checkerboard": 208,
      "horizontal": 209,
      "15": 210,
      "13W": 211,
      "11W": 212,
      "12W": 213,
      "14W": 214,
      "9W": 215,
      "Re4": 216,
      "Re5": 217,
      "Re8": 218,
      "Re10": 219,
      "Re12": 220,
      "can": 221,
      "cou": 222,
      "for": 223,
      "it": 224,
      "ld": 225,
      "sy": 226,
      "ste": 227,
      "tch": 228,
      "ue": 229,
      "wit": 230,
      "color": 231,
      "ketch": 232,
      "blue": 233,
      "could": 234,
      "syste": 235,
      "with": 236,
      "system": 237,
      "sketch": 238,
      "en": 239,
      "av": 240,
      "ack": 241,
      "br": 242,
      "gre": 243,
      "gol": 244,
      "gra": 245,
      "hi": 246,
      "iv": 247,
      "ige": 248,
      "ime": 249,
      "ky": 250,
      "lv": 251,
      "lime": 252,
      "mint": 253,
      "nav": 254,
      "pu": 255,
      "pin": 256,
      "rple": 257,
      "sky": 258,
      "whi": 259,
      "yel": 260,
      "oliv": 261,
      "ange": 262,
      "orange": 263,
      "own": 264,
      "magen": 265,
      "beige": 266,
      "silv": 267,
      "black": 268,
      "brown": 269,
      "green": 270,
      "gold": 271,
      "gray": 272,
      "navy": 273,
      "purple": 274,
      "pink": 275,
      "white": 276,
      "yellow": 277,
      "olive": 278,
      "magenta": 279,
      "silver": 280,
      "Re16": 281,
      "16A": 282,
      "16B": 283,
      "16D": 284,
      "16E": 285,
      "16G": 286,
      "16H": 287,
      "16J": 288,
      "16K": 289,
      "16L": 290,
      "16M": 291,
      "16N": 292,
      "16O": 293,
      "16P": 294,
      "16R": 295,
      "16S": 296,
      "16U": 297,
      "16V": 298,
      "16Y": 299,
      "16Z": 300,
      "3A": 301,
      "3B": 302,
      "3D": 303,
      "3E": 304,
      "3G": 305,
      "3H": 306,
      "3J": 307,
      "3K": 308,
      "3L": 309,
      "3M": 310,
      "3N": 311,
      "3O": 312,
      "3P": 313,
      "3R": 314,
      "3S": 315,
      "3U": 316,
      "3V": 317,
      "3Y": 318,
      "3Z": 319,
      "5A": 320,
      "5B": 321,
      "5D": 322,
      "5E": 323,
      "5G": 324,
      "5H": 325,
      "5J": 326,
      "5K": 327,
      "5L": 328,
      "5M": 329,
      "5N": 330,
      "5O": 331,
      "5P": 332,
      "5R": 333,
      "5S": 334,
      "5U": 335,
      "5V": 336,
      "5Y": 337,
      "5Z": 338,
      "7A": 339,
      "7B": 340,
      "7D": 341,
      "7E": 342,
      "7G": 343,
      "7H": 344,
      "7J": 345,
      "7K": 346,
      "7L": 347,
      "7M": 348,
      "7N": 349,
      "7O": 350,
      "7P": 351,
      "7R": 352,
      "7S": 353,
      "7U": 354,
      "7V": 355,
      "7Y": 356,
      "7Z": 357,
      "9A": 358,
      "9B": 359,
      "9D": 360,
      "9E": 361,
      "9G": 362,
      "9H": 363,
      "9J": 364,
      "9K": 365,
      "9L": 366,
      "9M": 367,
      "9N": 368,
      "9O": 369,
      "9P": 370,
      "9R": 371,
      "9S": 372,
      "9U": 373,
      "9V": 374,
      "9Y": 375,
      "9Z": 376,
      "Create": 377,
      "Draw": 378,
      "Gen": 379,
      "Ma": 380,
      "Paint": 381,
      "Sketch": 382,
      "Render": 383,
      "10A": 384,
      "10B": 385,
      "10D": 386,
      "10E": 387,
      "10G": 388,
      "10H": 389,
      "10J": 390,
      "10K": 391,
      "10L": 392,
      "10M": 393,
      "10N": 394,
      "10O": 395,
      "10P": 396,
      "10R": 397,
      "10S": 398,
      "10U": 399,
      "10V": 400,
      "10Y": 401,
      "10Z": 402,
      "11A": 403,
      "11B": 404,
      "11D": 405,
      "11E": 406,
      "11G": 407,
      "11H": 408,
      "11J": 409,
      "11K": 410,
      "11L": 411,
      "11M": 412,
      "11N": 413,
      "11O": 414,
      "11P": 415,
      "11R": 416,
      "11S": 417,
      "11U": 418,
      "11V": 419,
      "11Y": 420,
      "11Z": 421,
      "Generate": 422,
      "Make": 423,
      "2A": 424,
      "2B": 425,
      "2D": 426,
      "2E": 427,
      "2G": 428,
      "2H": 429,
      "2J": 430,
      "2K": 431,
      "2L": 432,
      "2M": 433,
      "2N": 434,
      "2O": 435,
      "2P": 436,
      "2R": 437,
      "2S": 438,
      "2U": 439,
      "2V": 440,
      "2Y": 441,
      "2Z": 442,
      "12A": 443,
      "12B": 444,
      "12D": 445,
      "12E": 446,
      "12G": 447,
      "12H": 448,
      "12J": 449,
      "12K": 450,
      "12L": 451,
      "12M": 452,
      "12N": 453,
      "12O": 454,
      "12P": 455,
      "12R": 456,
      "12S": 457,
      "12U": 458,
      "12V": 459,
      "12Y": 460,
      "12Z": 461,
      "13A": 462,
      "13B": 463,
      "13D": 464,
      "13E": 465,
      "13G": 466,
      "13H": 467,
      "13J": 468,
      "13K": 469,
      "13L": 470,
      "13M": 471,
      "13N": 472,
      "13O": 473,
      "13P": 474,
      "13R": 475,
      "13S": 476,
      "13U": 477,
      "13V": 478,
      "13Y": 479,
      "13Z": 480,
      "15A": 481,
      "15B": 482,
      "15D": 483,
      "15E": 484,
      "15G": 485,
      "15H": 486,
      "15J": 487,
      "15K": 488,
      "15L": 489,
      "15M": 490,
      "15N": 491,
      "15O": 492,
      "15P": 493,
      "15R": 494,
      "15S": 495,
      "15U": 496,
      "15V": 497,
      "15Y": 498,
      "15Z": 499
    },
    "merges": [
      [
        "1",
        "X"
      ],
      [
        "R",
        "e"
      ],
      [
        "6",
        "W"
      ],
      [
        "3",
        "W"
      ],
      [
        "1",
        "6W"
      ],
      [
        "1",
        "W"
      ],
      [
        "Re",
        "2"
      ],
      [
        "2",
        "W"
      ],
      [
        "7",
        "W"
      ],
      [
        "4",
        "W"
      ],
      [
        "5",
        "W"
      ],
      [
        "r",
        "e"
      ],
      [
        "1",
        "6"
      ],
      [
        "8",
        "W"
      ],
      [
        "l",
        "e"
      ],
      [
        "r",
        "i"
      ],
      [
        "e",
        "r"
      ],
      [
        "o",
        "l"
      ],
      [
        "Re",
        "3"
      ],
      [
        "t",
        "e"
      ],
      [
        "1",
        "0"
      ],
      [
        "i",
        "n"
      ],
      [
        "p",
        "le"
      ],
      [
        "a",
        "n"
      ],
      [
        "o",
        "r"
      ],
      [
        "t",
        "ri"
      ],
      [
        "Re",
        "6"
      ],
      [
        "o",
        "w"
      ],
      [
        "1",
        "1"
      ],
      [
        "1",
        "2"
      ],
      [
        "r",
        "a"
      ],
      [
        "a",
        "te"
      ],
      [
        "o",
        "u"
      ],
      [
        "g",
        "e"
      ],
      [
        "l",
        "ow"
      ],
      [
        "a",
        "r"
      ],
      [
        "d",
        "er"
      ],
      [
        "m",
        "e"
      ],
      [
        "c",
        "ol"
      ],
      [
        "k",
        "e"
      ],
      [
        "r",
        "o"
      ],
      [
        "a",
        "re"
      ],
      [
        "g",
        "le"
      ],
      [
        "h",
        "ol"
      ],
      [
        "o",
        "n"
      ],
      [
        "q",
        "u"
      ],
      [
        "s",
        "qu"
      ],
      [
        "an",
        "gle"
      ],
      [
        "tri",
        "angle"
      ],
      [
        "hol",
        "low"
      ],
      [
        "squ",
        "are"
      ],
      [
        "a",
        "s"
      ],
      [
        "ple",
        "as"
      ],
      [
        "pleas",
        "e"
      ],
      [
        "1",
        "3"
      ],
      [
        "c",
        "h"
      ],
      [
        "e",
        "l"
      ],
      [
        "y",
        "ou"
      ],
      [
        "re",
        "d"
      ],
      [
        "in",
        "t"
      ],
      [
        "1",
        "A"
      ],
      [
        "1",
        "B"
      ],
      [
        "1",
        "D"
      ],
      [
        "1",
        "E"
      ],
      [
        "1",
        "G"
      ],
      [
        "1",
        "H"
      ],
      [
        "1",
        "J"
      ],
      [
        "1",
        "K"
      ],
      [
        "1",
        "L"
      ],
      [
        "1",
        "M"
      ],
      [
        "1",
        "N"
      ],
      [
        "1",
        "O"
      ],
      [
        "1",
        "P"
      ],
      [
        "1",
        "R"
      ],
      [
        "1",
        "S"
      ],
      [
        "1",
        "U"
      ],
      [
        "1",
        "V"
      ],
      [
        "1",
        "Y"
      ],
      [
        "1",
        "Z"
      ],
      [
        "m",
        "a"
      ],
      [
        "ge",
        "n"
      ],
      [
        "b",
        "e"
      ],
      [
        "s",
        "i"
      ],
      [
        "c",
        "k"
      ],
      [
        "t",
        "a"
      ],
      [
        "a",
        "int"
      ],
      [
        "b",
        "l"
      ],
      [
        "g",
        "ri"
      ],
      [
        "i",
        "x"
      ],
      [
        "n",
        "der"
      ],
      [
        "o",
        "red"
      ],
      [
        "p",
        "ix"
      ],
      [
        "re",
        "ate"
      ],
      [
        "er",
        "ate"
      ],
      [
        "ra",
        "w"
      ],
      [
        "ar",
        "t"
      ],
      [
        "col",
        "ored"
      ],
      [
        "gri",
        "d"
      ],
      [
        "pix",
        "el"
      ],
      [
        "c",
        "reate"
      ],
      [
        "d",
        "raw"
      ],
      [
        "p",
        "aint"
      ],
      [
        "re",
        "nder"
      ],
      [
        "ma",
        "ke"
      ],
      [
        "gen",
        "erate"
      ],
      [
        "a",
        "u"
      ],
      [
        "f",
        "u"
      ],
      [
        "i",
        "fu"
      ],
      [
        "m",
        "ple"
      ],
      [
        "t",
        "ro"
      ],
      [
        "t",
        "ifu"
      ],
      [
        "x",
        "16"
      ],
      [
        "re",
        "tro"
      ],
      [
        "16",
        "x16"
      ],
      [
        "be",
        "au"
      ],
      [
        "si",
        "mple"
      ],
      [
        "tifu",
        "l"
      ],
      [
        "beau",
        "tiful"
      ],
      [
        "a",
        "m"
      ],
      [
        "b",
        "o"
      ],
      [
        "b",
        "or"
      ],
      [
        "c",
        "ro"
      ],
      [
        "d",
        "i"
      ],
      [
        "e",
        "s"
      ],
      [
        "e",
        "ck"
      ],
      [
        "f",
        "ra"
      ],
      [
        "h",
        "o"
      ],
      [
        "p",
        "es"
      ],
      [
        "s",
        "s"
      ],
      [
        "s",
        "tri"
      ],
      [
        "z",
        "on"
      ],
      [
        "ri",
        "zon"
      ],
      [
        "er",
        "bo"
      ],
      [
        "ar",
        "d"
      ],
      [
        "on",
        "d"
      ],
      [
        "ch",
        "eck"
      ],
      [
        "ta",
        "l"
      ],
      [
        "am",
        "ond"
      ],
      [
        "bor",
        "der"
      ],
      [
        "cro",
        "ss"
      ],
      [
        "di",
        "amond"
      ],
      [
        "fra",
        "me"
      ],
      [
        "ho",
        "rizon"
      ],
      [
        "stri",
        "pes"
      ],
      [
        "erbo",
        "ard"
      ],
      [
        "check",
        "erboard"
      ],
      [
        "horizon",
        "tal"
      ],
      [
        "1",
        "5"
      ],
      [
        "1",
        "3W"
      ],
      [
        "1",
        "1W"
      ],
      [
        "1",
        "2W"
      ],
      [
        "1",
        "4W"
      ],
      [
        "9",
        "W"
      ],
      [
        "Re",
        "4"
      ],
      [
        "Re",
        "5"
      ],
      [
        "Re",
        "8"
      ],
      [
        "Re",
        "10"
      ],
      [
        "Re",
        "12"
      ],
      [
        "c",
        "an"
      ],
      [
        "c",
        "ou"
      ],
      [
        "f",
        "or"
      ],
      [
        "i",
        "t"
      ],
      [
        "l",
        "d"
      ],
      [
        "s",
        "y"
      ],
      [
        "s",
        "te"
      ],
      [
        "t",
        "ch"
      ],
      [
        "u",
        "e"
      ],
      [
        "w",
        "it"
      ],
      [
        "col",
        "or"
      ],
      [
        "ke",
        "tch"
      ],
      [
        "bl",
        "ue"
      ],
      [
        "cou",
        "ld"
      ],
      [
        "sy",
        "ste"
      ],
      [
        "wit",
        "h"
      ],
      [
        "syste",
        "m"
      ],
      [
        "s",
        "ketch"
      ],
      [
        "e",
        "n"
      ],
      [
        "a",
        "v"
      ],
      [
        "a",
        "ck"
      ],
      [
        "b",
        "r"
      ],
      [
        "g",
        "re"
      ],
      [
        "g",
        "ol"
      ],
      [
        "g",
        "ra"
      ],
      [
        "h",
        "i"
      ],
      [
        "i",
        "v"
      ],
      [
        "i",
        "ge"
      ],
      [
        "i",
        "me"
      ],
      [
        "k",
        "y"
      ],
      [
        "l",
        "v"
      ],
      [
        "l",
        "ime"
      ],
      [
        "m",
        "int"
      ],
      [
        "n",
        "av"
      ],
      [
        "p",
        "u"
      ],
      [
        "p",
        "in"
      ],
      [
        "r",
        "ple"
      ],
      [
        "s",
        "ky"
      ],
      [
        "w",
        "hi"
      ],
      [
        "y",
        "el"
      ],
      [
        "ol",
        "iv"
      ],
      [
        "an",
        "ge"
      ],
      [
        "or",
        "ange"
      ],
      [
        "ow",
        "n"
      ],
      [
        "ma",
        "gen"
      ],
      [
        "be",
        "ige"
      ],
      [
        "si",
        "lv"
      ],
      [
        "bl",
        "ack"
      ],
      [
        "br",
        "own"
      ],
      [
        "gre",
        "en"
      ],
      [
        "gol",
        "d"
      ],
      [
        "gra",
        "y"
      ],
      [
        "nav",
        "y"
      ],
      [
        "pu",
        "rple"
      ],
      [
        "pin",
        "k"
      ],
      [
        "whi",
        "te"
      ],
      [
        "yel",
        "low"
      ],
      [
        "oliv",
        "e"
      ],
      [
        "magen",
        "ta"
      ],
      [
        "silv",
        "er"
      ],
      [
        "Re",
        "16"
      ],
      [
        "16",
        "A"
      ],
      [
        "16",
        "B"
      ],
      [
        "16",
        "D"
      ],
      [
        "16",
        "E"
      ],
      [
        "16",
        "G"
      ],
      [
        "16",
        "H"
      ],
      [
        "16",
        "J"
      ],
      [
        "16",
        "K"
      ],
      [
        "16",
        "L"
      ],
      [
        "16",
        "M"
      ],
      [
        "16",
        "N"
      ],
      [
        "16",
        "O"
      ],
      [
        "16",
        "P"
      ],
      [
        "16",
        "R"
      ],
      [
        "16",
        "S"
      ],
      [
        "16",
        "U"
      ],
      [
        "16",
        "V"
      ],
      [
        "16",
        "Y"
      ],
      [
        "16",
        "Z"
      ],
      [
        "3",
        "A"
      ],
      [
        "3",
        "B"
      ],
      [
        "3",
        "D"
      ],
      [
        "3",
        "E"
      ],
      [
        "3",
        "G"
      ],
      [
        "3",
        "H"
      ],
      [
        "3",
        "J"
      ],
      [
        "3",
        "K"
      ],
      [
        "3",
        "L"
      ],
      [
        "3",
        "M"
      ],
      [
        "3",
        "N"
      ],
      [
        "3",
        "O"
      ],
      [
        "3",
        "P"
      ],
      [
        "3",
        "R"
      ],
      [
        "3",
        "S"
      ],
      [
        "3",
        "U"
      ],
      [
        "3",
        "V"
      ],
      [
        "3",
        "Y"
      ],
      [
        "3",
        "Z"
      ],
      [
        "5",
        "A"
      ],
      [
        "5",
        "B"
      ],
      [
        "5",
        "D"
      ],
      [
        "5",
        "E"
      ],
      [
        "5",
        "G"
      ],
      [
        "5",
        "H"
      ],
      [
        "5",
        "J"
      ],
      [
        "5",
        "K"
      ],
      [
        "5",
        "L"
      ],
      [
        "5",
        "M"
      ],
      [
        "5",
        "N"
      ],
      [
        "5",
        "O"
      ],
      [
        "5",
        "P"
      ],
      [
        "5",
        "R"
      ],
      [
        "5",
        "S"
      ],
      [
        "5",
        "U"
      ],
      [
        "5",
        "V"
      ],
      [
        "5",
        "Y"
      ],
      [
        "5",
        "Z"
      ],
      [
        "7",
        "A"
      ],
      [
        "7",
        "B"
      ],
      [
        "7",
        "D"
      ],
      [
        "7",
        "E"
      ],
      [
        "7",
        "G"
      ],
      [
        "7",
        "H"
      ],
      [
        "7",
        "J"
      ],
      [
        "7",
        "K"
      ],
      [
        "7",
        "L"
      ],
      [
        "7",
        "M"
      ],
      [
        "7",
        "N"
      ],
      [
        "7",
        "O"
      ],
      [
        "7",
        "P"
      ],
      [
        "7",
        "R"
      ],
      [
        "7",
        "S"
      ],
      [
        "7",
        "U"
      ],
      [
        "7",
        "V"
      ],
      [
        "7",
        "Y"
      ],
      [
        "7",
        "Z"
      ],
      [
        "9",
        "A"
      ],
      [
        "9",
        "B"
      ],
      [
        "9",
        "D"
      ],
      [
        "9",
        "E"
      ],
      [
        "9",
        "G"
      ],
      [
        "9",
        "H"
      ],
      [
        "9",
        "J"
      ],
      [
        "9",
        "K"
      ],
      [
        "9",
        "L"
      ],
      [
        "9",
        "M"
      ],
      [
        "9",
        "N"
      ],
      [
        "9",
        "O"
      ],
      [
        "9",
        "P"
      ],
      [
        "9",
        "R"
      ],
      [
        "9",
        "S"
      ],
      [
        "9",
        "U"
      ],
      [
        "9",
        "V"
      ],
      [
        "9",
        "Y"
      ],
      [
        "9",
        "Z"
      ],
      [
        "C",
        "reate"
      ],
      [
        "D",
        "raw"
      ],
      [
        "G",
        "en"
      ],
      [
        "M",
        "a"
      ],
      [
        "P",
        "aint"
      ],
      [
        "S",
        "ketch"
      ],
      [
        "Re",
        "nder"
      ],
      [
        "10",
        "A"
      ],
      [
        "10",
        "B"
      ],
      [
        "10",
        "D"
      ],
      [
        "10",
        "E"
      ],
      [
        "10",
        "G"
      ],
      [
        "10",
        "H"
      ],
      [
        "10",
        "J"
      ],
      [
        "10",
        "K"
      ],
      [
        "10",
        "L"
      ],
      [
        "10",
        "M"
      ],
      [
        "10",
        "N"
      ],
      [
        "10",
        "O"
      ],
      [
        "10",
        "P"
      ],
      [
        "10",
        "R"
      ],
      [
        "10",
        "S"
      ],
      [
        "10",
        "U"
      ],
      [
        "10",
        "V"
      ],
      [
        "10",
        "Y"
      ],
      [
        "10",
        "Z"
      ],
      [
        "11",
        "A"
      ],
      [
        "11",
        "B"
      ],
      [
        "11",
        "D"
      ],
      [
        "11",
        "E"
      ],
      [
        "11",
        "G"
      ],
      [
        "11",
        "H"
      ],
      [
        "11",
        "J"
      ],
      [
        "11",
        "K"
      ],
      [
        "11",
        "L"
      ],
      [
        "11",
        "M"
      ],
      [
        "11",
        "N"
      ],
      [
        "11",
        "O"
      ],
      [
        "11",
        "P"
      ],
      [
        "11",
        "R"
      ],
      [
        "11",
        "S"
      ],
      [
        "11",
        "U"
      ],
      [
        "11",
        "V"
      ],
      [
        "11",
        "Y"
      ],
      [
        "11",
        "Z"
      ],
      [
        "Gen",
        "erate"
      ],
      [
        "Ma",
        "ke"
      ],
      [
        "2",
        "A"
      ],
      [
        "2",
        "B"
      ],
      [
        "2",
        "D"
      ],
      [
        "2",
        "E"
      ],
      [
        "2",
        "G"
      ],
      [
        "2",
        "H"
      ],
      [
        "2",
        "J"
      ],
      [
        "2",
        "K"
      ],
      [
        "2",
        "L"
      ],
      [
        "2",
        "M"
      ],
      [
        "2",
        "N"
      ],
      [
        "2",
        "O"
      ],
      [
        "2",
        "P"
      ],
      [
        "2",
        "R"
      ],
      [
        "2",
        "S"
      ],
      [
        "2",
        "U"
      ],
      [
        "2",
        "V"
      ],
      [
        "2",
        "Y"
      ],
      [
        "2",
        "Z"
      ],
      [
        "12",
        "A"
      ],
      [
        "12",
        "B"
      ],
      [
        "12",
        "D"
      ],
      [
        "12",
        "E"
      ],
      [
        "12",
        "G"
      ],
      [
        "12",
        "H"
      ],
      [
        "12",
        "J"
      ],
      [
        "12",
        "K"
      ],
      [
        "12",
        "L"
      ],
      [
        "12",
        "M"
      ],
      [
        "12",
        "N"
      ],
      [
        "12",
        "O"
      ],
      [
        "12",
        "P"
      ],
      [
        "12",
        "R"
      ],
      [
        "12",
        "S"
      ],
      [
        "12",
        "U"
      ],
      [
        "12",
        "V"
      ],
      [
        "12",
        "Y"
      ],
      [
        "12",
        "Z"
      ],
      [
        "13",
        "A"
      ],
      [
        "13",
        "B"
      ],
      [
        "13",
        "D"
      ],
      [
        "13",
        "E"
      ],
      [
        "13",
        "G"
      ],
      [
        "13",
        "H"
      ],
      [
        "13",
        "J"
      ],
      [
        "13",
        "K"
      ],
      [
        "13",
        "L"
      ],
      [
        "13",
        "M"
      ],
      [
        "13",
        "N"
      ],
      [
        "13",
        "O"
      ],
      [
        "13",
        "P"
      ],
      [
        "13",
        "R"
      ],
      [
        "13",
        "S"
      ],
      [
        "13",
        "U"
      ],
      [
        "13",
        "V"
      ],
      [
        "13",
        "Y"
      ],
      [
        "13",
        "Z"
      ],
      [
        "15",
        "A"
      ],
      [
        "15",
        "B"
      ],
      [
        "15",
        "D"
      ],
      [
        "15",
        "E"
      ],
      [
        "15",
        "G"
      ],
      [
        "15",
        "H"
      ],
      [
        "15",
        "J"
      ],
      [
        "15",
        "K"
      ],
      [
        "15",
        "L"
      ],
      [
        "15",
        "M"
      ],
      [
        "15",
        "N"
      ],
      [
        "15",
        "O"
      ],
      [
        "15",
        "P"
      ],
      [
        "15",
        "R"
      ],
      [
        "15",
        "S"
      ],
      [
        "15",
        "U"
      ],
      [
        "15",
        "V"
      ],
      [
        "15",
        "Y"
      ],
      [
        "15",
        "Z"
      ]
    ]
  }
}