{
  "version": "1.0",
  "truncation": null,
  "padding": null,
  "added_tokens": [
    {
      "id": 0,
      "content": "<PAD>",
      "single_word": false,
      "lstrip": false,
      "rstrip": false,
      "normalized": false,
      "special": true
    },
    {
      "id": 1,
      "content": "<SOS>",
      "single_word": false,
      "lstrip": false,
      "rstrip": false,
      "normalized": false,
      "special": true
    },
    {
      "id": 2,
      "content": "<EOS>",
      "single_word": false,
      "lstrip": false,
      "rstrip": false,
      "normalized": false,
      "special": true
    },
    {
      "id": 3,
      "content": "<UNK>",
      "single_word": false,
      "lstrip": false,
      "rstrip": false,
      "normalized": false,
      "special": true
    },
    {
      "id": 4,
      "content": "<TASK_GEN>",
      "single_word": false,
      "lstrip": false,
      "rstrip": false,
      "normalized": false,
      "special": true
    },
    {
      "id": 5,
      "content": "<TASK_DESC>",
      "single_word": false,
      "lstrip": false,
      "rstrip": false,
      "normalized": false,
      "special": true
    }
  ],
  "normalizer": null,
  "pre_tokenizer": {
    "type": "Whitespace"
  },
  "post_processor": null,
  "decoder": null,
  "model": {
    "type": "BPE",
    "dropout": null,
    "unk_token": "<UNK>",
    "continuing_subword_prefix": null,
    "end_of_word_suffix": null,
    "fuse_unk": false,
    "byte_fallback": false,
    "ignore_merges": false,
    "vocab": {
      "<PAD>": 0,
      "<SOS>": 1,
      "<EOS>": 2,
      "<UNK>": 3,
      "<TASK_GEN>": 4,
      "<TASK_DESC>": 5,
      "0": 6,
      "1": 7,
      "2": 8,
      "3": 9,
      "4": 10,
      "5": 11,
      "6": 12,
      "7": 13,
      "8": 14,
      "9": 15,
      "A": 16,
      "B": 17,
      "C": 18,
      "D": 19,
      "E": 20,
      "G": 21,
      "H": 22,
      "I": 23,
      "K": 24,
      "L": 25,
      "M": 26,
      "N": 27,
      "O": 28,
      "P": 29,
      "R": 30,
      "S": 31,
      "T": 32,
      "V": 33,
      "W": 34,
      "Y": 35,
      "a": 36,
      "b": 37,
      "c": 38,
      "d": 39,
      "e": 40,
      "f": 41,
      "g": 42,
      "h": 43,
      "i": 44,
      "j": 45,
      "k": 46,
      "l": 47,
      "m": 48,
      "n": 49,
      "o": 50,
      "p": 51,
      "q": 52,
      "r": 53,
      "s": 54,
      "t": 55,
      "u": 56,
      "v": 57,
      "w": 58,
      "x": 59,
      "y": 60,
      "z": 61,
      "ed": 62,
      "it": 63,
      "ot": 64,
      "ar": 65,
      "li": 66,
      "at": 67,
      "el": 68,
      "pp": 69,
      "ix": 70,
      "ixel": 71,
      "rot": 72,
      "la": 73,
      "ck": 74,
      "rotat": 75,
      "art": 76,
      "fli": 77,
      "pped": 78,
      "rotated": 79,
      "flipped": 80,
      "ite": 81,
      "of": 82,
      "le": 83,
      "on": 84,
      "hite": 85,
      "er": 86,
      "lack": 87,
      "wit": 88,
      "pixel": 89,
      "white": 90,
      "ll": 91,
      "black": 92,
      "ch": 93,
      "bo": 94,
      "with": 95,
      "st": 96,
      "an": 97,
      "ui": 98,
      "en": 99,
      "ion": 100,
      "pot": 101,
      "potion": 102,
      "ic": 103,
      "ow": 104,
      "in": 105,
      "Pixel": 106,
      "ge": 107,
      "ri": 108,
      "uid": 109,
      "ey": 110,
      "quid": 111,
      "liquid": 112,
      "ma": 113,
      "key": 114,
      "fi": 115,
      "lled": 116,
      "filled": 117,
      "te": 118,
      "ra": 119,
      "ou": 120,
      "re": 121,
      "ad": 122,
      "or": 123,
      "ps": 124,
      "mall": 125,
      "xbo": 126,
      "xbox": 127,
      "um": 128,
      "fla": 129,
      "al": 130,
      "small": 131,
      "ard": 132,
      "op": 133,
      "bot": 134,
      "bott": 135,
      "bottle": 136,
      "boo": 137,
      "up": 138,
      "ir": 139,
      "top": 140,
      "sp": 141,
      "der": 142,
      "swit": 143,
      "xt": 144,
      "switch": 145,
      "text": 146,
      "ho": 147,
      "ba": 148,
      "go": 149,
      "edi": 150,
      "sh": 151,
      "edium": 152,
      "book": 153,
      "pad": 154,
      "sle": 155,
      "si": 156,
      "and": 157,
      "lu": 158,
      "rite": 159,
      "sprite": 160,
      "ick": 161,
      "stick": 162,
      "ld": 163,
      "am": 164,
      "medium": 165,
      "sk": 166,
      "me": 167,
      "gh": 168,
      "ght": 169,
      "pe": 170,
      "sic": 171,
      "ple": 172,
      "cup": 173,
      "gra": 174,
      "White": 175,
      "ouch": 176,
      "ut": 177,
      "ce": 178,
      "basic": 179,
      "gold": 180,
      "are": 181,
      "red": 182,
      "Black": 183,
      "tri": 184,
      "but": 185,
      "ton": 186,
      "flair": 187,
      "button": 188,
      "qu": 189,
      "ate": 190,
      "ro": 191,
      "mu": 192,
      "pu": 193,
      "arge": 194,
      "lue": 195,
      "16": 196,
      "gle": 197,
      "right": 198,
      "angle": 199,
      "ver": 200,
      "reen": 201,
      "triangle": 202,
      "quare": 203,
      "lver": 204,
      "square": 205,
      "blue": 206,
      "ink": 207,
      "ne": 208,
      "low": 209,
      "dpad": 210,
      "own": 211,
      "int": 212,
      "oo": 213,
      "nder": 214,
      "ss": 215,
      "stand": 216,
      "flask": 217,
      "slender": 218,
      "mug": 219,
      "standard": 220,
      "llow": 221,
      "hollow": 222,
      "ft": 223,
      "green": 224,
      "che": 225,
      "ood": 226,
      "silver": 227,
      "large": 228,
      "pink": 229,
      "tal": 230,
      "hic": 231,
      "left": 232,
      "se": 233,
      "ange": 234,
      "touch": 235,
      "rple": 236,
      "gen": 237,
      "cro": 238,
      "gray": 239,
      "gem": 240,
      "ellow": 241,
      "orange": 242,
      "purple": 243,
      "ooden": 244,
      "orn": 245,
      "out": 246,
      "be": 247,
      "for": 248,
      "let": 249,
      "ali": 250,
      "eram": 251,
      "chali": 252,
      "eramic": 253,
      "chalice": 254,
      "wooden": 255,
      "yellow": 256,
      "ark": 257,
      "line": 258,
      "outline": 259,
      "co": 260,
      "ceramic": 261,
      "golden": 262,
      "wi": 263,
      "slee": 264,
      "sha": 265,
      "cad": 266,
      "ced": 267,
      "mou": 268,
      "arcad": 269,
      "infor": 270,
      "reinfor": 271,
      "ornate": 272,
      "sleek": 273,
      "mouse": 274,
      "arcade": 275,
      "reinforced": 276,
      "cross": 277,
      "mint": 278,
      "po": 279,
      "down": 280,
      "row": 281,
      "arrow": 282,
      "icon": 283,
      "shape": 284,
      "di": 285,
      "x16": 286,
      "ath": 287,
      "16x16": 288,
      "mple": 289,
      "simple": 290,
      "raw": 291,
      "phic": 292,
      "erate": 293,
      "graphic": 294,
      "zon": 295,
      "rizon": 296,
      "rizontal": 297,
      "dark": 298,
      "horizontal": 299,
      "check": 300,
      "cher": 301,
      "test": 302,
      "blet": 303,
      "pit": 304,
      "pouch": 305,
      "rand": 306,
      "pper": 307,
      "goblet": 308,
      "pes": 309,
      "ather": 310,
      "pitcher": 311,
      "tu": 312,
      "fra": 313,
      "ond": 314,
      "erbo": 315,
      "stri": 316,
      "amond": 317,
      "frame": 318,
      "erboard": 319,
      "stripes": 320,
      "oli": 321,
      "rder": 322,
      "border": 323,
      "diamond": 324,
      "checkerboard": 325,
      "mo": 326,
      "leather": 327,
      "copper": 328,
      "gent": 329,
      "il": 330,
      "push": 331,
      "chest": 332,
      "grand": 333,
      "rown": 334,
      "tube": 335,
      "ve": 336,
      "cy": 337,
      "ec": 338,
      "lo": 339,
      "num": 340,
      "cyan": 341,
      "ter": 342,
      "my": 343,
      "brown": 344,
      "thic": 345,
      "mythic": 346,
      "gc": 347,
      "jo": 348,
      "joy": 349,
      "kard": 350,
      "tan": 351,
      "dern": 352,
      "tankard": 353,
      "sky": 354,
      "inter": 355,
      "pointer": 356,
      "mboo": 357,
      "iron": 358,
      "bamboo": 359,
      "metal": 360,
      "modern": 361,
      "win": 362,
      "id": 363,
      "wii": 364,
      "soli": 365,
      "solid": 366,
      "con": 367,
      "lime": 368,
      "ing": 369,
      "swi": 370,
      "numpad": 371,
      "swipe": 372,
      "light": 373,
      "agent": 374,
      "ial": 375,
      "ust": 376,
      "va": 377,
      "rew": 378,
      "Small": 379,
      "Draw": 380,
      "Gen": 381,
      "draw": 382,
      "yal": 383,
      "ana": 384,
      "royal": 385,
      "generate": 386,
      "Generate": 387,
      "ench": 388,
      "av": 389,
      "bl": 390,
      "brew": 391,
      "dge": 392,
      "eli": 393,
      "ess": 394,
      "frot": 395,
      "glow": 396,
      "is": 397,
      "jui": 398,
      "mana": 399,
      "oil": 400,
      "slu": 401,
      "xir": 402,
      "lava": 403,
      "stard": 404,
      "ence": 405,
      "tea": 406,
      "adow": 407,
      "spec": 408,
      "shadow": 409,
      "pois": 410,
      "wine": 411,
      "blood": 412,
      "elixir": 413,
      "essence": 414,
      "froth": 415,
      "juice": 416,
      "sludge": 417,
      "stardust": 418,
      "special": 419,
      "poison": 420,
      "Medium": 421,
      "reagent": 422,
      "lock": 423,
      "ted": 424,
      "anted": 425,
      "enchanted": 426,
      "teal": 427,
      "cli": 428,
      "ta": 429,
      "click": 430,
      "vi": 431,
      "ige": 432,
      "avy": 433,
      "l3": 434,
      "r3": 435,
      "gic": 436,
      "magic": 437,
      "men": 438,
      "enter": 439,
      "rak": 440,
      "joystick": 441,
      "navy": 442,
      "magent": 443,
      "beige": 444,
      "olive": 445,
      "magenta": 446,
      "magical": 447,
      "ger": 448,
      "olet": 449,
      "per": 450,
      "us": 451,
      "aram": 452,
      "chid": 453,
      "lus": 454,
      "touchpad": 455,
      "menu": 456,
      "aramel": 457,
      "min": 458,
      "Large": 459,
      "bright": 460,
      "cle": 461,
      "dle": 462,
      "es": 463,
      "gger": 464,
      "start": 465,
      "home": 466,
      "back": 467,
      "trigger": 468,
      "minus": 469,
      "hot": 470,
      "un": 471,
      "atter": 472,
      "cla": 473,
      "ble": 474,
      "bum": 475,
      "batter": 476,
      "cw": 477,
      "dot": 478,
      "pr": 479,
      "plus": 480,
      "paddle": 481,
      "neon": 482,
      "move": 483,
      "joycon": 484,
      "bumper": 485,
      "battery": 486,
      "Or": 487,
      "caramel": 488,
      "drak": 489,
      "orchid": 490,
      "violet": 491,
      "cir": 492,
      "center": 493,
      "dou": 494,
      "lt": 495,
      "sy": 496,
      "ser": 497,
      "edge": 498,
      "share": 499,
      "nes": 500,
      "ect": 501,
      "circle": 502,
      "double": 503,
      "mp": 504,
      "pa": 505,
      "ze": 506,
      "Si": 507,
      "Silver": 508,
      "he": 509,
      "tr": 510,
      "lon": 511,
      "sel": 512,
      "sla": 513,
      "scro": 514,
      "tion": 515,
      "elite": 516,
      "rotation": 517,
      "mal": 518,
      "rack": 519,
      "ormal": 520,
      "alt": 521,
      "tap": 522,
      "select": 523,
      "slash": 524,
      "scroll": 525,
      "ca": 526,
      "emp": 527,
      "ty": 528,
      "empty": 529,
      "ater": 530,
      "water": 531,
      "ssic": 532,
      "Blue": 533,
      "classic": 534,
      "Orange": 535,
      "Pink": 536,
      "Red": 537,
      "de": 538,
      "ex": 539,
      "ile": 540,
      "ies": 541,
      "ls": 542,
      "medi": 543,
      "nd": 544,
      "normal": 545,
      "pre": 546,
      "rs": 547,
      "sl": 548,
      "sou": 549,
      "vit": 550,
      "rotate": 551,
      "ofile": 552,
      "ler": 553,
      "option": 554,
      "hold": 555,
      "set": 556,
      "profile": 557,
      "series": 558,
      "long": 559,
      "media": 560,
      "sound": 561,
      "vita": 562,
      "Green": 563,
      "Pu": 564,
      "Purple": 565,
      "hon": 566,
      "mil": 567,
      "beer": 568,
      "honey": 569,
      "milk": 570,
      "inger": 571,
      "corn": 572,
      "Go": 573,
      "Gra": 574,
      "Grand": 575,
      "Gold": 576,
      "Yellow": 577,
      "Gray": 578,
      "Brown": 579,
      "Mint": 580,
      "Sk": 581,
      "Sky": 582,
      "36": 583,
      "ace": 584,
      "bar": 585,
      "brack": 586,
      "care": 587,
      "ccw": 588,
      "et": 589,
      "ew": 590,
      "f1": 591,
      "fn": 592,
      "finger": 593,
      "ift": 594,
      "l1": 595,
      "l2": 596,
      "ller": 597,
      "mat": 598,
      "mark": 599,
      "nc": 600,
      "nun": 601,
      "ol": 602,
      "r1": 603,
      "r2": 604,
      "ring": 605,
      "sc": 606,
      "ti": 607,
      "tro": 608,
      "uk": 609,
      "ur": 610,
      "use": 611,
      "zl": 612,
      "zr": 613,
      "chuk": 614,
      "ice": 615,
      "icat": 616,
      "eye": 617,
      "resi": 618,
      "ps3": 619,
      "space": 620,
      "mute": 621,
      "contro": 622,
      "lightbar": 623,
      "view": 624,
      "sync": 625,
      "pause": 626,
      "options": 627,
      "corner": 628,
      "360": 629,
      "bracket": 630,
      "caret": 631,
      "nunchuk": 632,
      "resize": 633,
      "controller": 634,
      "mic": 635,
      "Te": 636,
      "pin": 637,
      "Dark": 638,
      "Teal": 639,
      "Li": 640,
      "ome": 641,
      "ak": 642,
      "all": 643,
      "ctr": 644,
      "den": 645,
      "dicat": 646,
      "est": 647,
      "equ": 648,
      "fre": 649,
      "guid": 650,
      "hel": 651,
      "lb": 652,
      "lstick": 653,
      "mbo": 654,
      "ning": 655,
      "og": 656,
      "ptu": 657,
      "rb": 658,
      "rt": 659,
      "rstick": 660,
      "sr": 661,
      "su": 662,
      "sho": 663,
      "th": 664,
      "til": 665,
      "vol": 666,
      "vice": 667,
      "edal": 668,
      "star": 669,
      "inf": 670,
      "indicat": 671,
      "ume": 672,
      "spe": 673,
      "shift": 674,
      "quest": 675,
      "mult": 676,
      "load": 677,
      "loop": 678,
      "ide": 679,
      "idden": 680,
      "clamat": 681,
      "symbo": 682,
      "heart": 683,
      "captu": 684,
      "exclamat": 685,
      "press": 686,
      "fingers": 687,
      "pinch": 688,
      "ctrl": 689,
      "equal": 690,
      "guide": 691,
      "tilt": 692,
      "volume": 693,
      "indicator": 694,
      "question": 695,
      "multi": 696,
      "symbol": 697,
      "capture": 698,
      "exclamation": 699,
      "app": 700,
      "An": 701,
      "Bright": 702,
      "Caramel": 703,
      "Drak": 704,
      "Hot": 705,
      "Vi": 706,
      "pla": 707,
      "ull": 708,
      "ele": 709,
      "ste": 710,
      "rag": 711,
      "Orchid": 712,
      "Violet": 713,
      "drag": 714,
      "Lime": 715,
      "ron": 716,
      "tric": 717,
      "ometric": 718,
      "ac": 719,
      "ait": 720,
      "bidden": 721,
      "can": 722,
      "cam": 723,
      "dl": 724,
      "do": 725,
      "dr": 726,
      "fav": 727,
      "hand": 728,
      "ham": 729,
      "ke": 730,
      "mi": 731,
      "mma": 732,
      "math": 733,
      "nk": 734,
      "om": 735,
      "pg": 736,
      "pen": 737,
      "pow": 738,
      "pro": 739,
      "pedal": 740,
      "sli": 741,
      "ssha": 742,
      "tw": 743,
      "track": 744,
      "ul": 745,
      "ure": 746,
      "vide": 747,
      "war": 748,
      "ward": 749,
      "wait": 750,
      "ylus": 751,
      "zoo": 752,
      "ote": 753,
      "link": 754,
      "atta": 755,
      "era": 756,
      "eric": 757,
      "stop": 758,
      "stylus": 759,
      "anal": 760,
      "end": 761,
      "ent": 762,
      "iner": 763,
      "gear": 764,
      "mail": 765,
      "reset": 766,
      "refre": 767,
      "orite": 768,
      "umb": 769,
      "flag": 770,
      "ball": 771,
      "lde": 772,
      "grab": 773,
      "quote": 774,
      "next": 775,
      "ness": 776,
      "generic": 777,
      "crossha": 778,
      "forbidden": 779,
      "forward": 780,
      "cost": 781,
      "coin": 782,
      "comma": 783,
      "wifi": 784,
      "tur": 785,
      "conta": 786,
      "locked": 787,
      "tab": 788,
      "brightness": 789,
      "clear": 790,
      "esc": 791,
      "backslash": 792,
      "backspace": 793,
      "dots": 794,
      "print": 795,
      "caps": 796,
      "device": 797,
      "lsb": 798,
      "rsb": 799,
      "slot": 800,
      "tilde": 801,
      "aker": 802,
      "help": 803,
      "sub": 804,
      "thumb": 805,
      "info": 806,
      "speaker": 807,
      "play": 808,
      "camera": 809,
      "favorite": 810,
      "power": 811,
      "slider": 812,
      "two": 813,
      "trackball": 814,
      "warning": 815,
      "zoom": 816,
      "analog": 817,
      "refresh": 818,
      "crosshair": 819,
      "container": 820,
      "to": 821,
      "Ceramic": 822,
      "Wooden": 823,
      "lor": 824,
      "color": 825,
      "Golden": 826,
      "Be": 827,
      "Magent": 828,
      "Navy": 829,
      "Oli": 830,
      "Beige": 831,
      "Magenta": 832,
      "Olive": 833,
      "bi": 834,
      "bron": 835,
      "iny": 836,
      "ries": 837,
      "shiny": 838,
      "skull": 839,
      "skele": 840,
      "steel": 841,
      "bronze": 842,
      "skeletal": 843,
      "Co": 844,
      "Le": 845,
      "Copper": 846,
      "Leather": 847,
      "gri": 848,
      "geometric": 849,
      "au": 850,
      "erries": 851,
      "1p": 852,
      "2p": 853,
      "Normal": 854,
      "ai": 855,
      "as": 856,
      "ast": 857,
      "age": 858,
      "ama": 859,
      "aut": 860,
      "ave": 861,
      "aler": 862,
      "bin": 863,
      "bing": 864,
      "brak": 865,
      "bur": 866,
      "berries": 867,
      "cl": 868,
      "ct": 869,
      "cel": 870,
      "cart": 871,
      "cra": 872,
      "cre": 873,
      "cal": 874,
      "cred": 875,
      "clo": 876,
      "cust": 877,
      "clock": 878,
      "ction": 879,
      "cur": 880,
      "cent": 881,
      "d1": 882,
      "d2": 883,
      "dn": 884,
      "del": 885,
      "dome": 886,
      "dele": 887,
      "dama": 888,
      "eb": 889,
      "ep": 890,
      "eu": 891,
      "eze": 892,
      "f2": 893,
      "f3": 894,
      "f4": 895,
      "f5": 896,
      "f6": 897,
      "f7": 898,
      "f8": 899,
      "f9": 900,
      "fr": 901,
      "fin": 902,
      "fun": 903,
      "fol": 904,
      "ficat": 905,
      "full": 906,
      "gn": 907,
      "ged": 908,
      "gla": 909,
      "ging": 910,
      "gun": 911,
      "gift": 912,
      "gas": 913,
      "hi": 914,
      "hy": 915,
      "hou": 916,
      "hal": 917,
      "hide": 918,
      "hidden": 919,
      "io": 920,
      "iel": 921,
      "ish": 922,
      "isk": 923,
      "ificat": 924,
      "ka": 925,
      "lk": 926,
      "ly": 927,
      "lter": 928,
      "mit": 929,
      "mer": 930,
      "mut": 931,
      "mid": 932,
      "medal": 933,
      "not": 934,
      "ner": 935,
      "olon": 936,
      "p1": 937,
      "p2": 938,
      "p3": 939,
      "p4": 940,
      "prot": 941,
      "pri": 942,
      "por": 943,
      "pal": 944,
      "pand": 945,
      "phot": 946,
      "ply": 947,
      "ren": 948,
      "rink": 949,
      "rench": 950,
      "rgla": 951,
      "rlk": 952,
      "sw": 953,
      "sor": 954,
      "save": 955,
      "tra": 956,
      "targe": 957,
      "too": 958,
      "ting": 959,
      "tsc": 960,
      "tog": 961,
      "uit": 962,
      "vr": 963,
      "whe": 964,
      "wak": 965,
      "web": 966,
      "wrench": 967,
      "xus": 968,
      "edit": 969,
      "oth": 970,
      "arch": 971,
      "arging": 972,
      "like": 973,
      "pping": 974,
      "flick": 975,
      "ering": 976,
      "erisk": 977,
      "llar": 978,
      "chat": 979,
      "chmen": 980,
      "charging": 981,
      "boot": 982,
      "stat": 983,
      "sture": 984,
      "ins": 985,
      "inite": 986,
      "inser": 987,
      "inner": 988,
      "geup": 989,
      "gesture": 990,
      "main": 991,
      "macro": 992,
      "fig": 993,
      "fire": 994,
      "filter": 995,
      "rail": 996,
      "oud": 997,
      "ree": 998,
      "resu": 999,
      "add": 1000,
      "adset": 1001,
      "ord": 1002,
      "ory": 1003,
      "open": 1004,
      "ophy": 1005,
      "bottom": 1006,
      "upload": 1007,
      "spinner": 1008,
      "hover": 1009,
      "bag": 1010,
      "show": 1011,
      "shiel": 1012,
      "shrink": 1013,
      "sible": 1014,
      "sign": 1015,
      "mess": 1016,
      "uter": 1017,
      "cess": 1018,
      "blueto": 1019,
      "nect": 1020,
      "nexus": 1021,
      "semic": 1022,
      "semi": 1023,
      "search": 1024,
      "comp": 1025,
      "sleep": 1026,
      "shake": 1027,
      "download": 1028,
      "dio": 1029,
      "dip": 1030,
      "disk": 1031,
      "divide": 1032,
      "mode": 1033,
      "numlock": 1034,
      "config": 1035,
      "connect": 1036,
      "lightning": 1037,
      "lightgun": 1038,
      "vas": 1039,
      "reward": 1040,
      "tall": 1041,
      "visible": 1042,
      "percent": 1043,
      "perio": 1044,
      "unlock": 1045,
      "unlocked": 1046,
      "prtsc": 1047,
      "service": 1048,
      "paged": 1049,
      "pageup": 1050,
      "healt": 1051,
      "headset": 1052,
      "trophy": 1053,
      "scrolllock": 1054,
      "death": 1055,
      "deep": 1056,
      "exit": 1057,
      "expand": 1058,
      "prev": 1059,
      "premi": 1060,
      "setup": 1061,
      "setting": 1062,
      "f10": 1063,
      "f11": 1064,
      "f12": 1065,
      "fingerprint": 1066,
      "mato": 1067,
      "scan": 1068,
      "screen": 1069,
      "scrlk": 1070,
      "time": 1071,
      "tive": 1072,
      "freeze": 1073,
      "held": 1074,
      "shoot": 1075,
      "shock": 1076,
      "shopping": 1077,
      "three": 1078,
      "infinite": 1079,
      "speed": 1080,
      "pressure": 1081,
      "equals": 1082,
      "multiply": 1083,
      "app1": 1084,
      "app2": 1085,
      "steering": 1086,
      "access": 1087,
      "active": 1088,
      "cancel": 1089,
      "canvas": 1090,
      "dogear": 1091,
      "dollar": 1092,
      "handheld": 1093,
      "hambur": 1094,
      "hammer": 1095,
      "pgup": 1096,
      "pgdn": 1097,
      "video": 1098,
      "attack": 1099,
      "attachmen": 1100,
      "ential": 1101,
      "grabbing": 1102,
      "turn": 1103,
      "turbo": 1104,
      "printscreen": 1105,
      "submit": 1106,
      "thumbstick": 1107,
      "biometric": 1108,
      "grip": 1109,
      "audio": 1110,
      "aim": 1111,
      "asterisk": 1112,
      "auto": 1113,
      "alert": 1114,
      "brake": 1115,
      "cloud": 1116,
      "craft": 1117,
      "create": 1118,
      "calc": 1119,
      "credential": 1120,
      "close": 1121,
      "custom": 1122,
      "curren": 1123,
      "delete": 1124,
      "damage": 1125,
      "euro": 1126,
      "fruit": 1127,
      "finish": 1128,
      "function": 1129,
      "folder": 1130,
      "high": 1131,
      "hourgla": 1132,
      "half": 1133,
      "ification": 1134,
      "muted": 1135,
      "middle": 1136,
      "notification": 1137,
      "protect": 1138,
      "prika": 1139,
      "portal": 1140,
      "palm": 1141,
      "photo": 1142,
      "sword": 1143,
      "sort": 1144,
      "trash": 1145,
      "target": 1146,
      "tool": 1147,
      "toggle": 1148,
      "wheel": 1149,
      "wake": 1150,
      "insert": 1151,
      "result": 1152,
      "shield": 1153,
      "message": 1154,
      "bluetooth": 1155,
      "semicolon": 1156,
      "computer": 1157,
      "connector": 1158,
      "period": 1159,
      "pagedown": 1160,
      "health": 1161,
      "premium": 1162,
      "settings": 1163,
      "accessory": 1164,
      "hamburger": 1165,
      "attachment": 1166,
      "currency": 1167,
      "hourglass": 1168,
      "Cy": 1169,
      "Me": 1170,
      "apple": 1171,
      "Cyan": 1172,
      "Bam": 1173,
      "Iron": 1174,
      "Mo": 1175,
      "ima": 1176,
      "list": 1177,
      "minima": 1178,
      "paprika": 1179,
      "Light": 1180,
      "tomato": 1181,
      "Metal": 1182,
      "Bamboo": 1183,
      "Modern": 1184,
      "minimalist": 1185,
      "Ho": 1186,
      "Mic": 1187,
      "ach": 1188,
      "bba": 1189,
      "eapple": 1190,
      "flow": 1191,
      "gg": 1192,
      "iwi": 1193,
      "kin": 1194,
      "mel": 1195,
      "mon": 1196,
      "nt": 1197,
      "ocad": 1198,
      "oes": 1199,
      "pkin": 1200,
      "ry": 1201,
      "arli": 1202,
      "arrot": 1203,
      "liflow": 1204,
      "atoes": 1205,
      "chun": 1206,
      "anana": 1207,
      "umpkin": 1208,
      "rawberries": 1209,
      "conut": 1210,
      "plant": 1211,
      "big": 1212,
      "bbage": 1213,
      "ggplant": 1214,
      "melon": 1215,
      "ocado": 1216,
      "arlic": 1217,
      "liflower": 1218,
      "chunk": 1219,
      "banana": 1220,
      "carrot": 1221,
      "eggplant": 1222,
      "ginger": 1223,
      "garlic": 1224,
      "kiwi": 1225,
      "pumpkin": 1226,
      "uliflower": 1227,
      "lemon": 1228,
      "onion": 1229,
      "strawberries": 1230,
      "potatoes": 1231,
      "meat": 1232,
      "pear": 1233,
      "peach": 1234,
      "grapes": 1235,
      "blueberries": 1236,
      "coconut": 1237,
      "cherries": 1238,
      "cherry": 1239,
      "avocado": 1240,
      "cabbage": 1241,
      "cauliflower": 1242,
      "watermelon": 1243,
      "pineapple": 1244,
      "dragon": 1245,
      "patter": 1246,
      "Hollow": 1247,
      "pattern": 1248,
      "Bor": 1249,
      "Ch": 1250,
      "Cro": 1251,
      "Che": 1252,
      "Di": 1253,
      "Ma": 1254,
      "Pa": 1255,
      "Pe": 1256,
      "Square": 1257,
      "To": 1258,
      "Tri": 1259,
      "ckerboard": 1260,
      "gical": 1261,
      "grid": 1262,
      "Horizontal": 1263,
      "Border": 1264,
      "Cross": 1265,
      "Checkerboard": 1266,
      "Diamond": 1267,
      "Magical": 1268,
      "Paprika": 1269,
      "Tomato": 1270,
      "Triangle": 1271,
      "Av": 1272,
      "App": 1273,
      "Banana": 1274,
      "Ca": 1275,
      "Cla": 1276,
      "Corn": 1277,
      "Cau": 1278,
      "Carrot": 1279,
      "Drag": 1280,
      "Eggplant": 1281,
      "Ginger": 1282,
      "Garlic": 1283,
      "Kiwi": 1284,
      "On": 1285,
      "Pot": 1286,
      "Pin": 1287,
      "Pumpkin": 1288,
      "St": 1289,
      "Water": 1290,
      "erry": 1291,
      "Blueberries": 1292,
      "Grapes": 1293,
      "Test": 1294,
      "Coconut": 1295,
      "Lemon": 1296,
      "Meat": 1297,
      "Cherries": 1298,
      "Cherry": 1299,
      "Pear": 1300,
      "Peach": 1301,
      "Avocado": 1302,
      "Apple": 1303,
      "Cabbage": 1304,
      "Classic": 1305,
      "Cauliflower": 1306,
      "Dragon": 1307,
      "Onion": 1308,
      "Potatoes": 1309,
      "Pineapple": 1310,
      "Strawberries": 1311,
      "Watermelon": 1312
    },
    "merges": [
      [
        "e",
        "d"
      ],
      [
        "i",
        "t"
      ],
      [
        "o",
        "t"
      ],
      [
        "a",
        "r"
      ],
      [
        "l",
        "i"
      ],
      [
        "a",
        "t"
      ],
      [
        "e",
        "l"
      ],
      [
        "p",
        "p"
      ],
      [
        "i",
        "x"
      ],
      [
        "ix",
        "el"
      ],
      [
        "r",
        "ot"
      ],
      [
        "l",
        "a"
      ],
      [
        "c",
        "k"
      ],
      [
        "rot",
        "at"
      ],
      [
        "ar",
        "t"
      ],
      [
        "f",
        "li"
      ],
      [
        "pp",
        "ed"
      ],
      [
        "rotat",
        "ed"
      ],
      [
        "fli",
        "pped"
      ],
      [
        "it",
        "e"
      ],
      [
        "o",
        "f"
      ],
      [
        "l",
        "e"
      ],
      [
        "o",
        "n"
      ],
      [
        "h",
        "ite"
      ],
      [
        "e",
        "r"
      ],
      [
        "la",
        "ck"
      ],
      [
        "w",
        "it"
      ],
      [
        "p",
        "ixel"
      ],
      [
        "w",
        "hite"
      ],
      [
        "l",
        "l"
      ],
      [
        "b",
        "lack"
      ],
      [
        "c",
        "h"
      ],
      [
        "b",
        "o"
      ],
      [
        "wit",
        "h"
      ],
      [
        "s",
        "t"
      ],
      [
        "a",
        "n"
      ],
      [
        "u",
        "i"
      ],
      [
        "e",
        "n"
      ],
      [
        "i",
        "on"
      ],
      [
        "p",
        "ot"
      ],
      [
        "pot",
        "ion"
      ],
      [
        "i",
        "c"
      ],
      [
        "o",
        "w"
      ],
      [
        "i",
        "n"
      ],
      [
        "P",
        "ixel"
      ],
      [
        "g",
        "e"
      ],
      [
        "r",
        "i"
      ],
      [
        "ui",
        "d"
      ],
      [
        "e",
        "y"
      ],
      [
        "q",
        "uid"
      ],
      [
        "li",
        "quid"
      ],
      [
        "m",
        "a"
      ],
      [
        "k",
        "ey"
      ],
      [
        "f",
        "i"
      ],
      [
        "ll",
        "ed"
      ],
      [
        "fi",
        "lled"
      ],
      [
        "t",
        "e"
      ],
      [
        "r",
        "a"
      ],
      [
        "o",
        "u"
      ],
      [
        "r",
        "e"
      ],
      [
        "a",
        "d"
      ],
      [
        "o",
        "r"
      ],
      [
        "p",
        "s"
      ],
      [
        "ma",
        "ll"
      ],
      [
        "x",
        "bo"
      ],
      [
        "xbo",
        "x"
      ],
      [
        "u",
        "m"
      ],
      [
        "f",
        "la"
      ],
      [
        "a",
        "l"
      ],
      [
        "s",
        "mall"
      ],
      [
        "ar",
        "d"
      ],
      [
        "o",
        "p"
      ],
      [
        "b",
        "ot"
      ],
      [
        "bot",
        "t"
      ],
      [
        "bott",
        "le"
      ],
      [
        "bo",
        "o"
      ],
      [
        "u",
        "p"
      ],
      [
        "i",
        "r"
      ],
      [
        "t",
        "op"
      ],
      [
        "s",
        "p"
      ],
      [
        "d",
        "er"
      ],
      [
        "s",
        "wit"
      ],
      [
        "x",
        "t"
      ],
      [
        "swit",
        "ch"
      ],
      [
        "te",
        "xt"
      ],
      [
        "h",
        "o"
      ],
      [
        "b",
        "a"
      ],
      [
        "g",
        "o"
      ],
      [
        "ed",
        "i"
      ],
      [
        "s",
        "h"
      ],
      [
        "edi",
        "um"
      ],
      [
        "boo",
        "k"
      ],
      [
        "p",
        "ad"
      ],
      [
        "s",
        "le"
      ],
      [
        "s",
        "i"
      ],
      [
        "an",
        "d"
      ],
      [
        "l",
        "u"
      ],
      [
        "r",
        "ite"
      ],
      [
        "sp",
        "rite"
      ],
      [
        "i",
        "ck"
      ],
      [
        "st",
        "ick"
      ],
      [
        "l",
        "d"
      ],
      [
        "a",
        "m"
      ],
      [
        "m",
        "edium"
      ],
      [
        "s",
        "k"
      ],
      [
        "m",
        "e"
      ],
      [
        "g",
        "h"
      ],
      [
        "gh",
        "t"
      ],
      [
        "p",
        "e"
      ],
      [
        "s",
        "ic"
      ],
      [
        "p",
        "le"
      ],
      [
        "c",
        "up"
      ],
      [
        "g",
        "ra"
      ],
      [
        "W",
        "hite"
      ],
      [
        "ou",
        "ch"
      ],
      [
        "u",
        "t"
      ],
      [
        "c",
        "e"
      ],
      [
        "ba",
        "sic"
      ],
      [
        "go",
        "ld"
      ],
      [
        "ar",
        "e"
      ],
      [
        "r",
        "ed"
      ],
      [
        "B",
        "lack"
      ],
      [
        "t",
        "ri"
      ],
      [
        "b",
        "ut"
      ],
      [
        "t",
        "on"
      ],
      [
        "fla",
        "ir"
      ],
      [
        "but",
        "ton"
      ],
      [
        "q",
        "u"
      ],
      [
        "at",
        "e"
      ],
      [
        "r",
        "o"
      ],
      [
        "m",
        "u"
      ],
      [
        "p",
        "u"
      ],
      [
        "ar",
        "ge"
      ],
      [
        "lu",
        "e"
      ],
      [
        "1",
        "6"
      ],
      [
        "g",
        "le"
      ],
      [
        "ri",
        "ght"
      ],
      [
        "an",
        "gle"
      ],
      [
        "v",
        "er"
      ],
      [
        "re",
        "en"
      ],
      [
        "tri",
        "angle"
      ],
      [
        "qu",
        "are"
      ],
      [
        "l",
        "ver"
      ],
      [
        "s",
        "quare"
      ],
      [
        "b",
        "lue"
      ],
      [
        "in",
        "k"
      ],
      [
        "n",
        "e"
      ],
      [
        "l",
        "ow"
      ],
      [
        "d",
        "pad"
      ],
      [
        "ow",
        "n"
      ],
      [
        "in",
        "t"
      ],
      [
        "o",
        "o"
      ],
      [
        "n",
        "der"
      ],
      [
        "s",
        "s"
      ],
      [
        "st",
        "and"
      ],
      [
        "fla",
        "sk"
      ],
      [
        "sle",
        "nder"
      ],
      [
        "mu",
        "g"
      ],
      [
        "stand",
        "ard"
      ],
      [
        "ll",
        "ow"
      ],
      [
        "ho",
        "llow"
      ],
      [
        "f",
        "t"
      ],
      [
        "g",
        "reen"
      ],
      [
        "ch",
        "e"
      ],
      [
        "oo",
        "d"
      ],
      [
        "si",
        "lver"
      ],
      [
        "l",
        "arge"
      ],
      [
        "p",
        "ink"
      ],
      [
        "t",
        "al"
      ],
      [
        "h",
        "ic"
      ],
      [
        "le",
        "ft"
      ],
      [
        "s",
        "e"
      ],
      [
        "an",
        "ge"
      ],
      [
        "t",
        "ouch"
      ],
      [
        "r",
        "ple"
      ],
      [
        "g",
        "en"
      ],
      [
        "c",
        "ro"
      ],
      [
        "gra",
        "y"
      ],
      [
        "ge",
        "m"
      ],
      [
        "el",
        "low"
      ],
      [
        "or",
        "ange"
      ],
      [
        "pu",
        "rple"
      ],
      [
        "ood",
        "en"
      ],
      [
        "or",
        "n"
      ],
      [
        "ou",
        "t"
      ],
      [
        "b",
        "e"
      ],
      [
        "f",
        "or"
      ],
      [
        "le",
        "t"
      ],
      [
        "a",
        "li"
      ],
      [
        "er",
        "am"
      ],
      [
        "ch",
        "ali"
      ],
      [
        "eram",
        "ic"
      ],
      [
        "chali",
        "ce"
      ],
      [
        "w",
        "ooden"
      ],
      [
        "y",
        "ellow"
      ],
      [
        "ar",
        "k"
      ],
      [
        "li",
        "ne"
      ],
      [
        "out",
        "line"
      ],
      [
        "c",
        "o"
      ],
      [
        "c",
        "eramic"
      ],
      [
        "gold",
        "en"
      ],
      [
        "w",
        "i"
      ],
      [
        "sle",
        "e"
      ],
      [
        "sh",
        "a"
      ],
      [
        "c",
        "ad"
      ],
      [
        "c",
        "ed"
      ],
      [
        "m",
        "ou"
      ],
      [
        "ar",
        "cad"
      ],
      [
        "in",
        "for"
      ],
      [
        "re",
        "infor"
      ],
      [
        "orn",
        "ate"
      ],
      [
        "slee",
        "k"
      ],
      [
        "mou",
        "se"
      ],
      [
        "arcad",
        "e"
      ],
      [
        "reinfor",
        "ced"
      ],
      [
        "cro",
        "ss"
      ],
      [
        "m",
        "int"
      ],
      [
        "p",
        "o"
      ],
      [
        "d",
        "own"
      ],
      [
        "r",
        "ow"
      ],
      [
        "ar",
        "row"
      ],
      [
        "ic",
        "on"
      ],
      [
        "sha",
        "pe"
      ],
      [
        "d",
        "i"
      ],
      [
        "x",
        "16"
      ],
      [
        "at",
        "h"
      ],
      [
        "16",
        "x16"
      ],
      [
        "m",
        "ple"
      ],
      [
        "si",
        "mple"
      ],
      [
        "ra",
        "w"
      ],
      [
        "p",
        "hic"
      ],
      [
        "er",
        "ate"
      ],
      [
        "gra",
        "phic"
      ],
      [
        "z",
        "on"
      ],
      [
        "ri",
        "zon"
      ],
      [
        "rizon",
        "tal"
      ],
      [
        "d",
        "ark"
      ],
      [
        "ho",
        "rizontal"
      ],
      [
        "che",
        "ck"
      ],
      [
        "ch",
        "er"
      ],
      [
        "te",
        "st"
      ],
      [
        "b",
        "let"
      ],
      [
        "p",
        "it"
      ],
      [
        "p",
        "ouch"
      ],
      [
        "r",
        "and"
      ],
      [
        "pp",
        "er"
      ],
      [
        "go",
        "blet"
      ],
      [
        "pe",
        "s"
      ],
      [
        "ath",
        "er"
      ],
      [
        "pit",
        "cher"
      ],
      [
        "t",
        "u"
      ],
      [
        "f",
        "ra"
      ],
      [
        "on",
        "d"
      ],
      [
        "er",
        "bo"
      ],
      [
        "st",
        "ri"
      ],
      [
        "am",
        "ond"
      ],
      [
        "fra",
        "me"
      ],
      [
        "erbo",
        "ard"
      ],
      [
        "stri",
        "pes"
      ],
      [
        "o",
        "li"
      ],
      [
        "r",
        "der"
      ],
      [
        "bo",
        "rder"
      ],
      [
        "di",
        "amond"
      ],
      [
        "check",
        "erboard"
      ],
      [
        "m",
        "o"
      ],
      [
        "le",
        "ather"
      ],
      [
        "co",
        "pper"
      ],
      [
        "gen",
        "t"
      ],
      [
        "i",
        "l"
      ],
      [
        "pu",
        "sh"
      ],
      [
        "che",
        "st"
      ],
      [
        "g",
        "rand"
      ],
      [
        "r",
        "own"
      ],
      [
        "tu",
        "be"
      ],
      [
        "v",
        "e"
      ],
      [
        "c",
        "y"
      ],
      [
        "e",
        "c"
      ],
      [
        "l",
        "o"
      ],
      [
        "n",
        "um"
      ],
      [
        "cy",
        "an"
      ],
      [
        "t",
        "er"
      ],
      [
        "m",
        "y"
      ],
      [
        "b",
        "rown"
      ],
      [
        "t",
        "hic"
      ],
      [
        "my",
        "thic"
      ],
      [
        "g",
        "c"
      ],
      [
        "j",
        "o"
      ],
      [
        "jo",
        "y"
      ],
      [
        "k",
        "ard"
      ],
      [
        "t",
        "an"
      ],
      [
        "der",
        "n"
      ],
      [
        "tan",
        "kard"
      ],
      [
        "sk",
        "y"
      ],
      [
        "int",
        "er"
      ],
      [
        "po",
        "inter"
      ],
      [
        "m",
        "boo"
      ],
      [
        "ir",
        "on"
      ],
      [
        "ba",
        "mboo"
      ],
      [
        "me",
        "tal"
      ],
      [
        "mo",
        "dern"
      ],
      [
        "w",
        "in"
      ],
      [
        "i",
        "d"
      ],
      [
        "wi",
        "i"
      ],
      [
        "s",
        "oli"
      ],
      [
        "soli",
        "d"
      ],
      [
        "c",
        "on"
      ],
      [
        "li",
        "me"
      ],
      [
        "in",
        "g"
      ],
      [
        "s",
        "wi"
      ],
      [
        "num",
        "pad"
      ],
      [
        "swi",
        "pe"
      ],
      [
        "li",
        "ght"
      ],
      [
        "a",
        "gent"
      ],
      [
        "i",
        "al"
      ],
      [
        "u",
        "st"
      ],
      [
        "v",
        "a"
      ],
      [
        "re",
        "w"
      ],
      [
        "S",
        "mall"
      ],
      [
        "D",
        "raw"
      ],
      [
        "G",
        "en"
      ],
      [
        "d",
        "raw"
      ],
      [
        "y",
        "al"
      ],
      [
        "an",
        "a"
      ],
      [
        "ro",
        "yal"
      ],
      [
        "gen",
        "erate"
      ],
      [
        "Gen",
        "erate"
      ],
      [
        "en",
        "ch"
      ],
      [
        "a",
        "v"
      ],
      [
        "b",
        "l"
      ],
      [
        "b",
        "rew"
      ],
      [
        "d",
        "ge"
      ],
      [
        "e",
        "li"
      ],
      [
        "e",
        "ss"
      ],
      [
        "f",
        "rot"
      ],
      [
        "g",
        "low"
      ],
      [
        "i",
        "s"
      ],
      [
        "j",
        "ui"
      ],
      [
        "m",
        "ana"
      ],
      [
        "o",
        "il"
      ],
      [
        "s",
        "lu"
      ],
      [
        "x",
        "ir"
      ],
      [
        "la",
        "va"
      ],
      [
        "st",
        "ard"
      ],
      [
        "en",
        "ce"
      ],
      [
        "te",
        "a"
      ],
      [
        "ad",
        "ow"
      ],
      [
        "sp",
        "ec"
      ],
      [
        "sh",
        "adow"
      ],
      [
        "po",
        "is"
      ],
      [
        "win",
        "e"
      ],
      [
        "bl",
        "ood"
      ],
      [
        "eli",
        "xir"
      ],
      [
        "ess",
        "ence"
      ],
      [
        "frot",
        "h"
      ],
      [
        "jui",
        "ce"
      ],
      [
        "slu",
        "dge"
      ],
      [
        "stard",
        "ust"
      ],
      [
        "spec",
        "ial"
      ],
      [
        "pois",
        "on"
      ],
      [
        "M",
        "edium"
      ],
      [
        "re",
        "agent"
      ],
      [
        "lo",
        "ck"
      ],
      [
        "t",
        "ed"
      ],
      [
        "an",
        "ted"
      ],
      [
        "ench",
        "anted"
      ],
      [
        "te",
        "al"
      ],
      [
        "c",
        "li"
      ],
      [
        "t",
        "a"
      ],
      [
        "cli",
        "ck"
      ],
      [
        "v",
        "i"
      ],
      [
        "i",
        "ge"
      ],
      [
        "av",
        "y"
      ],
      [
        "l",
        "3"
      ],
      [
        "r",
        "3"
      ],
      [
        "g",
        "ic"
      ],
      [
        "ma",
        "gic"
      ],
      [
        "m",
        "en"
      ],
      [
        "en",
        "ter"
      ],
      [
        "ra",
        "k"
      ],
      [
        "joy",
        "stick"
      ],
      [
        "n",
        "avy"
      ],
      [
        "ma",
        "gent"
      ],
      [
        "be",
        "ige"
      ],
      [
        "oli",
        "ve"
      ],
      [
        "magent",
        "a"
      ],
      [
        "magic",
        "al"
      ],
      [
        "g",
        "er"
      ],
      [
        "o",
        "let"
      ],
      [
        "p",
        "er"
      ],
      [
        "u",
        "s"
      ],
      [
        "ar",
        "am"
      ],
      [
        "ch",
        "id"
      ],
      [
        "lu",
        "s"
      ],
      [
        "touch",
        "pad"
      ],
      [
        "men",
        "u"
      ],
      [
        "aram",
        "el"
      ],
      [
        "m",
        "in"
      ],
      [
        "L",
        "arge"
      ],
      [
        "b",
        "right"
      ],
      [
        "c",
        "le"
      ],
      [
        "d",
        "le"
      ],
      [
        "e",
        "s"
      ],
      [
        "g",
        "ger"
      ],
      [
        "st",
        "art"
      ],
      [
        "ho",
        "me"
      ],
      [
        "ba",
        "ck"
      ],
      [
        "tri",
        "gger"
      ],
      [
        "min",
        "us"
      ],
      [
        "h",
        "ot"
      ],
      [
        "u",
        "n"
      ],
      [
        "at",
        "ter"
      ],
      [
        "c",
        "la"
      ],
      [
        "b",
        "le"
      ],
      [
        "b",
        "um"
      ],
      [
        "b",
        "atter"
      ],
      [
        "c",
        "w"
      ],
      [
        "d",
        "ot"
      ],
      [
        "p",
        "r"
      ],
      [
        "p",
        "lus"
      ],
      [
        "pad",
        "dle"
      ],
      [
        "ne",
        "on"
      ],
      [
        "mo",
        "ve"
      ],
      [
        "joy",
        "con"
      ],
      [
        "bum",
        "per"
      ],
      [
        "batter",
        "y"
      ],
      [
        "O",
        "r"
      ],
      [
        "c",
        "aramel"
      ],
      [
        "d",
        "rak"
      ],
      [
        "or",
        "chid"
      ],
      [
        "vi",
        "olet"
      ],
      [
        "c",
        "ir"
      ],
      [
        "c",
        "enter"
      ],
      [
        "d",
        "ou"
      ],
      [
        "l",
        "t"
      ],
      [
        "s",
        "y"
      ],
      [
        "s",
        "er"
      ],
      [
        "ed",
        "ge"
      ],
      [
        "sh",
        "are"
      ],
      [
        "ne",
        "s"
      ],
      [
        "ec",
        "t"
      ],
      [
        "cir",
        "cle"
      ],
      [
        "dou",
        "ble"
      ],
      [
        "m",
        "p"
      ],
      [
        "p",
        "a"
      ],
      [
        "z",
        "e"
      ],
      [
        "S",
        "i"
      ],
      [
        "Si",
        "lver"
      ],
      [
        "h",
        "e"
      ],
      [
        "t",
        "r"
      ],
      [
        "l",
        "on"
      ],
      [
        "s",
        "el"
      ],
      [
        "s",
        "la"
      ],
      [
        "s",
        "cro"
      ],
      [
        "t",
        "ion"
      ],
      [
        "el",
        "ite"
      ],
      [
        "rotat",
        "ion"
      ],
      [
        "ma",
        "l"
      ],
      [
        "ra",
        "ck"
      ],
      [
        "or",
        "mal"
      ],
      [
        "al",
        "t"
      ],
      [
        "ta",
        "p"
      ],
      [
        "sel",
        "ect"
      ],
      [
        "sla",
        "sh"
      ],
      [
        "scro",
        "ll"
      ],
      [
        "c",
        "a"
      ],
      [
        "e",
        "mp"
      ],
      [
        "t",
        "y"
      ],
      [
        "emp",
        "ty"
      ],
      [
        "at",
        "er"
      ],
      [
        "w",
        "ater"
      ],
      [
        "s",
        "sic"
      ],
      [
        "B",
        "lue"
      ],
      [
        "cla",
        "ssic"
      ],
      [
        "Or",
        "ange"
      ],
      [
        "P",
        "ink"
      ],
      [
        "R",
        "ed"
      ],
      [
        "d",
        "e"
      ],
      [
        "e",
        "x"
      ],
      [
        "i",
        "le"
      ],
      [
        "i",
        "es"
      ],
      [
        "l",
        "s"
      ],
      [
        "m",
        "edi"
      ],
      [
        "n",
        "d"
      ],
      [
        "n",
        "ormal"
      ],
      [
        "p",
        "re"
      ],
      [
        "r",
        "s"
      ],
      [
        "s",
        "l"
      ],
      [
        "s",
        "ou"
      ],
      [
        "v",
        "it"
      ],
      [
        "rotat",
        "e"
      ],
      [
        "of",
        "ile"
      ],
      [
        "le",
        "r"
      ],
      [
        "op",
        "tion"
      ],
      [
        "ho",
        "ld"
      ],
      [
        "se",
        "t"
      ],
      [
        "pr",
        "ofile"
      ],
      [
        "ser",
        "ies"
      ],
      [
        "lon",
        "g"
      ],
      [
        "medi",
        "a"
      ],
      [
        "sou",
        "nd"
      ],
      [
        "vit",
        "a"
      ],
      [
        "G",
        "reen"
      ],
      [
        "P",
        "u"
      ],
      [
        "Pu",
        "rple"
      ],
      [
        "h",
        "on"
      ],
      [
        "m",
        "il"
      ],
      [
        "be",
        "er"
      ],
      [
        "hon",
        "ey"
      ],
      [
        "mil",
        "k"
      ],
      [
        "ing",
        "er"
      ],
      [
        "c",
        "orn"
      ],
      [
        "G",
        "o"
      ],
      [
        "G",
        "ra"
      ],
      [
        "G",
        "rand"
      ],
      [
        "Go",
        "ld"
      ],
      [
        "Y",
        "ellow"
      ],
      [
        "Gra",
        "y"
      ],
      [
        "B",
        "rown"
      ],
      [
        "M",
        "int"
      ],
      [
        "S",
        "k"
      ],
      [
        "Sk",
        "y"
      ],
      [
        "3",
        "6"
      ],
      [
        "a",
        "ce"
      ],
      [
        "b",
        "ar"
      ],
      [
        "b",
        "rack"
      ],
      [
        "c",
        "are"
      ],
      [
        "c",
        "cw"
      ],
      [
        "e",
        "t"
      ],
      [
        "e",
        "w"
      ],
      [
        "f",
        "1"
      ],
      [
        "f",
        "n"
      ],
      [
        "f",
        "inger"
      ],
      [
        "i",
        "ft"
      ],
      [
        "l",
        "1"
      ],
      [
        "l",
        "2"
      ],
      [
        "l",
        "ler"
      ],
      [
        "m",
        "at"
      ],
      [
        "m",
        "ark"
      ],
      [
        "n",
        "c"
      ],
      [
        "n",
        "un"
      ],
      [
        "o",
        "l"
      ],
      [
        "r",
        "1"
      ],
      [
        "r",
        "2"
      ],
      [
        "r",
        "ing"
      ],
      [
        "s",
        "c"
      ],
      [
        "t",
        "i"
      ],
      [
        "t",
        "ro"
      ],
      [
        "u",
        "k"
      ],
      [
        "u",
        "r"
      ],
      [
        "u",
        "se"
      ],
      [
        "z",
        "l"
      ],
      [
        "z",
        "r"
      ],
      [
        "ch",
        "uk"
      ],
      [
        "ic",
        "e"
      ],
      [
        "ic",
        "at"
      ],
      [
        "ey",
        "e"
      ],
      [
        "re",
        "si"
      ],
      [
        "ps",
        "3"
      ],
      [
        "sp",
        "ace"
      ],
      [
        "mu",
        "te"
      ],
      [
        "con",
        "tro"
      ],
      [
        "light",
        "bar"
      ],
      [
        "vi",
        "ew"
      ],
      [
        "sy",
        "nc"
      ],
      [
        "pa",
        "use"
      ],
      [
        "option",
        "s"
      ],
      [
        "corn",
        "er"
      ],
      [
        "36",
        "0"
      ],
      [
        "brack",
        "et"
      ],
      [
        "care",
        "t"
      ],
      [
        "nun",
        "chuk"
      ],
      [
        "resi",
        "ze"
      ],
      [
        "contro",
        "ller"
      ],
      [
        "m",
        "ic"
      ],
      [
        "T",
        "e"
      ],
      [
        "p",
        "in"
      ],
      [
        "D",
        "ark"
      ],
      [
        "Te",
        "al"
      ],
      [
        "L",
        "i"
      ],
      [
        "o",
        "me"
      ],
      [
        "a",
        "k"
      ],
      [
        "a",
        "ll"
      ],
      [
        "c",
        "tr"
      ],
      [
        "d",
        "en"
      ],
      [
        "d",
        "icat"
      ],
      [
        "e",
        "st"
      ],
      [
        "e",
        "qu"
      ],
      [
        "f",
        "re"
      ],
      [
        "g",
        "uid"
      ],
      [
        "h",
        "el"
      ],
      [
        "l",
        "b"
      ],
      [
        "l",
        "stick"
      ],
      [
        "m",
        "bo"
      ],
      [
        "n",
        "ing"
      ],
      [
        "o",
        "g"
      ],
      [
        "p",
        "tu"
      ],
      [
        "r",
        "b"
      ],
      [
        "r",
        "t"
      ],
      [
        "r",
        "stick"
      ],
      [
        "s",
        "r"
      ],
      [
        "s",
        "u"
      ],
      [
        "s",
        "ho"
      ],
      [
        "t",
        "h"
      ],
      [
        "t",
        "il"
      ],
      [
        "v",
        "ol"
      ],
      [
        "v",
        "ice"
      ],
      [
        "ed",
        "al"
      ],
      [
        "st",
        "ar"
      ],
      [
        "in",
        "f"
      ],
      [
        "in",
        "dicat"
      ],
      [
        "um",
        "e"
      ],
      [
        "sp",
        "e"
      ],
      [
        "sh",
        "ift"
      ],
      [
        "qu",
        "est"
      ],
      [
        "mu",
        "lt"
      ],
      [
        "lo",
        "ad"
      ],
      [
        "lo",
        "op"
      ],
      [
        "id",
        "e"
      ],
      [
        "id",
        "den"
      ],
      [
        "cla",
        "mat"
      ],
      [
        "sy",
        "mbo"
      ],
      [
        "he",
        "art"
      ],
      [
        "ca",
        "ptu"
      ],
      [
        "ex",
        "clamat"
      ],
      [
        "pre",
        "ss"
      ],
      [
        "finger",
        "s"
      ],
      [
        "pin",
        "ch"
      ],
      [
        "ctr",
        "l"
      ],
      [
        "equ",
        "al"
      ],
      [
        "guid",
        "e"
      ],
      [
        "til",
        "t"
      ],
      [
        "vol",
        "ume"
      ],
      [
        "indicat",
        "or"
      ],
      [
        "quest",
        "ion"
      ],
      [
        "mult",
        "i"
      ],
      [
        "symbo",
        "l"
      ],
      [
        "captu",
        "re"
      ],
      [
        "exclamat",
        "ion"
      ],
      [
        "a",
        "pp"
      ],
      [
        "A",
        "n"
      ],
      [
        "B",
        "right"
      ],
      [
        "C",
        "aramel"
      ],
      [
        "D",
        "rak"
      ],
      [
        "H",
        "ot"
      ],
      [
        "V",
        "i"
      ],
      [
        "p",
        "la"
      ],
      [
        "u",
        "ll"
      ],
      [
        "el",
        "e"
      ],
      [
        "st",
        "e"
      ],
      [
        "ra",
        "g"
      ],
      [
        "Or",
        "chid"
      ],
      [
        "Vi",
        "olet"
      ],
      [
        "d",
        "rag"
      ],
      [
        "Li",
        "me"
      ],
      [
        "r",
        "on"
      ],
      [
        "tr",
        "ic"
      ],
      [
        "ome",
        "tric"
      ],
      [
        "a",
        "c"
      ],
      [
        "a",
        "it"
      ],
      [
        "b",
        "idden"
      ],
      [
        "c",
        "an"
      ],
      [
        "c",
        "am"
      ],
      [
        "d",
        "l"
      ],
      [
        "d",
        "o"
      ],
      [
        "d",
        "r"
      ],
      [
        "f",
        "av"
      ],
      [
        "h",
        "and"
      ],
      [
        "h",
        "am"
      ],
      [
        "k",
        "e"
      ],
      [
        "m",
        "i"
      ],
      [
        "m",
        "ma"
      ],
      [
        "m",
        "ath"
      ],
      [
        "n",
        "k"
      ],
      [
        "o",
        "m"
      ],
      [
        "p",
        "g"
      ],
      [
        "p",
        "en"
      ],
      [
        "p",
        "ow"
      ],
      [
        "p",
        "ro"
      ],
      [
        "p",
        "edal"
      ],
      [
        "s",
        "li"
      ],
      [
        "s",
        "sha"
      ],
      [
        "t",
        "w"
      ],
      [
        "t",
        "rack"
      ],
      [
        "u",
        "l"
      ],
      [
        "u",
        "re"
      ],
      [
        "v",
        "ide"
      ],
      [
        "w",
        "ar"
      ],
      [
        "w",
        "ard"
      ],
      [
        "w",
        "ait"
      ],
      [
        "y",
        "lus"
      ],
      [
        "z",
        "oo"
      ],
      [
        "ot",
        "e"
      ],
      [
        "li",
        "nk"
      ],
      [
        "at",
        "ta"
      ],
      [
        "er",
        "a"
      ],
      [
        "er",
        "ic"
      ],
      [
        "st",
        "op"
      ],
      [
        "st",
        "ylus"
      ],
      [
        "an",
        "al"
      ],
      [
        "en",
        "d"
      ],
      [
        "en",
        "t"
      ],
      [
        "in",
        "er"
      ],
      [
        "ge",
        "ar"
      ],
      [
        "ma",
        "il"
      ],
      [
        "re",
        "set"
      ],
      [
        "re",
        "fre"
      ],
      [
        "or",
        "ite"
      ],
      [
        "um",
        "b"
      ],
      [
        "fla",
        "g"
      ],
      [
        "ba",
        "ll"
      ],
      [
        "ld",
        "e"
      ],
      [
        "gra",
        "b"
      ],
      [
        "qu",
        "ote"
      ],
      [
        "ne",
        "xt"
      ],
      [
        "ne",
        "ss"
      ],
      [
        "gen",
        "eric"
      ],
      [
        "cro",
        "ssha"
      ],
      [
        "for",
        "bidden"
      ],
      [
        "for",
        "ward"
      ],
      [
        "co",
        "st"
      ],
      [
        "co",
        "in"
      ],
      [
        "co",
        "mma"
      ],
      [
        "wi",
        "fi"
      ],
      [
        "tu",
        "r"
      ],
      [
        "con",
        "ta"
      ],
      [
        "lock",
        "ed"
      ],
      [
        "ta",
        "b"
      ],
      [
        "bright",
        "ness"
      ],
      [
        "cle",
        "ar"
      ],
      [
        "es",
        "c"
      ],
      [
        "back",
        "slash"
      ],
      [
        "back",
        "space"
      ],
      [
        "dot",
        "s"
      ],
      [
        "pr",
        "int"
      ],
      [
        "ca",
        "ps"
      ],
      [
        "de",
        "vice"
      ],
      [
        "ls",
        "b"
      ],
      [
        "rs",
        "b"
      ],
      [
        "sl",
        "ot"
      ],
      [
        "ti",
        "lde"
      ],
      [
        "ak",
        "er"
      ],
      [
        "hel",
        "p"
      ],
      [
        "su",
        "b"
      ],
      [
        "th",
        "umb"
      ],
      [
        "inf",
        "o"
      ],
      [
        "spe",
        "aker"
      ],
      [
        "pla",
        "y"
      ],
      [
        "cam",
        "era"
      ],
      [
        "fav",
        "orite"
      ],
      [
        "pow",
        "er"
      ],
      [
        "sli",
        "der"
      ],
      [
        "tw",
        "o"
      ],
      [
        "track",
        "ball"
      ],
      [
        "war",
        "ning"
      ],
      [
        "zoo",
        "m"
      ],
      [
        "anal",
        "og"
      ],
      [
        "refre",
        "sh"
      ],
      [
        "crossha",
        "ir"
      ],
      [
        "conta",
        "iner"
      ],
      [
        "t",
        "o"
      ],
      [
        "C",
        "eramic"
      ],
      [
        "W",
        "ooden"
      ],
      [
        "l",
        "or"
      ],
      [
        "co",
        "lor"
      ],
      [
        "Gold",
        "en"
      ],
      [
        "B",
        "e"
      ],
      [
        "M",
        "agent"
      ],
      [
        "N",
        "avy"
      ],
      [
        "O",
        "li"
      ],
      [
        "Be",
        "ige"
      ],
      [
        "Magent",
        "a"
      ],
      [
        "Oli",
        "ve"
      ],
      [
        "b",
        "i"
      ],
      [
        "b",
        "ron"
      ],
      [
        "in",
        "y"
      ],
      [
        "ri",
        "es"
      ],
      [
        "sh",
        "iny"
      ],
      [
        "sk",
        "ull"
      ],
      [
        "sk",
        "ele"
      ],
      [
        "ste",
        "el"
      ],
      [
        "bron",
        "ze"
      ],
      [
        "skele",
        "tal"
      ],
      [
        "C",
        "o"
      ],
      [
        "L",
        "e"
      ],
      [
        "Co",
        "pper"
      ],
      [
        "Le",
        "ather"
      ],
      [
        "g",
        "ri"
      ],
      [
        "ge",
        "ometric"
      ],
      [
        "a",
        "u"
      ],
      [
        "er",
        "ries"
      ],
      [
        "1",
        "p"
      ],
      [
        "2",
        "p"
      ],
      [
        "N",
        "ormal"
      ],
      [
        "a",
        "i"
      ],
      [
        "a",
        "s"
      ],
      [
        "a",
        "st"
      ],
      [
        "a",
        "ge"
      ],
      [
        "a",
        "ma"
      ],
      [
        "a",
        "ut"
      ],
      [
        "a",
        "ve"
      ],
      [
        "a",
        "ler"
      ],
      [
        "b",
        "in"
      ],
      [
        "b",
        "ing"
      ],
      [
        "b",
        "rak"
      ],
      [
        "b",
        "ur"
      ],
      [
        "b",
        "erries"
      ],
      [
        "c",
        "l"
      ],
      [
        "c",
        "t"
      ],
      [
        "c",
        "el"
      ],
      [
        "c",
        "art"
      ],
      [
        "c",
        "ra"
      ],
      [
        "c",
        "re"
      ],
      [
        "c",
        "al"
      ],
      [
        "c",
        "red"
      ],
      [
        "c",
        "lo"
      ],
      [
        "c",
        "ust"
      ],
      [
        "c",
        "lock"
      ],
      [
        "c",
        "tion"
      ],
      [
        "c",
        "ur"
      ],
      [
        "c",
        "ent"
      ],
      [
        "d",
        "1"
      ],
      [
        "d",
        "2"
      ],
      [
        "d",
        "n"
      ],
      [
        "d",
        "el"
      ],
      [
        "d",
        "ome"
      ],
      [
        "d",
        "ele"
      ],
      [
        "d",
        "ama"
      ],
      [
        "e",
        "b"
      ],
      [
        "e",
        "p"
      ],
      [
        "e",
        "u"
      ],
      [
        "e",
        "ze"
      ],
      [
        "f",
        "2"
      ],
      [
        "f",
        "3"
      ],
      [
        "f",
        "4"
      ],
      [
        "f",
        "5"
      ],
      [
        "f",
        "6"
      ],
      [
        "f",
        "7"
      ],
      [
        "f",
        "8"
      ],
      [
        "f",
        "9"
      ],
      [
        "f",
        "r"
      ],
      [
        "f",
        "in"
      ],
      [
        "f",
        "un"
      ],
      [
        "f",
        "ol"
      ],
      [
        "f",
        "icat"
      ],
      [
        "f",
        "ull"
      ],
      [
        "g",
        "n"
      ],
      [
        "g",
        "ed"
      ],
      [
        "g",
        "la"
      ],
      [
        "g",
        "ing"
      ],
      [
        "g",
        "un"
      ],
      [
        "g",
        "ift"
      ],
      [
        "g",
        "as"
      ],
      [
        "h",
        "i"
      ],
      [
        "h",
        "y"
      ],
      [
        "h",
        "ou"
      ],
      [
        "h",
        "al"
      ],
      [
        "h",
        "ide"
      ],
      [
        "h",
        "idden"
      ],
      [
        "i",
        "o"
      ],
      [
        "i",
        "el"
      ],
      [
        "i",
        "sh"
      ],
      [
        "i",
        "sk"
      ],
      [
        "i",
        "ficat"
      ],
      [
        "k",
        "a"
      ],
      [
        "l",
        "k"
      ],
      [
        "l",
        "y"
      ],
      [
        "l",
        "ter"
      ],
      [
        "m",
        "it"
      ],
      [
        "m",
        "er"
      ],
      [
        "m",
        "ut"
      ],
      [
        "m",
        "id"
      ],
      [
        "m",
        "edal"
      ],
      [
        "n",
        "ot"
      ],
      [
        "n",
        "er"
      ],
      [
        "o",
        "lon"
      ],
      [
        "p",
        "1"
      ],
      [
        "p",
        "2"
      ],
      [
        "p",
        "3"
      ],
      [
        "p",
        "4"
      ],
      [
        "p",
        "rot"
      ],
      [
        "p",
        "ri"
      ],
      [
        "p",
        "or"
      ],
      [
        "p",
        "al"
      ],
      [
        "p",
        "and"
      ],
      [
        "p",
        "hot"
      ],
      [
        "p",
        "ly"
      ],
      [
        "r",
        "en"
      ],
      [
        "r",
        "ink"
      ],
      [
        "r",
        "ench"
      ],
      [
        "r",
        "gla"
      ],
      [
        "r",
        "lk"
      ],
      [
        "s",
        "w"
      ],
      [
        "s",
        "or"
      ],
      [
        "s",
        "ave"
      ],
      [
        "t",
        "ra"
      ],
      [
        "t",
        "arge"
      ],
      [
        "t",
        "oo"
      ],
      [
        "t",
        "ing"
      ],
      [
        "t",
        "sc"
      ],
      [
        "t",
        "og"
      ],
      [
        "u",
        "it"
      ],
      [
        "v",
        "r"
      ],
      [
        "w",
        "he"
      ],
      [
        "w",
        "ak"
      ],
      [
        "w",
        "eb"
      ],
      [
        "w",
        "rench"
      ],
      [
        "x",
        "us"
      ],
      [
        "ed",
        "it"
      ],
      [
        "ot",
        "h"
      ],
      [
        "ar",
        "ch"
      ],
      [
        "ar",
        "ging"
      ],
      [
        "li",
        "ke"
      ],
      [
        "pp",
        "ing"
      ],
      [
        "fli",
        "ck"
      ],
      [
        "er",
        "ing"
      ],
      [
        "er",
        "isk"
      ],
      [
        "ll",
        "ar"
      ],
      [
        "ch",
        "at"
      ],
      [
        "ch",
        "men"
      ],
      [
        "ch",
        "arging"
      ],
      [
        "bo",
        "ot"
      ],
      [
        "st",
        "at"
      ],
      [
        "st",
        "ure"
      ],
      [
        "in",
        "s"
      ],
      [
        "in",
        "ite"
      ],
      [
        "in",
        "ser"
      ],
      [
        "in",
        "ner"
      ],
      [
        "ge",
        "up"
      ],
      [
        "ge",
        "sture"
      ],
      [
        "ma",
        "in"
      ],
      [
        "ma",
        "cro"
      ],
      [
        "fi",
        "g"
      ],
      [
        "fi",
        "re"
      ],
      [
        "fi",
        "lter"
      ],
      [
        "ra",
        "il"
      ],
      [
        "ou",
        "d"
      ],
      [
        "re",
        "e"
      ],
      [
        "re",
        "su"
      ],
      [
        "ad",
        "d"
      ],
      [
        "ad",
        "set"
      ],
      [
        "or",
        "d"
      ],
      [
        "or",
        "y"
      ],
      [
        "op",
        "en"
      ],
      [
        "op",
        "hy"
      ],
      [
        "bott",
        "om"
      ],
      [
        "up",
        "load"
      ],
      [
        "sp",
        "inner"
      ],
      [
        "ho",
        "ver"
      ],
      [
        "ba",
        "g"
      ],
      [
        "sh",
        "ow"
      ],
      [
        "sh",
        "iel"
      ],
      [
        "sh",
        "rink"
      ],
      [
        "si",
        "ble"
      ],
      [
        "si",
        "gn"
      ],
      [
        "me",
        "ss"
      ],
      [
        "ut",
        "er"
      ],
      [
        "ce",
        "ss"
      ],
      [
        "blue",
        "to"
      ],
      [
        "ne",
        "ct"
      ],
      [
        "ne",
        "xus"
      ],
      [
        "se",
        "mic"
      ],
      [
        "se",
        "mi"
      ],
      [
        "se",
        "arch"
      ],
      [
        "co",
        "mp"
      ],
      [
        "slee",
        "p"
      ],
      [
        "sha",
        "ke"
      ],
      [
        "down",
        "load"
      ],
      [
        "di",
        "o"
      ],
      [
        "di",
        "p"
      ],
      [
        "di",
        "sk"
      ],
      [
        "di",
        "vide"
      ],
      [
        "mo",
        "de"
      ],
      [
        "num",
        "lock"
      ],
      [
        "con",
        "fig"
      ],
      [
        "con",
        "nect"
      ],
      [
        "light",
        "ning"
      ],
      [
        "light",
        "gun"
      ],
      [
        "va",
        "s"
      ],
      [
        "rew",
        "ard"
      ],
      [
        "ta",
        "ll"
      ],
      [
        "vi",
        "sible"
      ],
      [
        "per",
        "cent"
      ],
      [
        "per",
        "io"
      ],
      [
        "un",
        "lock"
      ],
      [
        "un",
        "locked"
      ],
      [
        "pr",
        "tsc"
      ],
      [
        "ser",
        "vice"
      ],
      [
        "pa",
        "ged"
      ],
      [
        "pa",
        "geup"
      ],
      [
        "he",
        "alt"
      ],
      [
        "he",
        "adset"
      ],
      [
        "tr",
        "ophy"
      ],
      [
        "scroll",
        "lock"
      ],
      [
        "de",
        "ath"
      ],
      [
        "de",
        "ep"
      ],
      [
        "ex",
        "it"
      ],
      [
        "ex",
        "pand"
      ],
      [
        "pre",
        "v"
      ],
      [
        "pre",
        "mi"
      ],
      [
        "set",
        "up"
      ],
      [
        "set",
        "ting"
      ],
      [
        "f1",
        "0"
      ],
      [
        "f1",
        "1"
      ],
      [
        "f1",
        "2"
      ],
      [
        "finger",
        "print"
      ],
      [
        "mat",
        "o"
      ],
      [
        "sc",
        "an"
      ],
      [
        "sc",
        "reen"
      ],
      [
        "sc",
        "rlk"
      ],
      [
        "ti",
        "me"
      ],
      [
        "ti",
        "ve"
      ],
      [
        "fre",
        "eze"
      ],
      [
        "hel",
        "d"
      ],
      [
        "sho",
        "ot"
      ],
      [
        "sho",
        "ck"
      ],
      [
        "sho",
        "pping"
      ],
      [
        "th",
        "ree"
      ],
      [
        "inf",
        "inite"
      ],
      [
        "spe",
        "ed"
      ],
      [
        "press",
        "ure"
      ],
      [
        "equal",
        "s"
      ],
      [
        "multi",
        "ply"
      ],
      [
        "app",
        "1"
      ],
      [
        "app",
        "2"
      ],
      [
        "ste",
        "ering"
      ],
      [
        "ac",
        "cess"
      ],
      [
        "ac",
        "tive"
      ],
      [
        "can",
        "cel"
      ],
      [
        "can",
        "vas"
      ],
      [
        "do",
        "gear"
      ],
      [
        "do",
        "llar"
      ],
      [
        "hand",
        "held"
      ],
      [
        "ham",
        "bur"
      ],
      [
        "ham",
        "mer"
      ],
      [
        "pg",
        "up"
      ],
      [
        "pg",
        "dn"
      ],
      [
        "vide",
        "o"
      ],
      [
        "atta",
        "ck"
      ],
      [
        "atta",
        "chmen"
      ],
      [
        "ent",
        "ial"
      ],
      [
        "grab",
        "bing"
      ],
      [
        "tur",
        "n"
      ],
      [
        "tur",
        "bo"
      ],
      [
        "print",
        "screen"
      ],
      [
        "sub",
        "mit"
      ],
      [
        "thumb",
        "stick"
      ],
      [
        "bi",
        "ometric"
      ],
      [
        "gri",
        "p"
      ],
      [
        "au",
        "dio"
      ],
      [
        "ai",
        "m"
      ],
      [
        "ast",
        "erisk"
      ],
      [
        "aut",
        "o"
      ],
      [
        "aler",
        "t"
      ],
      [
        "brak",
        "e"
      ],
      [
        "cl",
        "oud"
      ],
      [
        "cra",
        "ft"
      ],
      [
        "cre",
        "ate"
      ],
      [
        "cal",
        "c"
      ],
      [
        "cred",
        "ential"
      ],
      [
        "clo",
        "se"
      ],
      [
        "cust",
        "om"
      ],
      [
        "cur",
        "ren"
      ],
      [
        "dele",
        "te"
      ],
      [
        "dama",
        "ge"
      ],
      [
        "eu",
        "ro"
      ],
      [
        "fr",
        "uit"
      ],
      [
        "fin",
        "ish"
      ],
      [
        "fun",
        "ction"
      ],
      [
        "fol",
        "der"
      ],
      [
        "hi",
        "gh"
      ],
      [
        "hou",
        "rgla"
      ],
      [
        "hal",
        "f"
      ],
      [
        "ificat",
        "ion"
      ],
      [
        "mut",
        "ed"
      ],
      [
        "mid",
        "dle"
      ],
      [
        "not",
        "ification"
      ],
      [
        "prot",
        "ect"
      ],
      [
        "pri",
        "ka"
      ],
      [
        "por",
        "tal"
      ],
      [
        "pal",
        "m"
      ],
      [
        "phot",
        "o"
      ],
      [
        "sw",
        "ord"
      ],
      [
        "sor",
        "t"
      ],
      [
        "tra",
        "sh"
      ],
      [
        "targe",
        "t"
      ],
      [
        "too",
        "l"
      ],
      [
        "tog",
        "gle"
      ],
      [
        "whe",
        "el"
      ],
      [
        "wak",
        "e"
      ],
      [
        "inser",
        "t"
      ],
      [
        "resu",
        "lt"
      ],
      [
        "shiel",
        "d"
      ],
      [
        "mess",
        "age"
      ],
      [
        "blueto",
        "oth"
      ],
      [
        "semic",
        "olon"
      ],
      [
        "comp",
        "uter"
      ],
      [
        "connect",
        "or"
      ],
      [
        "perio",
        "d"
      ],
      [
        "paged",
        "own"
      ],
      [
        "healt",
        "h"
      ],
      [
        "premi",
        "um"
      ],
      [
        "setting",
        "s"
      ],
      [
        "access",
        "ory"
      ],
      [
        "hambur",
        "ger"
      ],
      [
        "attachmen",
        "t"
      ],
      [
        "curren",
        "cy"
      ],
      [
        "hourgla",
        "ss"
      ],
      [
        "C",
        "y"
      ],
      [
        "M",
        "e"
      ],
      [
        "app",
        "le"
      ],
      [
        "Cy",
        "an"
      ],
      [
        "B",
        "am"
      ],
      [
        "I",
        "ron"
      ],
      [
        "M",
        "o"
      ],
      [
        "i",
        "ma"
      ],
      [
        "li",
        "st"
      ],
      [
        "min",
        "ima"
      ],
      [
        "pa",
        "prika"
      ],
      [
        "Li",
        "ght"
      ],
      [
        "to",
        "mato"
      ],
      [
        "Me",
        "tal"
      ],
      [
        "Bam",
        "boo"
      ],
      [
        "Mo",
        "dern"
      ],
      [
        "minima",
        "list"
      ],
      [
        "H",
        "o"
      ],
      [
        "M",
        "ic"
      ],
      [
        "a",
        "ch"
      ],
      [
        "b",
        "ba"
      ],
      [
        "e",
        "apple"
      ],
      [
        "f",
        "low"
      ],
      [
        "g",
        "g"
      ],
      [
        "i",
        "wi"
      ],
      [
        "k",
        "in"
      ],
      [
        "m",
        "el"
      ],
      [
        "m",
        "on"
      ],
      [
        "n",
        "t"
      ],
      [
        "o",
        "cad"
      ],
      [
        "o",
        "es"
      ],
      [
        "p",
        "kin"
      ],
      [
        "r",
        "y"
      ],
      [
        "ar",
        "li"
      ],
      [
        "ar",
        "rot"
      ],
      [
        "li",
        "flow"
      ],
      [
        "at",
        "oes"
      ],
      [
        "ch",
        "un"
      ],
      [
        "an",
        "ana"
      ],
      [
        "um",
        "pkin"
      ],
      [
        "raw",
        "berries"
      ],
      [
        "con",
        "ut"
      ],
      [
        "pla",
        "nt"
      ],
      [
        "bi",
        "g"
      ],
      [
        "bba",
        "ge"
      ],
      [
        "gg",
        "plant"
      ],
      [
        "mel",
        "on"
      ],
      [
        "ocad",
        "o"
      ],
      [
        "arli",
        "c"
      ],
      [
        "liflow",
        "er"
      ],
      [
        "chun",
        "k"
      ],
      [
        "b",
        "anana"
      ],
      [
        "c",
        "arrot"
      ],
      [
        "e",
        "ggplant"
      ],
      [
        "g",
        "inger"
      ],
      [
        "g",
        "arlic"
      ],
      [
        "k",
        "iwi"
      ],
      [
        "p",
        "umpkin"
      ],
      [
        "u",
        "liflower"
      ],
      [
        "le",
        "mon"
      ],
      [
        "on",
        "ion"
      ],
      [
        "st",
        "rawberries"
      ],
      [
        "pot",
        "atoes"
      ],
      [
        "me",
        "at"
      ],
      [
        "pe",
        "ar"
      ],
      [
        "pe",
        "ach"
      ],
      [
        "gra",
        "pes"
      ],
      [
        "blue",
        "berries"
      ],
      [
        "co",
        "conut"
      ],
      [
        "cher",
        "ries"
      ],
      [
        "cher",
        "ry"
      ],
      [
        "av",
        "ocado"
      ],
      [
        "ca",
        "bbage"
      ],
      [
        "ca",
        "uliflower"
      ],
      [
        "water",
        "melon"
      ],
      [
        "pin",
        "eapple"
      ],
      [
        "drag",
        "on"
      ],
      [
        "p",
        "atter"
      ],
      [
        "Ho",
        "llow"
      ],
      [
        "patter",
        "n"
      ],
      [
        "B",
        "or"
      ],
      [
        "C",
        "h"
      ],
      [
        "C",
        "ro"
      ],
      [
        "C",
        "he"
      ],
      [
        "D",
        "i"
      ],
      [
        "M",
        "a"
      ],
      [
        "P",
        "a"
      ],
      [
        "P",
        "e"
      ],
      [
        "S",
        "quare"
      ],
      [
        "T",
        "o"
      ],
      [
        "T",
        "ri"
      ],
      [
        "ck",
        "erboard"
      ],
      [
        "gic",
        "al"
      ],
      [
        "gri",
        "d"
      ],
      [
        "Ho",
        "rizontal"
      ],
      [
        "Bor",
        "der"
      ],
      [
        "Cro",
        "ss"
      ],
      [
        "Che",
        "ckerboard"
      ],
      [
        "Di",
        "amond"
      ],
      [
        "Ma",
        "gical"
      ],
      [
        "Pa",
        "prika"
      ],
      [
        "To",
        "mato"
      ],
      [
        "Tri",
        "angle"
      ],
      [
        "A",
        "v"
      ],
      [
        "A",
        "pp"
      ],
      [
        "B",
        "anana"
      ],
      [
        "C",
        "a"
      ],
      [
        "C",
        "la"
      ],
      [
        "C",
        "orn"
      ],
      [
        "C",
        "au"
      ],
      [
        "C",
        "arrot"
      ],
      [
        "D",
        "rag"
      ],
      [
        "E",
        "ggplant"
      ],
      [
        "G",
        "inger"
      ],
      [
        "G",
        "arlic"
      ],
      [
        "K",
        "iwi"
      ],
      [
        "O",
        "n"
      ],
      [
        "P",
        "ot"
      ],
      [
        "P",
        "in"
      ],
      [
        "P",
        "umpkin"
      ],
      [
        "S",
        "t"
      ],
      [
        "W",
        "ater"
      ],
      [
        "er",
        "ry"
      ],
      [
        "Blue",
        "berries"
      ],
      [
        "Gra",
        "pes"
      ],
      [
        "Te",
        "st"
      ],
      [
        "Co",
        "conut"
      ],
      [
        "Le",
        "mon"
      ],
      [
        "Me",
        "at"
      ],
      [
        "Ch",
        "erries"
      ],
      [
        "Ch",
        "erry"
      ],
      [
        "Pe",
        "ar"
      ],
      [
        "Pe",
        "ach"
      ],
      [
        "Av",
        "ocado"
      ],
      [
        "App",
        "le"
      ],
      [
        "Ca",
        "bbage"
      ],
      [
        "Cla",
        "ssic"
      ],
      [
        "Cau",
        "liflower"
      ],
      [
        "Drag",
        "on"
      ],
      [
        "On",
        "ion"
      ],
      [
        "Pot",
        "atoes"
      ],
      [
        "Pin",
        "eapple"
      ],
      [
        "St",
        "rawberries"
      ],
      [
        "Water",
        "melon"
      ]
    ]
  }
}