{
  "version": "1.0",
  "truncation": null,
  "padding": null,
  "added_tokens": [
    {
      "id": 0,
      "content": "<PAD>",
      "single_word": false,
      "lstrip": false,
      "rstrip": false,
      "normalized": false,
      "special": true
    },
    {
      "id": 1,
      "content": "<SOS>",
      "single_word": false,
      "lstrip": false,
      "rstrip": false,
      "normalized": false,
      "special": true
    },
    {
      "id": 2,
      "content": "<EOS>",
      "single_word": false,
      "lstrip": false,
      "rstrip": false,
      "normalized": false,
      "special": true
    },
    {
      "id": 3,
      "content": "<UNK>",
      "single_word": false,
      "lstrip": false,
      "rstrip": false,
      "normalized": false,
      "special": true
    }
  ],
  "normalizer": null,
  "pre_tokenizer": {
    "type": "Whitespace"
  },
  "post_processor": null,
  "decoder": null,
  "model": {
    "type": "BPE",
    "dropout": null,
    "unk_token": "<UNK>",
    "continuing_subword_prefix": null,
    "end_of_word_suffix": null,
    "fuse_unk": false,
    "byte_fallback": false,
    "ignore_merges": false,
    "vocab": {
      "<PAD>": 0,
      "<SOS>": 1,
      "<EOS>": 2,
      "<UNK>": 3,
      "0": 4,
      "1": 5,
      "2": 6,
      "3": 7,
      "4": 8,
      "5": 9,
      "6": 10,
      "7": 11,
      "8": 12,
      "9": 13,
      "?": 14,
      "A": 15,
      "B": 16,
      "C": 17,
      "D": 18,
      "E": 19,
      "F": 20,
      "G": 21,
      "H": 22,
      "I": 23,
      "J": 24,
      "K": 25,
      "L": 26,
      "M": 27,
      "N": 28,
      "O": 29,
      "P": 30,
      "Q": 31,
      "R": 32,
      "S": 33,
      "T": 34,
      "U": 35,
      "V": 36,
      "W": 37,
      "X": 38,
      "Y": 39,
      "Z": 40,
      "[": 41,
      "]": 42,
      "a": 43,
      "b": 44,
      "c": 45,
      "d": 46,
      "e": 47,
      "f": 48,
      "g": 49,
      "h": 50,
      "i": 51,
      "k": 52,
      "l": 53,
      "m": 54,
      "n": 55,
      "o": 56,
      "p": 57,
      "q": 58,
      "r": 59,
      "s": 60,
      "t": 61,
      "u": 62,
      "v": 63,
      "w": 64,
      "x": 65,
      "y": 66,
      "z": 67,
      "1X": 68,
      "Re": 69,
      "16": 70,
      "3W": 71,
      "1W": 72,
      "1A": 73,
      "16W": 74,
      "2W": 75,
      "Re2": 76,
      "7W": 77,
      "5K": 78,
      "1V": 79,
      "4W": 80,
      "3K": 81,
      "5W": 82,
      "6W": 83,
      "1N": 84,
      "8W": 85,
      "1K": 86,
      "re": 87,
      "4K": 88,
      "ra": 89,
      "Re3": 90,
      "1U": 91,
      "le": 92,
      "10": 93,
      "te": 94,
      "1E": 95,
      "ol": 96,
      "1Z": 97,
      "ri": 98,
      "1O": 99,
      "Re6": 100,
      "12": 101,
      "1M": 102,
      "ge": 103,
      "1H": 104,
      "1L": 105,
      "6K": 106,
      "ar": 107,
      "1D": 108,
      "ple": 109,
      "an": 110,
      "2K": 111,
      "ow": 112,
      "tri": 113,
      "2H": 114,
      "ke": 115,
      "1S": 116,
      "16K": 117,
      "1P": 118,
      "in": 119,
      "2A": 120,
      "low": 121,
      "1J": 122,
      "1Y": 123,
      "on": 124,
      "1B": 125,
      "ou": 126,
      "el": 127,
      "1R": 128,
      "1G": 129,
      "me": 130,
      "gen": 131,
      "13": 132,
      "raw": 133,
      "ma": 134,
      "bo": 135,
      "red": 136,
      "are": 137,
      "gle": 138,
      "qu": 139,
      "ollow": 140,
      "angle": 141,
      "quare": 142,
      "square": 143,
      "triangle": 144,
      "draw": 145,
      "hollow": 146,
      "era": 147,
      "ix": 148,
      "pix": 149,
      "art": 150,
      "erate": 151,
      "pixel": 152,
      "as": 153,
      "ro": 154,
      "2V": 155,
      "3V": 156,
      "er": 157,
      "rea": 158,
      "you": 159,
      "pleas": 160,
      "generate": 161,
      "make": 162,
      "please": 163,
      "4N": 164,
      "col": 165,
      "ored": 166,
      "reate": 167,
      "colored": 168,
      "he": 169,
      "ta": 170,
      "si": 171,
      "be": 172,
      "create": 173,
      "bl": 174,
      "4H": 175,
      "ti": 176,
      "Re10": 177,
      "Re4": 178,
      "der": 179,
      "ard": 180,
      "13W": 181,
      "11W": 182,
      "12W": 183,
      "14W": 184,
      "9W": 185,
      "Re5": 186,
      "Re8": 187,
      "Re12": 188,
      "15": 189,
      "2N": 190,
      "es": 191,
      "3N": 192,
      "di": 193,
      "mon": 194,
      "pes": 195,
      "amon": 196,
      "cke": 197,
      "fra": 198,
      "ori": 199,
      "rbo": 200,
      "rder": 201,
      "ss": 202,
      "stri": 203,
      "zon": 204,
      "ross": 205,
      "hecke": 206,
      "tal": 207,
      "amond": 208,
      "frame": 209,
      "orizon": 210,
      "rboard": 211,
      "stripes": 212,
      "heckerboard": 213,
      "orizontal": 214,
      "cross": 215,
      "checkerboard": 216,
      "horizontal": 217,
      "border": 218,
      "diamond": 219,
      "ue": 220,
      "mple": 221,
      "simple": 222,
      "blue": 223,
      "can": 224,
      "5N": 225,
      "2E": 226,
      "3E": 227,
      "au": 228,
      "2U": 229,
      "2Z": 230,
      "fu": 231,
      "tro": 232,
      "x16": 233,
      "16x16": 234,
      "retro": 235,
      "beau": 236,
      "tifu": 237,
      "beautifu": 238,
      "beautiful": 239,
      "or": 240,
      "2L": 241,
      "cou": 242,
      "for": 243,
      "ld": 244,
      "could": 245,
      "3L": 246,
      "en": 247,
      "3A": 248,
      "5L": 249,
      "sy": 250,
      "ste": 251,
      "syste": 252,
      "system": 253,
      "5E": 254,
      "7K": 255,
      "li": 256,
      "5U": 257,
      "nge": 258,
      "rple": 259,
      "urple": 260,
      "reen": 261,
      "range": 262,
      "ellow": 263,
      "2O": 264,
      "RI": 265,
      "4L": 266,
      "hi": 267,
      "lv": 268,
      "row": 269,
      "ray": 270,
      "ink": 271,
      "hite": 272,
      "lver": 273,
      "rown": 274,
      "2M": 275,
      "green": 276,
      "purple": 277,
      "yellow": 278,
      "orange": 279,
      "5A": 280,
      "brown": 281,
      "gray": 282,
      "pink": 283,
      "white": 284,
      "silver": 285,
      "lime": 286,
      "4E": 287,
      "po": 288,
      "tion": 289,
      "potion": 290,
      "ac": 291,
      "av": 292,
      "2D": 293,
      "ige": 294,
      "ky": 295,
      "ve": 296,
      "old": 297,
      "int": 298,
      "genta": 299,
      "ack": 300,
      "avy": 301,
      "3O": 302,
      "2P": 303,
      "Re16": 304,
      "AR": 305,
      "3U": 306,
      "gold": 307,
      "ive": 308,
      "mint": 309,
      "navy": 310,
      "sky": 311,
      "olive": 312,
      "magenta": 313,
      "beige": 314,
      "black": 315,
      "6N": 316,
      "HO": 317,
      "TRI": 318,
      "7N": 319,
      "OW": 320,
      "3S": 321,
      "5O": 322,
      "9K": 323,
      "LE": 324,
      "ER": 325,
      "the": 326,
      "2Y": 327,
      "AN": 328,
      "16N": 329,
      "3Z": 330,
      "HE": 331,
      "st": 332,
      "LL": 333,
      "ANG": 334,
      "LLOW": 335,
      "3P": 336,
      "ON": 337,
      "4A": 338,
      "6U": 339,
      "3D": 340,
      "16E": 341,
      "7E": 342,
      "9N": 343,
      "2S": 344,
      "3B": 345,
      "5P": 346,
      "BO": 347,
      "11K": 348,
      "16U": 349,
      "3R": 350,
      "5B": 351,
      "5H": 352,
      "AM": 353,
      "QU": 354,
      "SQU": 355,
      "ARE": 356,
      "HOLLOW": 357,
      "TRIANG": 358,
      "SQUARE": 359,
      "TRIANGLE": 360,
      "5S": 361,
      "10N": 362,
      "16A": 363,
      "16B": 364,
      "16D": 365,
      "16G": 366,
      "16H": 367,
      "16J": 368,
      "16L": 369,
      "16M": 370,
      "16O": 371,
      "16P": 372,
      "16R": 373,
      "16S": 374,
      "16V": 375,
      "16Y": 376,
      "16Z": 377,
      "3H": 378,
      "7L": 379,
      "6E": 380,
      "10K": 381,
      "11N": 382,
      "5Z": 383,
      "7A": 384,
      "6A": 385,
      "5R": 386,
      "9E": 387,
      "Ma": 388,
      "4S": 389,
      "13K": 390,
      "10H": 391,
      "10O": 392,
      "10U": 393,
      "11O": 394,
      "7U": 395,
      "4U": 396,
      "10E": 397,
      "10Z": 398,
      "Create": 399,
      "Draw": 400,
      "Gen": 401,
      "The": 402,
      "THE": 403,
      "Make": 404,
      "Generate": 405,
      "11E": 406,
      "3J": 407,
      "3M": 408,
      "7B": 409,
      "7O": 410,
      "7P": 411,
      "9A": 412,
      "9O": 413,
      "9U": 414,
      "9Z": 415,
      "12K": 416,
      "10A": 417,
      "10B": 418,
      "10D": 419,
      "10G": 420,
      "10J": 421,
      "10L": 422,
      "10M": 423,
      "10P": 424,
      "10R": 425,
      "10S": 426,
      "10V": 427,
      "10Y": 428,
      "11A": 429,
      "11V": 430,
      "11U": 431,
      "11Z": 432,
      "11M": 433,
      "11H": 434,
      "11L": 435,
      "11D": 436,
      "11S": 437,
      "11P": 438,
      "11J": 439,
      "11Y": 440,
      "11B": 441,
      "11R": 442,
      "11G": 443,
      "3G": 444,
      "3Y": 445,
      "5D": 446,
      "5G": 447,
      "5J": 448,
      "5M": 449,
      "5V": 450,
      "5Y": 451,
      "7D": 452,
      "7G": 453,
      "7H": 454,
      "7J": 455,
      "7M": 456,
      "7R": 457,
      "7S": 458,
      "7V": 459,
      "7Y": 460,
      "7Z": 461,
      "9B": 462,
      "9D": 463,
      "9G": 464,
      "9H": 465,
      "9J": 466,
      "9L": 467,
      "9M": 468,
      "9P": 469,
      "9R": 470,
      "9S": 471,
      "9V": 472,
      "9Y": 473,
      "2J": 474,
      "TA": 475,
      "4O": 476,
      "CK": 477,
      "2B": 478,
      "4P": 479,
      "test": 480,
      "6L": 481,
      "8N": 482,
      "BL": 483,
      "ES": 484,
      "bre": 485,
      "dard": 486,
      "ed": 487,
      "fl": 488,
      "lar": 489,
      "nder": 490,
      "sle": 491,
      "tt": 492,
      "tu": 493,
      "wed": 494,
      "andard": 495,
      "gent": 496,
      "bott": 497,
      "ask": 498,
      "reagent": 499,
      "standard": 500,
      "brewed": 501,
      "flask": 502,
      "large": 503,
      "slender": 504,
      "tube": 505,
      "bottle": 506,
      "2R": 507,
      "DER": 508,
      "12N": 509,
      "ARD": 510,
      "RE": 511,
      "DI": 512,
      "13E": 513,
      "13N": 514,
      "FR": 515,
      "8K": 516,
      "PES": 517,
      "RO": 518,
      "CHE": 519,
      "CRO": 520,
      "RDER": 521,
      "SS": 522,
      "STRI": 523,
      "ZON": 524,
      "RIZON": 525,
      "HORIZON": 526,
      "ERBO": 527,
      "OND": 528,
      "BORDER": 529,
      "AME": 530,
      "AMOND": 531,
      "TAL": 532,
      "CKERBO": 533,
      "DIAMOND": 534,
      "FRAME": 535,
      "CHECKERBO": 536,
      "CROSS": 537,
      "STRIPES": 538,
      "HORIZONTAL": 539,
      "CHECKERBOARD": 540,
      "GE": 541,
      "2G": 542,
      "12A": 543,
      "12B": 544,
      "12D": 545,
      "12E": 546,
      "12G": 547,
      "12H": 548,
      "12J": 549,
      "12L": 550,
      "12M": 551,
      "12O": 552,
      "12P": 553,
      "12R": 554,
      "12S": 555,
      "12U": 556,
      "12V": 557,
      "12Y": 558,
      "12Z": 559,
      "13A": 560,
      "13B": 561,
      "13D": 562,
      "13G": 563,
      "13H": 564,
      "13J": 565,
      "13L": 566,
      "13M": 567,
      "13O": 568,
      "13P": 569,
      "13R": 570,
      "13S": 571,
      "13U": 572,
      "13V": 573,
      "13Y": 574,
      "13Z": 575,
      "IN": 576,
      "4B": 577,
      "LI": 578,
      "UE": 579,
      "BLUE": 580,
      "Hollow": 581,
      "15K": 582,
      "15E": 583,
      "15N": 584,
      "4R": 585,
      "6O": 586,
      "al": 587,
      "go": 588,
      "digo": 589,
      "4V": 590,
      "teal": 591,
      "indigo": 592,
      "AGE": 593,
      "BE": 594,
      "SK": 595,
      "TE": 596,
      "AGEN": 597,
      "15A": 598,
      "15B": 599,
      "15D": 600,
      "15G": 601,
      "15H": 602,
      "15J": 603,
      "15L": 604,
      "15M": 605,
      "15O": 606,
      "15P": 607,
      "15R": 608,
      "15S": 609,
      "15U": 610,
      "15V": 611,
      "15Y": 612,
      "15Z": 613,
      "4D": 614,
      "PLE": 615,
      "RA": 616,
      "ME": 617,
      "OR": 618,
      "PU": 619,
      "EN": 620,
      "ELLOW": 621,
      "GRE": 622,
      "GRA": 623,
      "PIN": 624,
      "RPLE": 625,
      "YELLOW": 626,
      "ANGE": 627,
      "ORANGE": 628,
      "PURPLE": 629,
      "GREEN": 630,
      "BR": 631,
      "GO": 632,
      "HI": 633,
      "IL": 634,
      "SIL": 635,
      "VER": 636,
      "WHI": 637,
      "OWN": 638,
      "RED": 639,
      "LIME": 640,
      "GRAY": 641,
      "PINK": 642,
      "BROWN": 643,
      "SILVER": 644,
      "WHITE": 645,
      "to": 646,
      "AV": 647,
      "Bl": 648,
      "ACK": 649,
      "IGE": 650,
      "LD": 651,
      "MIN": 652,
      "MAGEN": 653,
      "NAV": 654,
      "OLI": 655,
      "VE": 656,
      "BLACK": 657,
      "BEIGE": 658,
      "SKY": 659,
      "GOLD": 660,
      "MINT": 661,
      "MAGENTA": 662,
      "NAVY": 663,
      "OLIVE": 664,
      "4Z": 665,
      "6H": 666,
      "8E": 667,
      "ION": 668,
      "PO": 669,
      "TION": 670,
      "POTION": 671,
      "Bo": 672,
      "Cross": 673,
      "Checkerboard": 674,
      "Di": 675,
      "Horizontal": 676,
      "Square": 677,
      "Tri": 678,
      "Border": 679,
      "Diamond": 680,
      "Triangle": 681,
      "ap": 682,
      "6B": 683,
      "6P": 684,
      "ries": 685,
      "erries": 686,
      "ch": 687,
      "Orange": 688,
      "Blue": 689,
      "Brown": 690,
      "Green": 691,
      "Gray": 692,
      "Li": 693,
      "Purple": 694,
      "Pink": 695,
      "Si": 696,
      "White": 697,
      "Yellow": 698,
      "Red": 699,
      "Lime": 700,
      "Silver": 701,
      "14N": 702,
      "6S": 703,
      "8A": 704,
      "8Z": 705,
      "10W": 706,
      "berries": 707,
      "fr": 708,
      "it": 709,
      "ka": 710,
      "ll": 711,
      "oc": 712,
      "sma": 713,
      "uit": 714,
      "rika": 715,
      "mato": 716,
      "aprika": 717,
      "fruit": 718,
      "small": 719,
      "Be": 720,
      "Gold": 721,
      "Mint": 722,
      "Navy": 723,
      "Oli": 724,
      "Sky": 725,
      "Magenta": 726,
      "Black": 727,
      "apple": 728,
      "Beige": 729,
      "Olive": 730,
      "pe": 731,
      "paprika": 732,
      "tomato": 733,
      "FL": 734,
      "ST": 735,
      "TES": 736,
      "TEST": 737,
      "ASK": 738,
      "BRE": 739,
      "DARD": 740,
      "ED": 741,
      "LAR": 742,
      "NDER": 743,
      "SLE": 744,
      "TT": 745,
      "TU": 746,
      "WED": 747,
      "ANDARD": 748,
      "BOTT": 749,
      "REAGEN": 750,
      "FLASK": 751,
      "STANDARD": 752,
      "BREWED": 753,
      "LARGE": 754,
      "SLENDER": 755,
      "TUBE": 756,
      "BOTTLE": 757,
      "REAGENT": 758,
      "14K": 759,
      "6D": 760,
      "6R": 761,
      "6Z": 762,
      "8H": 763,
      "8L": 764,
      "8O": 765,
      "8P": 766,
      "ab": 767,
      "ad": 768,
      "at": 769,
      "ate": 770,
      "age": 771,
      "bi": 772,
      "bage": 773,
      "eapple": 774,
      "flow": 775,
      "gg": 776,
      "gon": 777,
      "iw": 778,
      "ion": 779,
      "kin": 780,
      "lan": 781,
      "mp": 782,
      "mel": 783,
      "nk": 784,
      "plan": 785,
      "ry": 786,
      "rmel": 787,
      "ut": 788,
      "ump": 789,
      "unk": 790,
      "rapes": 791,
      "ragon": 792,
      "ger": 793,
      "arro": 794,
      "arli": 795,
      "ana": 796,
      "anana": 797,
      "ineapple": 798,
      "inger": 799,
      "onut": 800,
      "rawberries": 801,
      "erry": 802,
      "tato": 803,
      "auli": 804,
      "orn": 805,
      "ach": 806,
      "chunk": 807,
      "ocad": 808,
      "oconut": 809,
      "abbage": 810,
      "atermel": 811,
      "big": 812,
      "flower": 813,
      "ggplan": 814,
      "iwi": 815,
      "umpkin": 816,
      "arrot": 817,
      "arlic": 818,
      "tatoes": 819,
      "auliflower": 820,
      "ocado": 821,
      "atermelon": 822,
      "ggplant": 823,
      "banana": 824,
      "corn": 825,
      "coconut": 826,
      "cabbage": 827,
      "carrot": 828,
      "cauliflower": 829,
      "dragon": 830,
      "eggplant": 831,
      "grapes": 832,
      "ginger": 833,
      "garlic": 834,
      "kiwi": 835,
      "pineapple": 836,
      "pumpkin": 837,
      "watermelon": 838,
      "lemon": 839,
      "onion": 840,
      "meat": 841,
      "blueberries": 842,
      "potatoes": 843,
      "avocado": 844,
      "strawberries": 845,
      "cherries": 846,
      "cherry": 847,
      "pear": 848,
      "peach": 849,
      "AL": 850,
      "In": 851,
      "Te": 852,
      "DIGO": 853,
      "INDIGO": 854,
      "TEAL": 855,
      "Indigo": 856,
      "Teal": 857,
      "TO": 858,
      "AP": 859,
      "CH": 860,
      "MA": 861,
      "CA": 862,
      "RIES": 863,
      "ERRIES": 864,
      "AT": 865,
      "BERRIES": 866,
      "Ch": 867,
      "IT": 868,
      "KA": 869,
      "PE": 870,
      "Pe": 871,
      "Paprika": 872,
      "PAP": 873,
      "SMA": 874,
      "To": 875,
      "UIT": 876,
      "RIKA": 877,
      "FRUIT": 878,
      "TOMA": 879,
      "APPLE": 880,
      "PAPRIKA": 881,
      "SMALL": 882,
      "Tomato": 883,
      "TOMATO": 884,
      "Ap": 885,
      "Av": 886,
      "ACH": 887,
      "BB": 888,
      "BI": 889,
      "BAN": 890,
      "Banana": 891,
      "CO": 892,
      "CAR": 893,
      "CON": 894,
      "COR": 895,
      "Corn": 896,
      "Coconut": 897,
      "Cabbage": 898,
      "Carrot": 899,
      "Cauliflower": 900,
      "DO": 901,
      "DRA": 902,
      "Dragon": 903,
      "EG": 904,
      "Eggplant": 905,
      "EAPPLE": 906,
      "GP": 907,
      "GAR": 908,
      "GER": 909,
      "GON": 910,
      "GIN": 911,
      "Grapes": 912,
      "Ginger": 913,
      "Garlic": 914,
      "IW": 915,
      "KIN": 916,
      "Kiwi": 917,
      "KIW": 918,
      "Le": 919,
      "LAN": 920,
      "LON": 921,
      "MP": 922,
      "Me": 923,
      "MON": 924,
      "NK": 925,
      "On": 926,
      "OCA": 927,
      "Po": 928,
      "Pineapple": 929,
      "Pumpkin": 930,
      "RY": 931,
      "St": 932,
      "Tes": 933,
      "UT": 934,
      "ULI": 935,
      "UNK": 936,
      "Watermelon": 937,
      "WAT": 938,
      "WBERRIES": 939,
      "OWER": 940,
      "LEMON": 941,
      "ERME": 942,
      "ERRY": 943,
      "ANA": 944,
      "ONION": 945,
      "TATO": 946,
      "ROT": 947,
      "LIC": 948,
      "BLUEBERRIES": 949,
      "RAWBERRIES": 950,
      "MEAT": 951,
      "PUMP": 952,
      "GRAPES": 953,
      "PINEAPPLE": 954,
      "AVOCA": 955,
      "POTATO": 956,
      "Blueberries": 957,
      "FLOWER": 958,
      "STRAWBERRIES": 959,
      "CHERRIES": 960,
      "CHUNK": 961,
      "CHERRY": 962,
      "CABB": 963,
      "CAULI": 964,
      "Cherries": 965,
      "Cherry": 966,
      "PEAR": 967,
      "PEACH": 968,
      "Pear": 969,
      "Peach": 970,
      "Apple": 971,
      "Avocado": 972,
      "BIG": 973,
      "BANANA": 974,
      "COCON": 975,
      "CARROT": 976,
      "CORN": 977,
      "DRAGON": 978,
      "EGGP": 979,
      "GARLIC": 980,
      "GINGER": 981,
      "KIWI": 982,
      "Lemon": 983,
      "LANT": 984,
      "Meat": 985,
      "Onion": 986,
      "Potatoes": 987,
      "Strawberries": 988,
      "Test": 989,
      "WATERME": 990,
      "PUMPKIN": 991,
      "AVOCADO": 992,
      "POTATOES": 993,
      "CABBAGE": 994,
      "CAULIFLOWER": 995,
      "COCONUT": 996,
      "EGGPLANT": 997,
      "WATERMELON": 998
    },
    "merges": [
      [
        "1",
        "X"
      ],
      [
        "R",
        "e"
      ],
      [
        "1",
        "6"
      ],
      [
        "3",
        "W"
      ],
      [
        "1",
        "W"
      ],
      [
        "1",
        "A"
      ],
      [
        "16",
        "W"
      ],
      [
        "2",
        "W"
      ],
      [
        "Re",
        "2"
      ],
      [
        "7",
        "W"
      ],
      [
        "5",
        "K"
      ],
      [
        "1",
        "V"
      ],
      [
        "4",
        "W"
      ],
      [
        "3",
        "K"
      ],
      [
        "5",
        "W"
      ],
      [
        "6",
        "W"
      ],
      [
        "1",
        "N"
      ],
      [
        "8",
        "W"
      ],
      [
        "1",
        "K"
      ],
      [
        "r",
        "e"
      ],
      [
        "4",
        "K"
      ],
      [
        "r",
        "a"
      ],
      [
        "Re",
        "3"
      ],
      [
        "1",
        "U"
      ],
      [
        "l",
        "e"
      ],
      [
        "1",
        "0"
      ],
      [
        "t",
        "e"
      ],
      [
        "1",
        "E"
      ],
      [
        "o",
        "l"
      ],
      [
        "1",
        "Z"
      ],
      [
        "r",
        "i"
      ],
      [
        "1",
        "O"
      ],
      [
        "Re",
        "6"
      ],
      [
        "1",
        "2"
      ],
      [
        "1",
        "M"
      ],
      [
        "g",
        "e"
      ],
      [
        "1",
        "H"
      ],
      [
        "1",
        "L"
      ],
      [
        "6",
        "K"
      ],
      [
        "a",
        "r"
      ],
      [
        "1",
        "D"
      ],
      [
        "p",
        "le"
      ],
      [
        "a",
        "n"
      ],
      [
        "2",
        "K"
      ],
      [
        "o",
        "w"
      ],
      [
        "t",
        "ri"
      ],
      [
        "2",
        "H"
      ],
      [
        "k",
        "e"
      ],
      [
        "1",
        "S"
      ],
      [
        "16",
        "K"
      ],
      [
        "1",
        "P"
      ],
      [
        "i",
        "n"
      ],
      [
        "2",
        "A"
      ],
      [
        "l",
        "ow"
      ],
      [
        "1",
        "J"
      ],
      [
        "1",
        "Y"
      ],
      [
        "o",
        "n"
      ],
      [
        "1",
        "B"
      ],
      [
        "o",
        "u"
      ],
      [
        "e",
        "l"
      ],
      [
        "1",
        "R"
      ],
      [
        "1",
        "G"
      ],
      [
        "m",
        "e"
      ],
      [
        "ge",
        "n"
      ],
      [
        "1",
        "3"
      ],
      [
        "ra",
        "w"
      ],
      [
        "m",
        "a"
      ],
      [
        "b",
        "o"
      ],
      [
        "re",
        "d"
      ],
      [
        "a",
        "re"
      ],
      [
        "g",
        "le"
      ],
      [
        "q",
        "u"
      ],
      [
        "ol",
        "low"
      ],
      [
        "an",
        "gle"
      ],
      [
        "qu",
        "are"
      ],
      [
        "s",
        "quare"
      ],
      [
        "tri",
        "angle"
      ],
      [
        "d",
        "raw"
      ],
      [
        "h",
        "ollow"
      ],
      [
        "e",
        "ra"
      ],
      [
        "i",
        "x"
      ],
      [
        "p",
        "ix"
      ],
      [
        "ar",
        "t"
      ],
      [
        "era",
        "te"
      ],
      [
        "pix",
        "el"
      ],
      [
        "a",
        "s"
      ],
      [
        "r",
        "o"
      ],
      [
        "2",
        "V"
      ],
      [
        "3",
        "V"
      ],
      [
        "e",
        "r"
      ],
      [
        "re",
        "a"
      ],
      [
        "y",
        "ou"
      ],
      [
        "ple",
        "as"
      ],
      [
        "gen",
        "erate"
      ],
      [
        "ma",
        "ke"
      ],
      [
        "pleas",
        "e"
      ],
      [
        "4",
        "N"
      ],
      [
        "c",
        "ol"
      ],
      [
        "o",
        "red"
      ],
      [
        "rea",
        "te"
      ],
      [
        "col",
        "ored"
      ],
      [
        "h",
        "e"
      ],
      [
        "t",
        "a"
      ],
      [
        "s",
        "i"
      ],
      [
        "b",
        "e"
      ],
      [
        "c",
        "reate"
      ],
      [
        "b",
        "l"
      ],
      [
        "4",
        "H"
      ],
      [
        "t",
        "i"
      ],
      [
        "Re",
        "10"
      ],
      [
        "Re",
        "4"
      ],
      [
        "d",
        "er"
      ],
      [
        "ar",
        "d"
      ],
      [
        "1",
        "3W"
      ],
      [
        "1",
        "1W"
      ],
      [
        "1",
        "2W"
      ],
      [
        "1",
        "4W"
      ],
      [
        "9",
        "W"
      ],
      [
        "Re",
        "5"
      ],
      [
        "Re",
        "8"
      ],
      [
        "Re",
        "12"
      ],
      [
        "1",
        "5"
      ],
      [
        "2",
        "N"
      ],
      [
        "e",
        "s"
      ],
      [
        "3",
        "N"
      ],
      [
        "d",
        "i"
      ],
      [
        "m",
        "on"
      ],
      [
        "p",
        "es"
      ],
      [
        "a",
        "mon"
      ],
      [
        "c",
        "ke"
      ],
      [
        "f",
        "ra"
      ],
      [
        "o",
        "ri"
      ],
      [
        "r",
        "bo"
      ],
      [
        "r",
        "der"
      ],
      [
        "s",
        "s"
      ],
      [
        "s",
        "tri"
      ],
      [
        "z",
        "on"
      ],
      [
        "ro",
        "ss"
      ],
      [
        "he",
        "cke"
      ],
      [
        "ta",
        "l"
      ],
      [
        "amon",
        "d"
      ],
      [
        "fra",
        "me"
      ],
      [
        "ori",
        "zon"
      ],
      [
        "rbo",
        "ard"
      ],
      [
        "stri",
        "pes"
      ],
      [
        "hecke",
        "rboard"
      ],
      [
        "orizon",
        "tal"
      ],
      [
        "c",
        "ross"
      ],
      [
        "c",
        "heckerboard"
      ],
      [
        "h",
        "orizontal"
      ],
      [
        "bo",
        "rder"
      ],
      [
        "di",
        "amond"
      ],
      [
        "u",
        "e"
      ],
      [
        "m",
        "ple"
      ],
      [
        "si",
        "mple"
      ],
      [
        "bl",
        "ue"
      ],
      [
        "c",
        "an"
      ],
      [
        "5",
        "N"
      ],
      [
        "2",
        "E"
      ],
      [
        "3",
        "E"
      ],
      [
        "a",
        "u"
      ],
      [
        "2",
        "U"
      ],
      [
        "2",
        "Z"
      ],
      [
        "f",
        "u"
      ],
      [
        "t",
        "ro"
      ],
      [
        "x",
        "16"
      ],
      [
        "16",
        "x16"
      ],
      [
        "re",
        "tro"
      ],
      [
        "be",
        "au"
      ],
      [
        "ti",
        "fu"
      ],
      [
        "beau",
        "tifu"
      ],
      [
        "beautifu",
        "l"
      ],
      [
        "o",
        "r"
      ],
      [
        "2",
        "L"
      ],
      [
        "c",
        "ou"
      ],
      [
        "f",
        "or"
      ],
      [
        "l",
        "d"
      ],
      [
        "cou",
        "ld"
      ],
      [
        "3",
        "L"
      ],
      [
        "e",
        "n"
      ],
      [
        "3",
        "A"
      ],
      [
        "5",
        "L"
      ],
      [
        "s",
        "y"
      ],
      [
        "s",
        "te"
      ],
      [
        "sy",
        "ste"
      ],
      [
        "syste",
        "m"
      ],
      [
        "5",
        "E"
      ],
      [
        "7",
        "K"
      ],
      [
        "l",
        "i"
      ],
      [
        "5",
        "U"
      ],
      [
        "n",
        "ge"
      ],
      [
        "r",
        "ple"
      ],
      [
        "u",
        "rple"
      ],
      [
        "re",
        "en"
      ],
      [
        "ra",
        "nge"
      ],
      [
        "el",
        "low"
      ],
      [
        "2",
        "O"
      ],
      [
        "R",
        "I"
      ],
      [
        "4",
        "L"
      ],
      [
        "h",
        "i"
      ],
      [
        "l",
        "v"
      ],
      [
        "r",
        "ow"
      ],
      [
        "ra",
        "y"
      ],
      [
        "in",
        "k"
      ],
      [
        "hi",
        "te"
      ],
      [
        "lv",
        "er"
      ],
      [
        "row",
        "n"
      ],
      [
        "2",
        "M"
      ],
      [
        "g",
        "reen"
      ],
      [
        "p",
        "urple"
      ],
      [
        "y",
        "ellow"
      ],
      [
        "o",
        "range"
      ],
      [
        "5",
        "A"
      ],
      [
        "b",
        "rown"
      ],
      [
        "g",
        "ray"
      ],
      [
        "p",
        "ink"
      ],
      [
        "w",
        "hite"
      ],
      [
        "si",
        "lver"
      ],
      [
        "li",
        "me"
      ],
      [
        "4",
        "E"
      ],
      [
        "p",
        "o"
      ],
      [
        "ti",
        "on"
      ],
      [
        "po",
        "tion"
      ],
      [
        "a",
        "c"
      ],
      [
        "a",
        "v"
      ],
      [
        "2",
        "D"
      ],
      [
        "i",
        "ge"
      ],
      [
        "k",
        "y"
      ],
      [
        "v",
        "e"
      ],
      [
        "ol",
        "d"
      ],
      [
        "in",
        "t"
      ],
      [
        "gen",
        "ta"
      ],
      [
        "ac",
        "k"
      ],
      [
        "av",
        "y"
      ],
      [
        "3",
        "O"
      ],
      [
        "2",
        "P"
      ],
      [
        "Re",
        "16"
      ],
      [
        "A",
        "R"
      ],
      [
        "3",
        "U"
      ],
      [
        "g",
        "old"
      ],
      [
        "i",
        "ve"
      ],
      [
        "m",
        "int"
      ],
      [
        "n",
        "avy"
      ],
      [
        "s",
        "ky"
      ],
      [
        "ol",
        "ive"
      ],
      [
        "ma",
        "genta"
      ],
      [
        "be",
        "ige"
      ],
      [
        "bl",
        "ack"
      ],
      [
        "6",
        "N"
      ],
      [
        "H",
        "O"
      ],
      [
        "T",
        "RI"
      ],
      [
        "7",
        "N"
      ],
      [
        "O",
        "W"
      ],
      [
        "3",
        "S"
      ],
      [
        "5",
        "O"
      ],
      [
        "9",
        "K"
      ],
      [
        "L",
        "E"
      ],
      [
        "E",
        "R"
      ],
      [
        "t",
        "he"
      ],
      [
        "2",
        "Y"
      ],
      [
        "A",
        "N"
      ],
      [
        "16",
        "N"
      ],
      [
        "3",
        "Z"
      ],
      [
        "H",
        "E"
      ],
      [
        "s",
        "t"
      ],
      [
        "L",
        "L"
      ],
      [
        "AN",
        "G"
      ],
      [
        "LL",
        "OW"
      ],
      [
        "3",
        "P"
      ],
      [
        "O",
        "N"
      ],
      [
        "4",
        "A"
      ],
      [
        "6",
        "U"
      ],
      [
        "3",
        "D"
      ],
      [
        "16",
        "E"
      ],
      [
        "7",
        "E"
      ],
      [
        "9",
        "N"
      ],
      [
        "2",
        "S"
      ],
      [
        "3",
        "B"
      ],
      [
        "5",
        "P"
      ],
      [
        "B",
        "O"
      ],
      [
        "1",
        "1K"
      ],
      [
        "16",
        "U"
      ],
      [
        "3",
        "R"
      ],
      [
        "5",
        "B"
      ],
      [
        "5",
        "H"
      ],
      [
        "A",
        "M"
      ],
      [
        "Q",
        "U"
      ],
      [
        "S",
        "QU"
      ],
      [
        "AR",
        "E"
      ],
      [
        "HO",
        "LLOW"
      ],
      [
        "TRI",
        "ANG"
      ],
      [
        "SQU",
        "ARE"
      ],
      [
        "TRIANG",
        "LE"
      ],
      [
        "5",
        "S"
      ],
      [
        "10",
        "N"
      ],
      [
        "16",
        "A"
      ],
      [
        "16",
        "B"
      ],
      [
        "16",
        "D"
      ],
      [
        "16",
        "G"
      ],
      [
        "16",
        "H"
      ],
      [
        "16",
        "J"
      ],
      [
        "16",
        "L"
      ],
      [
        "16",
        "M"
      ],
      [
        "16",
        "O"
      ],
      [
        "16",
        "P"
      ],
      [
        "16",
        "R"
      ],
      [
        "16",
        "S"
      ],
      [
        "16",
        "V"
      ],
      [
        "16",
        "Y"
      ],
      [
        "16",
        "Z"
      ],
      [
        "3",
        "H"
      ],
      [
        "7",
        "L"
      ],
      [
        "6",
        "E"
      ],
      [
        "10",
        "K"
      ],
      [
        "1",
        "1N"
      ],
      [
        "5",
        "Z"
      ],
      [
        "7",
        "A"
      ],
      [
        "6",
        "A"
      ],
      [
        "5",
        "R"
      ],
      [
        "9",
        "E"
      ],
      [
        "M",
        "a"
      ],
      [
        "4",
        "S"
      ],
      [
        "1",
        "3K"
      ],
      [
        "10",
        "H"
      ],
      [
        "10",
        "O"
      ],
      [
        "10",
        "U"
      ],
      [
        "1",
        "1O"
      ],
      [
        "7",
        "U"
      ],
      [
        "4",
        "U"
      ],
      [
        "10",
        "E"
      ],
      [
        "10",
        "Z"
      ],
      [
        "C",
        "reate"
      ],
      [
        "D",
        "raw"
      ],
      [
        "G",
        "en"
      ],
      [
        "T",
        "he"
      ],
      [
        "T",
        "HE"
      ],
      [
        "Ma",
        "ke"
      ],
      [
        "Gen",
        "erate"
      ],
      [
        "1",
        "1E"
      ],
      [
        "3",
        "J"
      ],
      [
        "3",
        "M"
      ],
      [
        "7",
        "B"
      ],
      [
        "7",
        "O"
      ],
      [
        "7",
        "P"
      ],
      [
        "9",
        "A"
      ],
      [
        "9",
        "O"
      ],
      [
        "9",
        "U"
      ],
      [
        "9",
        "Z"
      ],
      [
        "12",
        "K"
      ],
      [
        "10",
        "A"
      ],
      [
        "10",
        "B"
      ],
      [
        "10",
        "D"
      ],
      [
        "10",
        "G"
      ],
      [
        "10",
        "J"
      ],
      [
        "10",
        "L"
      ],
      [
        "10",
        "M"
      ],
      [
        "10",
        "P"
      ],
      [
        "10",
        "R"
      ],
      [
        "10",
        "S"
      ],
      [
        "10",
        "V"
      ],
      [
        "10",
        "Y"
      ],
      [
        "1",
        "1A"
      ],
      [
        "1",
        "1V"
      ],
      [
        "1",
        "1U"
      ],
      [
        "1",
        "1Z"
      ],
      [
        "1",
        "1M"
      ],
      [
        "1",
        "1H"
      ],
      [
        "1",
        "1L"
      ],
      [
        "1",
        "1D"
      ],
      [
        "1",
        "1S"
      ],
      [
        "1",
        "1P"
      ],
      [
        "1",
        "1J"
      ],
      [
        "1",
        "1Y"
      ],
      [
        "1",
        "1B"
      ],
      [
        "1",
        "1R"
      ],
      [
        "1",
        "1G"
      ],
      [
        "3",
        "G"
      ],
      [
        "3",
        "Y"
      ],
      [
        "5",
        "D"
      ],
      [
        "5",
        "G"
      ],
      [
        "5",
        "J"
      ],
      [
        "5",
        "M"
      ],
      [
        "5",
        "V"
      ],
      [
        "5",
        "Y"
      ],
      [
        "7",
        "D"
      ],
      [
        "7",
        "G"
      ],
      [
        "7",
        "H"
      ],
      [
        "7",
        "J"
      ],
      [
        "7",
        "M"
      ],
      [
        "7",
        "R"
      ],
      [
        "7",
        "S"
      ],
      [
        "7",
        "V"
      ],
      [
        "7",
        "Y"
      ],
      [
        "7",
        "Z"
      ],
      [
        "9",
        "B"
      ],
      [
        "9",
        "D"
      ],
      [
        "9",
        "G"
      ],
      [
        "9",
        "H"
      ],
      [
        "9",
        "J"
      ],
      [
        "9",
        "L"
      ],
      [
        "9",
        "M"
      ],
      [
        "9",
        "P"
      ],
      [
        "9",
        "R"
      ],
      [
        "9",
        "S"
      ],
      [
        "9",
        "V"
      ],
      [
        "9",
        "Y"
      ],
      [
        "2",
        "J"
      ],
      [
        "T",
        "A"
      ],
      [
        "4",
        "O"
      ],
      [
        "C",
        "K"
      ],
      [
        "2",
        "B"
      ],
      [
        "4",
        "P"
      ],
      [
        "te",
        "st"
      ],
      [
        "6",
        "L"
      ],
      [
        "8",
        "N"
      ],
      [
        "B",
        "L"
      ],
      [
        "E",
        "S"
      ],
      [
        "b",
        "re"
      ],
      [
        "d",
        "ard"
      ],
      [
        "e",
        "d"
      ],
      [
        "f",
        "l"
      ],
      [
        "l",
        "ar"
      ],
      [
        "n",
        "der"
      ],
      [
        "s",
        "le"
      ],
      [
        "t",
        "t"
      ],
      [
        "t",
        "u"
      ],
      [
        "w",
        "ed"
      ],
      [
        "an",
        "dard"
      ],
      [
        "gen",
        "t"
      ],
      [
        "bo",
        "tt"
      ],
      [
        "as",
        "k"
      ],
      [
        "rea",
        "gent"
      ],
      [
        "st",
        "andard"
      ],
      [
        "bre",
        "wed"
      ],
      [
        "fl",
        "ask"
      ],
      [
        "lar",
        "ge"
      ],
      [
        "sle",
        "nder"
      ],
      [
        "tu",
        "be"
      ],
      [
        "bott",
        "le"
      ],
      [
        "2",
        "R"
      ],
      [
        "D",
        "ER"
      ],
      [
        "12",
        "N"
      ],
      [
        "AR",
        "D"
      ],
      [
        "R",
        "E"
      ],
      [
        "D",
        "I"
      ],
      [
        "13",
        "E"
      ],
      [
        "13",
        "N"
      ],
      [
        "F",
        "R"
      ],
      [
        "8",
        "K"
      ],
      [
        "P",
        "ES"
      ],
      [
        "R",
        "O"
      ],
      [
        "C",
        "HE"
      ],
      [
        "C",
        "RO"
      ],
      [
        "R",
        "DER"
      ],
      [
        "S",
        "S"
      ],
      [
        "S",
        "TRI"
      ],
      [
        "Z",
        "ON"
      ],
      [
        "RI",
        "ZON"
      ],
      [
        "HO",
        "RIZON"
      ],
      [
        "ER",
        "BO"
      ],
      [
        "ON",
        "D"
      ],
      [
        "BO",
        "RDER"
      ],
      [
        "AM",
        "E"
      ],
      [
        "AM",
        "OND"
      ],
      [
        "TA",
        "L"
      ],
      [
        "CK",
        "ERBO"
      ],
      [
        "DI",
        "AMOND"
      ],
      [
        "FR",
        "AME"
      ],
      [
        "CHE",
        "CKERBO"
      ],
      [
        "CRO",
        "SS"
      ],
      [
        "STRI",
        "PES"
      ],
      [
        "HORIZON",
        "TAL"
      ],
      [
        "CHECKERBO",
        "ARD"
      ],
      [
        "G",
        "E"
      ],
      [
        "2",
        "G"
      ],
      [
        "12",
        "A"
      ],
      [
        "12",
        "B"
      ],
      [
        "12",
        "D"
      ],
      [
        "12",
        "E"
      ],
      [
        "12",
        "G"
      ],
      [
        "12",
        "H"
      ],
      [
        "12",
        "J"
      ],
      [
        "12",
        "L"
      ],
      [
        "12",
        "M"
      ],
      [
        "12",
        "O"
      ],
      [
        "12",
        "P"
      ],
      [
        "12",
        "R"
      ],
      [
        "12",
        "S"
      ],
      [
        "12",
        "U"
      ],
      [
        "12",
        "V"
      ],
      [
        "12",
        "Y"
      ],
      [
        "12",
        "Z"
      ],
      [
        "13",
        "A"
      ],
      [
        "13",
        "B"
      ],
      [
        "13",
        "D"
      ],
      [
        "13",
        "G"
      ],
      [
        "13",
        "H"
      ],
      [
        "13",
        "J"
      ],
      [
        "13",
        "L"
      ],
      [
        "13",
        "M"
      ],
      [
        "13",
        "O"
      ],
      [
        "13",
        "P"
      ],
      [
        "13",
        "R"
      ],
      [
        "13",
        "S"
      ],
      [
        "13",
        "U"
      ],
      [
        "13",
        "V"
      ],
      [
        "13",
        "Y"
      ],
      [
        "13",
        "Z"
      ],
      [
        "I",
        "N"
      ],
      [
        "4",
        "B"
      ],
      [
        "L",
        "I"
      ],
      [
        "U",
        "E"
      ],
      [
        "BL",
        "UE"
      ],
      [
        "H",
        "ollow"
      ],
      [
        "1",
        "5K"
      ],
      [
        "15",
        "E"
      ],
      [
        "15",
        "N"
      ],
      [
        "4",
        "R"
      ],
      [
        "6",
        "O"
      ],
      [
        "a",
        "l"
      ],
      [
        "g",
        "o"
      ],
      [
        "di",
        "go"
      ],
      [
        "4",
        "V"
      ],
      [
        "te",
        "al"
      ],
      [
        "in",
        "digo"
      ],
      [
        "A",
        "GE"
      ],
      [
        "B",
        "E"
      ],
      [
        "S",
        "K"
      ],
      [
        "T",
        "E"
      ],
      [
        "AGE",
        "N"
      ],
      [
        "15",
        "A"
      ],
      [
        "15",
        "B"
      ],
      [
        "15",
        "D"
      ],
      [
        "15",
        "G"
      ],
      [
        "15",
        "H"
      ],
      [
        "15",
        "J"
      ],
      [
        "15",
        "L"
      ],
      [
        "15",
        "M"
      ],
      [
        "15",
        "O"
      ],
      [
        "15",
        "P"
      ],
      [
        "15",
        "R"
      ],
      [
        "15",
        "S"
      ],
      [
        "15",
        "U"
      ],
      [
        "15",
        "V"
      ],
      [
        "15",
        "Y"
      ],
      [
        "15",
        "Z"
      ],
      [
        "4",
        "D"
      ],
      [
        "P",
        "LE"
      ],
      [
        "R",
        "A"
      ],
      [
        "M",
        "E"
      ],
      [
        "O",
        "R"
      ],
      [
        "P",
        "U"
      ],
      [
        "E",
        "N"
      ],
      [
        "E",
        "LLOW"
      ],
      [
        "G",
        "RE"
      ],
      [
        "G",
        "RA"
      ],
      [
        "P",
        "IN"
      ],
      [
        "R",
        "PLE"
      ],
      [
        "Y",
        "ELLOW"
      ],
      [
        "ANG",
        "E"
      ],
      [
        "OR",
        "ANGE"
      ],
      [
        "PU",
        "RPLE"
      ],
      [
        "GRE",
        "EN"
      ],
      [
        "B",
        "R"
      ],
      [
        "G",
        "O"
      ],
      [
        "H",
        "I"
      ],
      [
        "I",
        "L"
      ],
      [
        "S",
        "IL"
      ],
      [
        "V",
        "ER"
      ],
      [
        "W",
        "HI"
      ],
      [
        "OW",
        "N"
      ],
      [
        "RE",
        "D"
      ],
      [
        "LI",
        "ME"
      ],
      [
        "GRA",
        "Y"
      ],
      [
        "PIN",
        "K"
      ],
      [
        "BR",
        "OWN"
      ],
      [
        "SIL",
        "VER"
      ],
      [
        "WHI",
        "TE"
      ],
      [
        "t",
        "o"
      ],
      [
        "A",
        "V"
      ],
      [
        "B",
        "l"
      ],
      [
        "A",
        "CK"
      ],
      [
        "I",
        "GE"
      ],
      [
        "L",
        "D"
      ],
      [
        "M",
        "IN"
      ],
      [
        "M",
        "AGEN"
      ],
      [
        "N",
        "AV"
      ],
      [
        "O",
        "LI"
      ],
      [
        "V",
        "E"
      ],
      [
        "BL",
        "ACK"
      ],
      [
        "BE",
        "IGE"
      ],
      [
        "SK",
        "Y"
      ],
      [
        "GO",
        "LD"
      ],
      [
        "MIN",
        "T"
      ],
      [
        "MAGEN",
        "TA"
      ],
      [
        "NAV",
        "Y"
      ],
      [
        "OLI",
        "VE"
      ],
      [
        "4",
        "Z"
      ],
      [
        "6",
        "H"
      ],
      [
        "8",
        "E"
      ],
      [
        "I",
        "ON"
      ],
      [
        "P",
        "O"
      ],
      [
        "T",
        "ION"
      ],
      [
        "PO",
        "TION"
      ],
      [
        "B",
        "o"
      ],
      [
        "C",
        "ross"
      ],
      [
        "C",
        "heckerboard"
      ],
      [
        "D",
        "i"
      ],
      [
        "H",
        "orizontal"
      ],
      [
        "S",
        "quare"
      ],
      [
        "T",
        "ri"
      ],
      [
        "Bo",
        "rder"
      ],
      [
        "Di",
        "amond"
      ],
      [
        "Tri",
        "angle"
      ],
      [
        "a",
        "p"
      ],
      [
        "6",
        "B"
      ],
      [
        "6",
        "P"
      ],
      [
        "ri",
        "es"
      ],
      [
        "er",
        "ries"
      ],
      [
        "c",
        "h"
      ],
      [
        "O",
        "range"
      ],
      [
        "Bl",
        "ue"
      ],
      [
        "B",
        "rown"
      ],
      [
        "G",
        "reen"
      ],
      [
        "G",
        "ray"
      ],
      [
        "L",
        "i"
      ],
      [
        "P",
        "urple"
      ],
      [
        "P",
        "ink"
      ],
      [
        "S",
        "i"
      ],
      [
        "W",
        "hite"
      ],
      [
        "Y",
        "ellow"
      ],
      [
        "Re",
        "d"
      ],
      [
        "Li",
        "me"
      ],
      [
        "Si",
        "lver"
      ],
      [
        "1",
        "4N"
      ],
      [
        "6",
        "S"
      ],
      [
        "8",
        "A"
      ],
      [
        "8",
        "Z"
      ],
      [
        "10",
        "W"
      ],
      [
        "b",
        "erries"
      ],
      [
        "f",
        "r"
      ],
      [
        "i",
        "t"
      ],
      [
        "k",
        "a"
      ],
      [
        "l",
        "l"
      ],
      [
        "o",
        "c"
      ],
      [
        "s",
        "ma"
      ],
      [
        "u",
        "it"
      ],
      [
        "ri",
        "ka"
      ],
      [
        "ma",
        "to"
      ],
      [
        "ap",
        "rika"
      ],
      [
        "fr",
        "uit"
      ],
      [
        "sma",
        "ll"
      ],
      [
        "B",
        "e"
      ],
      [
        "G",
        "old"
      ],
      [
        "M",
        "int"
      ],
      [
        "N",
        "avy"
      ],
      [
        "O",
        "li"
      ],
      [
        "S",
        "ky"
      ],
      [
        "Ma",
        "genta"
      ],
      [
        "Bl",
        "ack"
      ],
      [
        "ap",
        "ple"
      ],
      [
        "Be",
        "ige"
      ],
      [
        "Oli",
        "ve"
      ],
      [
        "p",
        "e"
      ],
      [
        "p",
        "aprika"
      ],
      [
        "to",
        "mato"
      ],
      [
        "F",
        "L"
      ],
      [
        "S",
        "T"
      ],
      [
        "T",
        "ES"
      ],
      [
        "TES",
        "T"
      ],
      [
        "A",
        "SK"
      ],
      [
        "B",
        "RE"
      ],
      [
        "D",
        "ARD"
      ],
      [
        "E",
        "D"
      ],
      [
        "L",
        "AR"
      ],
      [
        "N",
        "DER"
      ],
      [
        "S",
        "LE"
      ],
      [
        "T",
        "T"
      ],
      [
        "T",
        "U"
      ],
      [
        "W",
        "ED"
      ],
      [
        "AN",
        "DARD"
      ],
      [
        "BO",
        "TT"
      ],
      [
        "RE",
        "AGEN"
      ],
      [
        "FL",
        "ASK"
      ],
      [
        "ST",
        "ANDARD"
      ],
      [
        "BRE",
        "WED"
      ],
      [
        "LAR",
        "GE"
      ],
      [
        "SLE",
        "NDER"
      ],
      [
        "TU",
        "BE"
      ],
      [
        "BOTT",
        "LE"
      ],
      [
        "REAGEN",
        "T"
      ],
      [
        "1",
        "4K"
      ],
      [
        "6",
        "D"
      ],
      [
        "6",
        "R"
      ],
      [
        "6",
        "Z"
      ],
      [
        "8",
        "H"
      ],
      [
        "8",
        "L"
      ],
      [
        "8",
        "O"
      ],
      [
        "8",
        "P"
      ],
      [
        "a",
        "b"
      ],
      [
        "a",
        "d"
      ],
      [
        "a",
        "t"
      ],
      [
        "a",
        "te"
      ],
      [
        "a",
        "ge"
      ],
      [
        "b",
        "i"
      ],
      [
        "b",
        "age"
      ],
      [
        "e",
        "apple"
      ],
      [
        "f",
        "low"
      ],
      [
        "g",
        "g"
      ],
      [
        "g",
        "on"
      ],
      [
        "i",
        "w"
      ],
      [
        "i",
        "on"
      ],
      [
        "k",
        "in"
      ],
      [
        "l",
        "an"
      ],
      [
        "m",
        "p"
      ],
      [
        "m",
        "el"
      ],
      [
        "n",
        "k"
      ],
      [
        "p",
        "lan"
      ],
      [
        "r",
        "y"
      ],
      [
        "r",
        "mel"
      ],
      [
        "u",
        "t"
      ],
      [
        "u",
        "mp"
      ],
      [
        "u",
        "nk"
      ],
      [
        "ra",
        "pes"
      ],
      [
        "ra",
        "gon"
      ],
      [
        "ge",
        "r"
      ],
      [
        "ar",
        "ro"
      ],
      [
        "ar",
        "li"
      ],
      [
        "an",
        "a"
      ],
      [
        "an",
        "ana"
      ],
      [
        "in",
        "eapple"
      ],
      [
        "in",
        "ger"
      ],
      [
        "on",
        "ut"
      ],
      [
        "raw",
        "berries"
      ],
      [
        "er",
        "ry"
      ],
      [
        "ta",
        "to"
      ],
      [
        "au",
        "li"
      ],
      [
        "or",
        "n"
      ],
      [
        "ac",
        "h"
      ],
      [
        "ch",
        "unk"
      ],
      [
        "oc",
        "ad"
      ],
      [
        "oc",
        "onut"
      ],
      [
        "ab",
        "bage"
      ],
      [
        "ate",
        "rmel"
      ],
      [
        "bi",
        "g"
      ],
      [
        "flow",
        "er"
      ],
      [
        "gg",
        "plan"
      ],
      [
        "iw",
        "i"
      ],
      [
        "ump",
        "kin"
      ],
      [
        "arro",
        "t"
      ],
      [
        "arli",
        "c"
      ],
      [
        "tato",
        "es"
      ],
      [
        "auli",
        "flower"
      ],
      [
        "ocad",
        "o"
      ],
      [
        "atermel",
        "on"
      ],
      [
        "ggplan",
        "t"
      ],
      [
        "b",
        "anana"
      ],
      [
        "c",
        "orn"
      ],
      [
        "c",
        "oconut"
      ],
      [
        "c",
        "abbage"
      ],
      [
        "c",
        "arrot"
      ],
      [
        "c",
        "auliflower"
      ],
      [
        "d",
        "ragon"
      ],
      [
        "e",
        "ggplant"
      ],
      [
        "g",
        "rapes"
      ],
      [
        "g",
        "inger"
      ],
      [
        "g",
        "arlic"
      ],
      [
        "k",
        "iwi"
      ],
      [
        "p",
        "ineapple"
      ],
      [
        "p",
        "umpkin"
      ],
      [
        "w",
        "atermelon"
      ],
      [
        "le",
        "mon"
      ],
      [
        "on",
        "ion"
      ],
      [
        "me",
        "at"
      ],
      [
        "blue",
        "berries"
      ],
      [
        "po",
        "tatoes"
      ],
      [
        "av",
        "ocado"
      ],
      [
        "st",
        "rawberries"
      ],
      [
        "ch",
        "erries"
      ],
      [
        "ch",
        "erry"
      ],
      [
        "pe",
        "ar"
      ],
      [
        "pe",
        "ach"
      ],
      [
        "A",
        "L"
      ],
      [
        "I",
        "n"
      ],
      [
        "T",
        "e"
      ],
      [
        "DI",
        "GO"
      ],
      [
        "IN",
        "DIGO"
      ],
      [
        "TE",
        "AL"
      ],
      [
        "In",
        "digo"
      ],
      [
        "Te",
        "al"
      ],
      [
        "T",
        "O"
      ],
      [
        "A",
        "P"
      ],
      [
        "C",
        "H"
      ],
      [
        "M",
        "A"
      ],
      [
        "C",
        "A"
      ],
      [
        "RI",
        "ES"
      ],
      [
        "ER",
        "RIES"
      ],
      [
        "A",
        "T"
      ],
      [
        "B",
        "ERRIES"
      ],
      [
        "C",
        "h"
      ],
      [
        "I",
        "T"
      ],
      [
        "K",
        "A"
      ],
      [
        "P",
        "E"
      ],
      [
        "P",
        "e"
      ],
      [
        "P",
        "aprika"
      ],
      [
        "P",
        "AP"
      ],
      [
        "S",
        "MA"
      ],
      [
        "T",
        "o"
      ],
      [
        "U",
        "IT"
      ],
      [
        "RI",
        "KA"
      ],
      [
        "FR",
        "UIT"
      ],
      [
        "TO",
        "MA"
      ],
      [
        "AP",
        "PLE"
      ],
      [
        "PAP",
        "RIKA"
      ],
      [
        "SMA",
        "LL"
      ],
      [
        "To",
        "mato"
      ],
      [
        "TOMA",
        "TO"
      ],
      [
        "A",
        "p"
      ],
      [
        "A",
        "v"
      ],
      [
        "A",
        "CH"
      ],
      [
        "B",
        "B"
      ],
      [
        "B",
        "I"
      ],
      [
        "B",
        "AN"
      ],
      [
        "B",
        "anana"
      ],
      [
        "C",
        "O"
      ],
      [
        "C",
        "AR"
      ],
      [
        "C",
        "ON"
      ],
      [
        "C",
        "OR"
      ],
      [
        "C",
        "orn"
      ],
      [
        "C",
        "oconut"
      ],
      [
        "C",
        "abbage"
      ],
      [
        "C",
        "arrot"
      ],
      [
        "C",
        "auliflower"
      ],
      [
        "D",
        "O"
      ],
      [
        "D",
        "RA"
      ],
      [
        "D",
        "ragon"
      ],
      [
        "E",
        "G"
      ],
      [
        "E",
        "ggplant"
      ],
      [
        "E",
        "APPLE"
      ],
      [
        "G",
        "P"
      ],
      [
        "G",
        "AR"
      ],
      [
        "G",
        "ER"
      ],
      [
        "G",
        "ON"
      ],
      [
        "G",
        "IN"
      ],
      [
        "G",
        "rapes"
      ],
      [
        "G",
        "inger"
      ],
      [
        "G",
        "arlic"
      ],
      [
        "I",
        "W"
      ],
      [
        "K",
        "IN"
      ],
      [
        "K",
        "iwi"
      ],
      [
        "K",
        "IW"
      ],
      [
        "L",
        "e"
      ],
      [
        "L",
        "AN"
      ],
      [
        "L",
        "ON"
      ],
      [
        "M",
        "P"
      ],
      [
        "M",
        "e"
      ],
      [
        "M",
        "ON"
      ],
      [
        "N",
        "K"
      ],
      [
        "O",
        "n"
      ],
      [
        "O",
        "CA"
      ],
      [
        "P",
        "o"
      ],
      [
        "P",
        "ineapple"
      ],
      [
        "P",
        "umpkin"
      ],
      [
        "R",
        "Y"
      ],
      [
        "S",
        "t"
      ],
      [
        "T",
        "es"
      ],
      [
        "U",
        "T"
      ],
      [
        "U",
        "LI"
      ],
      [
        "U",
        "NK"
      ],
      [
        "W",
        "atermelon"
      ],
      [
        "W",
        "AT"
      ],
      [
        "W",
        "BERRIES"
      ],
      [
        "OW",
        "ER"
      ],
      [
        "LE",
        "MON"
      ],
      [
        "ER",
        "ME"
      ],
      [
        "ER",
        "RY"
      ],
      [
        "AN",
        "A"
      ],
      [
        "ON",
        "ION"
      ],
      [
        "TA",
        "TO"
      ],
      [
        "RO",
        "T"
      ],
      [
        "LI",
        "C"
      ],
      [
        "BLUE",
        "BERRIES"
      ],
      [
        "RA",
        "WBERRIES"
      ],
      [
        "ME",
        "AT"
      ],
      [
        "PU",
        "MP"
      ],
      [
        "GRA",
        "PES"
      ],
      [
        "PIN",
        "EAPPLE"
      ],
      [
        "AV",
        "OCA"
      ],
      [
        "PO",
        "TATO"
      ],
      [
        "Blue",
        "berries"
      ],
      [
        "FL",
        "OWER"
      ],
      [
        "ST",
        "RAWBERRIES"
      ],
      [
        "CH",
        "ERRIES"
      ],
      [
        "CH",
        "UNK"
      ],
      [
        "CH",
        "ERRY"
      ],
      [
        "CA",
        "BB"
      ],
      [
        "CA",
        "ULI"
      ],
      [
        "Ch",
        "erries"
      ],
      [
        "Ch",
        "erry"
      ],
      [
        "PE",
        "AR"
      ],
      [
        "PE",
        "ACH"
      ],
      [
        "Pe",
        "ar"
      ],
      [
        "Pe",
        "ach"
      ],
      [
        "Ap",
        "ple"
      ],
      [
        "Av",
        "ocado"
      ],
      [
        "BI",
        "G"
      ],
      [
        "BAN",
        "ANA"
      ],
      [
        "CO",
        "CON"
      ],
      [
        "CAR",
        "ROT"
      ],
      [
        "COR",
        "N"
      ],
      [
        "DRA",
        "GON"
      ],
      [
        "EG",
        "GP"
      ],
      [
        "GAR",
        "LIC"
      ],
      [
        "GIN",
        "GER"
      ],
      [
        "KIW",
        "I"
      ],
      [
        "Le",
        "mon"
      ],
      [
        "LAN",
        "T"
      ],
      [
        "Me",
        "at"
      ],
      [
        "On",
        "ion"
      ],
      [
        "Po",
        "tatoes"
      ],
      [
        "St",
        "rawberries"
      ],
      [
        "Tes",
        "t"
      ],
      [
        "WAT",
        "ERME"
      ],
      [
        "PUMP",
        "KIN"
      ],
      [
        "AVOCA",
        "DO"
      ],
      [
        "POTATO",
        "ES"
      ],
      [
        "CABB",
        "AGE"
      ],
      [
        "CAULI",
        "FLOWER"
      ],
      [
        "COCON",
        "UT"
      ],
      [
        "EGGP",
        "LANT"
      ],
      [
        "WATERME",
        "LON"
      ]
    ]
  }
}