{
  "version": "1.0",
  "truncation": null,
  "padding": null,
  "added_tokens": [
    {
      "id": 0,
      "content": "<PAD>",
      "single_word": false,
      "lstrip": false,
      "rstrip": false,
      "normalized": false,
      "special": true
    },
    {
      "id": 1,
      "content": "<SOS>",
      "single_word": false,
      "lstrip": false,
      "rstrip": false,
      "normalized": false,
      "special": true
    },
    {
      "id": 2,
      "content": "<EOS>",
      "single_word": false,
      "lstrip": false,
      "rstrip": false,
      "normalized": false,
      "special": true
    },
    {
      "id": 3,
      "content": "<UNK>",
      "single_word": false,
      "lstrip": false,
      "rstrip": false,
      "normalized": false,
      "special": true
    },
    {
      "id": 4,
      "content": "<TASK_GEN>",
      "single_word": false,
      "lstrip": false,
      "rstrip": false,
      "normalized": false,
      "special": true
    },
    {
      "id": 5,
      "content": "<TASK_DESC>",
      "single_word": false,
      "lstrip": false,
      "rstrip": false,
      "normalized": false,
      "special": true
    }
  ],
  "normalizer": null,
  "pre_tokenizer": {
    "type": "Whitespace"
  },
  "post_processor": null,
  "decoder": null,
  "model": {
    "type": "BPE",
    "dropout": null,
    "unk_token": "<UNK>",
    "continuing_subword_prefix": null,
    "end_of_word_suffix": null,
    "fuse_unk": false,
    "byte_fallback": false,
    "ignore_merges": false,
    "vocab": {
      "<PAD>": 0,
      "<SOS>": 1,
      "<EOS>": 2,
      "<UNK>": 3,
      "<TASK_GEN>": 4,
      "<TASK_DESC>": 5,
      "0": 6,
      "1": 7,
      "2": 8,
      "3": 9,
      "4": 10,
      "5": 11,
      "6": 12,
      "7": 13,
      "8": 14,
      "9": 15,
      "A": 16,
      "B": 17,
      "C": 18,
      "D": 19,
      "E": 20,
      "G": 21,
      "H": 22,
      "I": 23,
      "K": 24,
      "L": 25,
      "M": 26,
      "N": 27,
      "O": 28,
      "P": 29,
      "R": 30,
      "S": 31,
      "T": 32,
      "V": 33,
      "W": 34,
      "Y": 35,
      "a": 36,
      "b": 37,
      "c": 38,
      "d": 39,
      "e": 40,
      "f": 41,
      "g": 42,
      "h": 43,
      "i": 44,
      "j": 45,
      "k": 46,
      "l": 47,
      "m": 48,
      "n": 49,
      "o": 50,
      "p": 51,
      "q": 52,
      "r": 53,
      "s": 54,
      "t": 55,
      "u": 56,
      "v": 57,
      "w": 58,
      "x": 59,
      "y": 60,
      "z": 61,
      "ed": 62,
      "it": 63,
      "ot": 64,
      "ar": 65,
      "li": 66,
      "at": 67,
      "el": 68,
      "rot": 69,
      "rotat": 70,
      "ix": 71,
      "ixel": 72,
      "la": 73,
      "ck": 74,
      "rotated": 75,
      "art": 76,
      "le": 77,
      "ite": 78,
      "pp": 79,
      "of": 80,
      "on": 81,
      "fli": 82,
      "pped": 83,
      "flipped": 84,
      "er": 85,
      "hite": 86,
      "wit": 87,
      "lack": 88,
      "ll": 89,
      "white": 90,
      "pixel": 91,
      "black": 92,
      "ch": 93,
      "with": 94,
      "an": 95,
      "bo": 96,
      "ui": 97,
      "st": 98,
      "en": 99,
      "ion": 100,
      "pot": 101,
      "potion": 102,
      "in": 103,
      "ic": 104,
      "ow": 105,
      "Pixel": 106,
      "uid": 107,
      "quid": 108,
      "liquid": 109,
      "or": 110,
      "fi": 111,
      "ma": 112,
      "lled": 113,
      "filled": 114,
      "te": 115,
      "re": 116,
      "ey": 117,
      "ge": 118,
      "to": 119,
      "key": 120,
      "ri": 121,
      "mall": 122,
      "ps": 123,
      "ra": 124,
      "ad": 125,
      "al": 126,
      "um": 127,
      "xbo": 128,
      "xbox": 129,
      "bot": 130,
      "tle": 131,
      "ard": 132,
      "bottle": 133,
      "small": 134,
      "fla": 135,
      "boo": 136,
      "sle": 137,
      "up": 138,
      "top": 139,
      "go": 140,
      "ou": 141,
      "swit": 142,
      "switch": 143,
      "ir": 144,
      "edi": 145,
      "xt": 146,
      "am": 147,
      "sp": 148,
      "der": 149,
      "text": 150,
      "edium": 151,
      "book": 152,
      "sh": 153,
      "and": 154,
      "ld": 155,
      "pad": 156,
      "lu": 157,
      "il": 158,
      "medium": 159,
      "ick": 160,
      "stick": 161,
      "ro": 162,
      "gold": 163,
      "rite": 164,
      "sk": 165,
      "sprite": 166,
      "cup": 167,
      "gra": 168,
      "ce": 169,
      "gh": 170,
      "ate": 171,
      "ght": 172,
      "ba": 173,
      "ss": 174,
      "tri": 175,
      "red": 176,
      "White": 177,
      "mu": 178,
      "ple": 179,
      "low": 180,
      "Black": 181,
      "ne": 182,
      "arge": 183,
      "ut": 184,
      "gle": 185,
      "pu": 186,
      "but": 187,
      "ton": 188,
      "button": 189,
      "angle": 190,
      "triangle": 191,
      "flair": 192,
      "sic": 193,
      "basic": 194,
      "oo": 195,
      "pe": 196,
      "nder": 197,
      "stand": 198,
      "flask": 199,
      "slender": 200,
      "mug": 201,
      "standard": 202,
      "lue": 203,
      "ver": 204,
      "me": 205,
      "ilver": 206,
      "reen": 207,
      "right": 208,
      "slee": 209,
      "sleek": 210,
      "ink": 211,
      "ood": 212,
      "int": 213,
      "orn": 214,
      "large": 215,
      "blue": 216,
      "green": 217,
      "cro": 218,
      "silver": 219,
      "row": 220,
      "ho": 221,
      "dpad": 222,
      "che": 223,
      "pink": 224,
      "ornate": 225,
      "16": 226,
      "hic": 227,
      "ft": 228,
      "for": 229,
      "be": 230,
      "ent": 231,
      "left": 232,
      "ange": 233,
      "ced": 234,
      "infor": 235,
      "reinfor": 236,
      "reinforced": 237,
      "cross": 238,
      "tal": 239,
      "rple": 240,
      "se": 241,
      "golden": 242,
      "ark": 243,
      "gray": 244,
      "ooden": 245,
      "let": 246,
      "orange": 247,
      "ellow": 248,
      "ali": 249,
      "uch": 250,
      "chali": 251,
      "touch": 252,
      "chalice": 253,
      "eram": 254,
      "eramic": 255,
      "po": 256,
      "wooden": 257,
      "llow": 258,
      "hollow": 259,
      "purple": 260,
      "ceramic": 261,
      "out": 262,
      "co": 263,
      "yellow": 264,
      "wi": 265,
      "line": 266,
      "outline": 267,
      "tu": 268,
      "are": 269,
      "di": 270,
      "ath": 271,
      "qu": 272,
      "mint": 273,
      "my": 274,
      "mou": 275,
      "arrow": 276,
      "check": 277,
      "mouse": 278,
      "dark": 279,
      "cher": 280,
      "own": 281,
      "test": 282,
      "si": 283,
      "blet": 284,
      "down": 285,
      "pit": 286,
      "rand": 287,
      "pper": 288,
      "goblet": 289,
      "tube": 290,
      "pitcher": 291,
      "cad": 292,
      "pou": 293,
      "ather": 294,
      "pouch": 295,
      "ond": 296,
      "erbo": 297,
      "amond": 298,
      "erboard": 299,
      "arcad": 300,
      "diamond": 301,
      "checkerboard": 302,
      "arcade": 303,
      "copper": 304,
      "leather": 305,
      "sha": 306,
      "mo": 307,
      "icon": 308,
      "ener": 309,
      "ci": 310,
      "glow": 311,
      "grand": 312,
      "thic": 313,
      "mythic": 314,
      "shape": 315,
      "mag": 316,
      "push": 317,
      "x16": 318,
      "16x16": 319,
      "mple": 320,
      "simple": 321,
      "raw": 322,
      "phic": 323,
      "graphic": 324,
      "enerate": 325,
      "quare": 326,
      "square": 327,
      "cy": 328,
      "cyan": 329,
      "oli": 330,
      "iz": 331,
      "ontal": 332,
      "oriz": 333,
      "orizontal": 334,
      "rown": 335,
      "horizontal": 336,
      "ing": 337,
      "num": 338,
      "yal": 339,
      "royal": 340,
      "pes": 341,
      "kard": 342,
      "tan": 343,
      "dern": 344,
      "chest": 345,
      "tankard": 346,
      "rder": 347,
      "border": 348,
      "stri": 349,
      "stripes": 350,
      "amboo": 351,
      "gc": 352,
      "iron": 353,
      "metal": 354,
      "modern": 355,
      "inter": 356,
      "pointer": 357,
      "bamboo": 358,
      "ve": 359,
      "jo": 360,
      "wii": 361,
      "joy": 362,
      "win": 363,
      "spe": 364,
      "brown": 365,
      "ag": 366,
      "con": 367,
      "id": 368,
      "magic": 369,
      "lo": 370,
      "ust": 371,
      "va": 372,
      "sky": 373,
      "agent": 374,
      "ana": 375,
      "Small": 376,
      "ta": 377,
      "magical": 378,
      "bl": 379,
      "dge": 380,
      "eli": 381,
      "ess": 382,
      "frot": 383,
      "is": 384,
      "jui": 385,
      "mana": 386,
      "oil": 387,
      "slu": 388,
      "xir": 389,
      "lava": 390,
      "stard": 391,
      "ence": 392,
      "tea": 393,
      "rew": 394,
      "adow": 395,
      "shadow": 396,
      "pois": 397,
      "cial": 398,
      "wine": 399,
      "special": 400,
      "blood": 401,
      "elixir": 402,
      "essence": 403,
      "froth": 404,
      "juice": 405,
      "sludge": 406,
      "stardust": 407,
      "poison": 408,
      "numpad": 409,
      "Medium": 410,
      "swi": 411,
      "reagent": 412,
      "swipe": 413,
      "brew": 414,
      "light": 415,
      "lime": 416,
      "teal": 417,
      "soli": 418,
      "solid": 419,
      "vi": 420,
      "gem": 421,
      "lock": 422,
      "cli": 423,
      "l3": 424,
      "r3": 425,
      "click": 426,
      "ct": 427,
      "Draw": 428,
      "Generate": 429,
      "draw": 430,
      "generate": 431,
      "rak": 432,
      "av": 433,
      "enter": 434,
      "pt": 435,
      "ru": 436,
      "ted": 437,
      "olet": 438,
      "per": 439,
      "aram": 440,
      "chid": 441,
      "touchpad": 442,
      "aramel": 443,
      "ench": 444,
      "ger": 445,
      "us": 446,
      "bright": 447,
      "men": 448,
      "ved": 449,
      "anci": 450,
      "engra": 451,
      "lus": 452,
      "rune": 453,
      "menu": 454,
      "ancient": 455,
      "engraved": 456,
      "min": 457,
      "ter": 458,
      "anted": 459,
      "enchanted": 460,
      "Large": 461,
      "fra": 462,
      "frame": 463,
      "joystick": 464,
      "ige": 465,
      "avy": 466,
      "dle": 467,
      "gger": 468,
      "trigger": 469,
      "minus": 470,
      "hot": 471,
      "home": 472,
      "atter": 473,
      "bum": 474,
      "batter": 475,
      "mark": 476,
      "plus": 477,
      "start": 478,
      "paddle": 479,
      "joycon": 480,
      "bumper": 481,
      "battery": 482,
      "navy": 483,
      "beige": 484,
      "enta": 485,
      "magenta": 486,
      "olive": 487,
      "cle": 488,
      "pr": 489,
      "caramel": 490,
      "drak": 491,
      "un": 492,
      "orchid": 493,
      "violet": 494,
      "cla": 495,
      "es": 496,
      "back": 497,
      "Or": 498,
      "cw": 499,
      "dot": 500,
      "sy": 501,
      "ele": 502,
      "center": 503,
      "lt": 504,
      "edge": 505,
      "share": 506,
      "nes": 507,
      "ref": 508,
      "neon": 509,
      "move": 510,
      "au": 511,
      "ze": 512,
      "ble": 513,
      "cir": 514,
      "rotation": 515,
      "tap": 516,
      "circle": 517,
      "Silver": 518,
      "em": 519,
      "ol": 520,
      "alt": 521,
      "pty": 522,
      "empty": 523,
      "ph": 524,
      "dou": 525,
      "ser": 526,
      "scro": 527,
      "ater": 528,
      "double": 529,
      "scroll": 530,
      "water": 531,
      "he": 532,
      "ssic": 533,
      "classic": 534,
      "ile": 535,
      "medi": 536,
      "opt": 537,
      "sl": 538,
      "sele": 539,
      "tro": 540,
      "vit": 541,
      "elite": 542,
      "ofile": 543,
      "set": 544,
      "profile": 545,
      "media": 546,
      "option": 547,
      "select": 548,
      "vita": 549,
      "hon": 550,
      "mil": 551,
      "beer": 552,
      "honey": 553,
      "milk": 554,
      "ca": 555,
      "rs": 556,
      "sla": 557,
      "lish": 558,
      "ler": 559,
      "stic": 560,
      "rack": 561,
      "polish": 562,
      "mystic": 563,
      "glowing": 564,
      "marked": 565,
      "slash": 566,
      "polished": 567,
      "Orange": 568,
      "Blue": 569,
      "ined": 570,
      "alph": 571,
      "beta": 572,
      "refined": 573,
      "alpha": 574,
      "Red": 575,
      "Pink": 576,
      "orma": 577,
      "ormal": 578,
      "Green": 579,
      "Pu": 580,
      "Purple": 581,
      "corn": 582,
      "de": 583,
      "ex": 584,
      "ls": 585,
      "lon": 586,
      "nd": 587,
      "sou": 588,
      "rotate": 589,
      "long": 590,
      "sound": 591,
      "Grand": 592,
      "inger": 593,
      "36": 594,
      "care": 595,
      "ew": 596,
      "fn": 597,
      "ies": 598,
      "l1": 599,
      "ller": 600,
      "nc": 601,
      "nun": 602,
      "ring": 603,
      "uk": 604,
      "zl": 605,
      "zr": 606,
      "chuk": 607,
      "icat": 608,
      "resi": 609,
      "ps3": 610,
      "mute": 611,
      "hold": 612,
      "contro": 613,
      "view": 614,
      "sync": 615,
      "series": 616,
      "options": 617,
      "corner": 618,
      "360": 619,
      "caret": 620,
      "nunchuk": 621,
      "resize": 622,
      "controller": 623,
      "Gra": 624,
      "Go": 625,
      "normal": 626,
      "Gold": 627,
      "Yellow": 628,
      "Gray": 629,
      "bar": 630,
      "ccw": 631,
      "finger": 632,
      "l2": 633,
      "pre": 634,
      "pau": 635,
      "r1": 636,
      "rl": 637,
      "sc": 638,
      "ur": 639,
      "lightbar": 640,
      "pause": 641,
      "Brown": 642,
      "Mint": 643,
      "Sk": 644,
      "Sky": 645,
      "mic": 646,
      "Te": 647,
      "Dark": 648,
      "mat": 649,
      "r2": 650,
      "Teal": 651,
      "all": 652,
      "ace": 653,
      "brack": 654,
      "dicat": 655,
      "et": 656,
      "est": 657,
      "equ": 658,
      "mbo": 659,
      "ptu": 660,
      "rb": 661,
      "rt": 662,
      "rstick": 663,
      "sr": 664,
      "th": 665,
      "vol": 666,
      "wa": 667,
      "edal": 668,
      "indicat": 669,
      "ice": 670,
      "ume": 671,
      "space": 672,
      "mult": 673,
      "quest": 674,
      "ide": 675,
      "load": 676,
      "symbo": 677,
      "captu": 678,
      "bracket": 679,
      "equal": 680,
      "volume": 681,
      "indicator": 682,
      "multi": 683,
      "question": 684,
      "symbol": 685,
      "capture": 686,
      "ime": 687,
      "app": 688,
      "hel": 689,
      "ke": 690,
      "lb": 691,
      "lstick": 692,
      "loo": 693,
      "op": 694,
      "til": 695,
      "inf": 696,
      "eye": 697,
      "shi": 698,
      "ctrl": 699,
      "fingers": 700,
      "loop": 701,
      "tilt": 702,
      "Bright": 703,
      "Caramel": 704,
      "Drak": 705,
      "Hot": 706,
      "Vi": 707,
      "pla": 708,
      "ste": 709,
      "rag": 710,
      "Orchid": 711,
      "Violet": 712,
      "drag": 713,
      "pin": 714,
      "guid": 715,
      "ull": 716,
      "star": 717,
      "sho": 718,
      "com": 719,
      "clamat": 720,
      "exclamat": 721,
      "press": 722,
      "guide": 723,
      "exclamation": 724,
      "ome": 725,
      "cam": 726,
      "dl": 727,
      "dr": 728,
      "den": 729,
      "f1": 730,
      "hand": 731,
      "math": 732,
      "nk": 733,
      "ning": 734,
      "og": 735,
      "pg": 736,
      "pen": 737,
      "pow": 738,
      "pro": 739,
      "pedal": 740,
      "ron": 741,
      "su": 742,
      "ssha": 743,
      "vice": 744,
      "vide": 745,
      "zoo": 746,
      "ote": 747,
      "link": 748,
      "era": 749,
      "anal": 750,
      "stop": 751,
      "ree": 752,
      "resh": 753,
      "reset": 754,
      "umb": 755,
      "grab": 756,
      "next": 757,
      "ness": 758,
      "crossha": 759,
      "cost": 760,
      "coin": 761,
      "wifi": 762,
      "tur": 763,
      "quote": 764,
      "idden": 765,
      "brightness": 766,
      "refresh": 767,
      "heart": 768,
      "slot": 769,
      "thumb": 770,
      "wait": 771,
      "play": 772,
      "pinch": 773,
      "camera": 774,
      "power": 775,
      "zoom": 776,
      "analog": 777,
      "crosshair": 778,
      "Lime": 779,
      "pa": 780,
      "ric": 781,
      "tric": 782,
      "ometric": 783,
      "Wooden": 784,
      "bidden": 785,
      "can": 786,
      "do": 787,
      "gener": 788,
      "ham": 789,
      "ild": 790,
      "tw": 791,
      "track": 792,
      "tild": 793,
      "war": 794,
      "ward": 795,
      "end": 796,
      "mail": 797,
      "gear": 798,
      "ball": 799,
      "forbidden": 800,
      "forward": 801,
      "locked": 802,
      "clear": 803,
      "print": 804,
      "backspace": 805,
      "dots": 806,
      "rsb": 807,
      "device": 808,
      "Golden": 809,
      "help": 810,
      "info": 811,
      "shift": 812,
      "generic": 813,
      "two": 814,
      "trackball": 815,
      "tilde": 816,
      "warning": 817,
      "Ceramic": 818,
      "bi": 819,
      "iny": 820,
      "ries": 821,
      "shiny": 822,
      "steel": 823,
      "Co": 824,
      "ak": 825,
      "fav": 826,
      "ul": 827,
      "ylus": 828,
      "atta": 829,
      "stylus": 830,
      "iner": 831,
      "orite": 832,
      "flag": 833,
      "skull": 834,
      "speak": 835,
      "conta": 836,
      "esc": 837,
      "caps": 838,
      "lsb": 839,
      "comma": 840,
      "favorite": 841,
      "speaker": 842,
      "container": 843,
      "An": 844,
      "Copper": 845,
      "Le": 846,
      "Leather": 847,
      "bron": 848,
      "bronze": 849,
      "Be": 850,
      "Magent": 851,
      "Navy": 852,
      "Oli": 853,
      "Beige": 854,
      "Magenta": 855,
      "Olive": 856,
      "erries": 857,
      "2p": 858,
      "ac": 859,
      "as": 860,
      "ave": 861,
      "act": 862,
      "bin": 863,
      "bing": 864,
      "brak": 865,
      "bur": 866,
      "berries": 867,
      "cl": 868,
      "cart": 869,
      "cre": 870,
      "cal": 871,
      "cent": 872,
      "cust": 873,
      "clock": 874,
      "cur": 875,
      "d1": 876,
      "d2": 877,
      "dn": 878,
      "del": 879,
      "dele": 880,
      "eu": 881,
      "ect": 882,
      "f5": 883,
      "f9": 884,
      "fru": 885,
      "fun": 886,
      "fol": 887,
      "ficat": 888,
      "full": 889,
      "free": 890,
      "gla": 891,
      "ggle": 892,
      "ging": 893,
      "gas": 894,
      "hi": 895,
      "hal": 896,
      "hou": 897,
      "hide": 898,
      "io": 899,
      "ive": 900,
      "ificat": 901,
      "ka": 902,
      "ly": 903,
      "lter": 904,
      "mi": 905,
      "medal": 906,
      "not": 907,
      "ner": 908,
      "om": 909,
      "p1": 910,
      "p2": 911,
      "p3": 912,
      "p4": 913,
      "prot": 914,
      "por": 915,
      "pri": 916,
      "pand": 917,
      "put": 918,
      "phot": 919,
      "ply": 920,
      "ren": 921,
      "rink": 922,
      "rgla": 923,
      "sw": 924,
      "sli": 925,
      "sor": 926,
      "save": 927,
      "tra": 928,
      "ting": 929,
      "tsc": 930,
      "time": 931,
      "ure": 932,
      "vr": 933,
      "whe": 934,
      "xus": 935,
      "edit": 936,
      "oth": 937,
      "arging": 938,
      "like": 939,
      "eld": 940,
      "pping": 941,
      "ering": 942,
      "llar": 943,
      "charging": 944,
      "boot": 945,
      "stat": 946,
      "ins": 947,
      "inite": 948,
      "inser": 949,
      "inner": 950,
      "ord": 951,
      "ory": 952,
      "fig": 953,
      "filter": 954,
      "macro": 955,
      "resu": 956,
      "geup": 957,
      "tom": 958,
      "toggle": 959,
      "tooth": 960,
      "add": 961,
      "adset": 962,
      "bottom": 963,
      "upload": 964,
      "oud": 965,
      "spinner": 966,
      "shrink": 967,
      "skele": 968,
      "cess": 969,
      "bag": 970,
      "muted": 971,
      "nect": 972,
      "nexus": 973,
      "sleep": 974,
      "bluetooth": 975,
      "semic": 976,
      "dio": 977,
      "dip": 978,
      "disk": 979,
      "divide": 980,
      "download": 981,
      "mode": 982,
      "numlock": 983,
      "speed": 984,
      "config": 985,
      "connect": 986,
      "vas": 987,
      "tab": 988,
      "ction": 989,
      "percent": 990,
      "perio": 991,
      "prtsc": 992,
      "backslash": 993,
      "auto": 994,
      "audio": 995,
      "olon": 996,
      "alth": 997,
      "phy": 998,
      "scrolllock": 999,
      "headset": 1000,
      "health": 1001,
      "trophy": 1002,
      "setup": 1003,
      "setting": 1004,
      "death": 1005,
      "exit": 1006,
      "expand": 1007,
      "fingerprint": 1008,
      "prev": 1009,
      "rlk": 1010,
      "scan": 1011,
      "scrlk": 1012,
      "mato": 1013,
      "three": 1014,
      "wake": 1015,
      "equals": 1016,
      "multiply": 1017,
      "app1": 1018,
      "app2": 1019,
      "held": 1020,
      "infinite": 1021,
      "shield": 1022,
      "steering": 1023,
      "shoot": 1024,
      "shopping": 1025,
      "comput": 1026,
      "handheld": 1027,
      "pgup": 1028,
      "pgdn": 1029,
      "sub": 1030,
      "video": 1031,
      "grabbing": 1032,
      "turn": 1033,
      "turbo": 1034,
      "thumbstick": 1035,
      "pageup": 1036,
      "canvas": 1037,
      "dollar": 1038,
      "hambur": 1039,
      "biometric": 1040,
      "attack": 1041,
      "access": 1042,
      "active": 1043,
      "brake": 1044,
      "cloud": 1045,
      "create": 1046,
      "calc": 1047,
      "custom": 1048,
      "curren": 1049,
      "delete": 1050,
      "euro": 1051,
      "fruit": 1052,
      "function": 1053,
      "folder": 1054,
      "freeze": 1055,
      "high": 1056,
      "half": 1057,
      "hourgla": 1058,
      "ification": 1059,
      "notification": 1060,
      "protect": 1061,
      "portal": 1062,
      "prika": 1063,
      "photo": 1064,
      "sword": 1065,
      "slider": 1066,
      "sort": 1067,
      "trash": 1068,
      "wheel": 1069,
      "insert": 1070,
      "result": 1071,
      "skeletal": 1072,
      "semicolon": 1073,
      "connector": 1074,
      "period": 1075,
      "settings": 1076,
      "computer": 1077,
      "hamburger": 1078,
      "accessory": 1079,
      "currency": 1080,
      "hourglass": 1081,
      "Cy": 1082,
      "Me": 1083,
      "apple": 1084,
      "Cyan": 1085,
      "Iron": 1086,
      "Li": 1087,
      "Mo": 1088,
      "gri": 1089,
      "geometric": 1090,
      "tomato": 1091,
      "paprika": 1092,
      "Metal": 1093,
      "Light": 1094,
      "Modern": 1095,
      "Bamboo": 1096,
      "Normal": 1097,
      "1p": 1098,
      "ai": 1099,
      "ast": 1100,
      "ama": 1101,
      "age": 1102,
      "aler": 1103,
      "cel": 1104,
      "cra": 1105,
      "cred": 1106,
      "dama": 1107,
      "eb": 1108,
      "ep": 1109,
      "f4": 1110,
      "f6": 1111,
      "f7": 1112,
      "f8": 1113,
      "gi": 1114,
      "gn": 1115,
      "gun": 1116,
      "ial": 1117,
      "isk": 1118,
      "mer": 1119,
      "mid": 1120,
      "pal": 1121,
      "pag": 1122,
      "rench": 1123,
      "targe": 1124,
      "web": 1125,
      "wrench": 1126,
      "edown": 1127,
      "arch": 1128,
      "erisk": 1129,
      "chat": 1130,
      "fire": 1131,
      "main": 1132,
      "tool": 1133,
      "show": 1134,
      "ssage": 1135,
      "message": 1136,
      "ential": 1137,
      "semi": 1138,
      "search": 1139,
      "sible": 1140,
      "sign": 1141,
      "shake": 1142,
      "tall": 1143,
      "reward": 1144,
      "lightgun": 1145,
      "visible": 1146,
      "unlock": 1147,
      "unlocked": 1148,
      "deep": 1149,
      "screen": 1150,
      "open": 1151,
      "pressure": 1152,
      "f10": 1153,
      "f11": 1154,
      "cancel": 1155,
      "dogear": 1156,
      "hammer": 1157,
      "printscreen": 1158,
      "grip": 1159,
      "aim": 1160,
      "asterisk": 1161,
      "alert": 1162,
      "craft": 1163,
      "credential": 1164,
      "damage": 1165,
      "gift": 1166,
      "middle": 1167,
      "palm": 1168,
      "pagedown": 1169,
      "target": 1170,
      "ima": 1171,
      "list": 1172,
      "minima": 1173,
      "minimalist": 1174,
      "lor": 1175,
      "color": 1176,
      "Mic": 1177,
      "ach": 1178,
      "bba": 1179,
      "eapple": 1180,
      "flow": 1181,
      "gg": 1182,
      "iwi": 1183,
      "kin": 1184,
      "mel": 1185,
      "nt": 1186,
      "ocad": 1187,
      "oes": 1188,
      "pkin": 1189,
      "ry": 1190,
      "arli": 1191,
      "arrot": 1192,
      "liflow": 1193,
      "atoes": 1194,
      "chun": 1195,
      "anana": 1196,
      "umpkin": 1197,
      "rawberries": 1198,
      "conut": 1199,
      "auliflow": 1200,
      "plant": 1201,
      "big": 1202,
      "bbage": 1203,
      "ggplant": 1204,
      "melon": 1205,
      "ocado": 1206,
      "arlic": 1207,
      "chunk": 1208,
      "auliflower": 1209,
      "banana": 1210,
      "carrot": 1211,
      "cauliflower": 1212,
      "eggplant": 1213,
      "ginger": 1214,
      "garlic": 1215,
      "kiwi": 1216,
      "mon": 1217,
      "pumpkin": 1218,
      "lemon": 1219,
      "onion": 1220,
      "strawberries": 1221,
      "potatoes": 1222,
      "grapes": 1223,
      "pear": 1224,
      "peach": 1225,
      "meat": 1226,
      "blueberries": 1227,
      "coconut": 1228,
      "cherries": 1229,
      "cherry": 1230,
      "avocado": 1231,
      "watermelon": 1232,
      "cabbage": 1233,
      "dragon": 1234,
      "pineapple": 1235,
      "clo": 1236,
      "dome": 1237,
      "f2": 1238,
      "f3": 1239,
      "fin": 1240,
      "hidden": 1241,
      "ish": 1242,
      "mit": 1243,
      "ment": 1244,
      "flick": 1245,
      "chment": 1246,
      "sture": 1247,
      "gesture": 1248,
      "rail": 1249,
      "hover": 1250,
      "lightning": 1251,
      "service": 1252,
      "premi": 1253,
      "shock": 1254,
      "f12": 1255,
      "attachment": 1256,
      "submit": 1257,
      "close": 1258,
      "finish": 1259,
      "premium": 1260,
      "patter": 1261,
      "pattern": 1262,
      "Ho": 1263,
      "Hollow": 1264,
      "Ch": 1265,
      "Cro": 1266,
      "Che": 1267,
      "Di": 1268,
      "Pa": 1269,
      "Pe": 1270,
      "To": 1271,
      "Tri": 1272,
      "ckerboard": 1273,
      "grid": 1274,
      "Cross": 1275,
      "Checkerboard": 1276,
      "Diamond": 1277,
      "Paprika": 1278,
      "Tomato": 1279,
      "Triangle": 1280,
      "Horizontal": 1281,
      "Mag": 1282,
      "ical": 1283,
      "Magical": 1284,
      "Av": 1285,
      "App": 1286,
      "Banana": 1287,
      "Ca": 1288,
      "Cla": 1289,
      "Corn": 1290,
      "Carrot": 1291,
      "Cauliflower": 1292,
      "Drag": 1293,
      "Eggplant": 1294,
      "Ginger": 1295,
      "Garlic": 1296,
      "Kiwi": 1297,
      "Lem": 1298,
      "On": 1299,
      "Pot": 1300,
      "Pin": 1301,
      "Pumpkin": 1302,
      "St": 1303,
      "Water": 1304,
      "erry": 1305,
      "Blueberries": 1306,
      "Grapes": 1307,
      "Test": 1308,
      "Coconut": 1309,
      "Meat": 1310,
      "Cherries": 1311,
      "Cherry": 1312,
      "Pear": 1313,
      "Peach": 1314,
      "Avocado": 1315,
      "Apple": 1316,
      "Cabbage": 1317,
      "Classic": 1318,
      "Dragon": 1319,
      "Lemon": 1320,
      "Onion": 1321,
      "Potatoes": 1322,
      "Pineapple": 1323,
      "Strawberries": 1324,
      "Watermelon": 1325,
      "Bor": 1326,
      "Square": 1327,
      "Border": 1328
    },
    "merges": [
      [
        "e",
        "d"
      ],
      [
        "i",
        "t"
      ],
      [
        "o",
        "t"
      ],
      [
        "a",
        "r"
      ],
      [
        "l",
        "i"
      ],
      [
        "a",
        "t"
      ],
      [
        "e",
        "l"
      ],
      [
        "r",
        "ot"
      ],
      [
        "rot",
        "at"
      ],
      [
        "i",
        "x"
      ],
      [
        "ix",
        "el"
      ],
      [
        "l",
        "a"
      ],
      [
        "c",
        "k"
      ],
      [
        "rotat",
        "ed"
      ],
      [
        "ar",
        "t"
      ],
      [
        "l",
        "e"
      ],
      [
        "it",
        "e"
      ],
      [
        "p",
        "p"
      ],
      [
        "o",
        "f"
      ],
      [
        "o",
        "n"
      ],
      [
        "f",
        "li"
      ],
      [
        "pp",
        "ed"
      ],
      [
        "fli",
        "pped"
      ],
      [
        "e",
        "r"
      ],
      [
        "h",
        "ite"
      ],
      [
        "w",
        "it"
      ],
      [
        "la",
        "ck"
      ],
      [
        "l",
        "l"
      ],
      [
        "w",
        "hite"
      ],
      [
        "p",
        "ixel"
      ],
      [
        "b",
        "lack"
      ],
      [
        "c",
        "h"
      ],
      [
        "wit",
        "h"
      ],
      [
        "a",
        "n"
      ],
      [
        "b",
        "o"
      ],
      [
        "u",
        "i"
      ],
      [
        "s",
        "t"
      ],
      [
        "e",
        "n"
      ],
      [
        "i",
        "on"
      ],
      [
        "p",
        "ot"
      ],
      [
        "pot",
        "ion"
      ],
      [
        "i",
        "n"
      ],
      [
        "i",
        "c"
      ],
      [
        "o",
        "w"
      ],
      [
        "P",
        "ixel"
      ],
      [
        "ui",
        "d"
      ],
      [
        "q",
        "uid"
      ],
      [
        "li",
        "quid"
      ],
      [
        "o",
        "r"
      ],
      [
        "f",
        "i"
      ],
      [
        "m",
        "a"
      ],
      [
        "ll",
        "ed"
      ],
      [
        "fi",
        "lled"
      ],
      [
        "t",
        "e"
      ],
      [
        "r",
        "e"
      ],
      [
        "e",
        "y"
      ],
      [
        "g",
        "e"
      ],
      [
        "t",
        "o"
      ],
      [
        "k",
        "ey"
      ],
      [
        "r",
        "i"
      ],
      [
        "ma",
        "ll"
      ],
      [
        "p",
        "s"
      ],
      [
        "r",
        "a"
      ],
      [
        "a",
        "d"
      ],
      [
        "a",
        "l"
      ],
      [
        "u",
        "m"
      ],
      [
        "x",
        "bo"
      ],
      [
        "xbo",
        "x"
      ],
      [
        "b",
        "ot"
      ],
      [
        "t",
        "le"
      ],
      [
        "ar",
        "d"
      ],
      [
        "bot",
        "tle"
      ],
      [
        "s",
        "mall"
      ],
      [
        "f",
        "la"
      ],
      [
        "bo",
        "o"
      ],
      [
        "s",
        "le"
      ],
      [
        "u",
        "p"
      ],
      [
        "to",
        "p"
      ],
      [
        "g",
        "o"
      ],
      [
        "o",
        "u"
      ],
      [
        "s",
        "wit"
      ],
      [
        "swit",
        "ch"
      ],
      [
        "i",
        "r"
      ],
      [
        "ed",
        "i"
      ],
      [
        "x",
        "t"
      ],
      [
        "a",
        "m"
      ],
      [
        "s",
        "p"
      ],
      [
        "d",
        "er"
      ],
      [
        "te",
        "xt"
      ],
      [
        "edi",
        "um"
      ],
      [
        "boo",
        "k"
      ],
      [
        "s",
        "h"
      ],
      [
        "an",
        "d"
      ],
      [
        "l",
        "d"
      ],
      [
        "p",
        "ad"
      ],
      [
        "l",
        "u"
      ],
      [
        "i",
        "l"
      ],
      [
        "m",
        "edium"
      ],
      [
        "i",
        "ck"
      ],
      [
        "st",
        "ick"
      ],
      [
        "r",
        "o"
      ],
      [
        "go",
        "ld"
      ],
      [
        "r",
        "ite"
      ],
      [
        "s",
        "k"
      ],
      [
        "sp",
        "rite"
      ],
      [
        "c",
        "up"
      ],
      [
        "g",
        "ra"
      ],
      [
        "c",
        "e"
      ],
      [
        "g",
        "h"
      ],
      [
        "at",
        "e"
      ],
      [
        "gh",
        "t"
      ],
      [
        "b",
        "a"
      ],
      [
        "s",
        "s"
      ],
      [
        "t",
        "ri"
      ],
      [
        "r",
        "ed"
      ],
      [
        "W",
        "hite"
      ],
      [
        "m",
        "u"
      ],
      [
        "p",
        "le"
      ],
      [
        "l",
        "ow"
      ],
      [
        "B",
        "lack"
      ],
      [
        "n",
        "e"
      ],
      [
        "ar",
        "ge"
      ],
      [
        "u",
        "t"
      ],
      [
        "g",
        "le"
      ],
      [
        "p",
        "u"
      ],
      [
        "b",
        "ut"
      ],
      [
        "t",
        "on"
      ],
      [
        "but",
        "ton"
      ],
      [
        "an",
        "gle"
      ],
      [
        "tri",
        "angle"
      ],
      [
        "fla",
        "ir"
      ],
      [
        "s",
        "ic"
      ],
      [
        "ba",
        "sic"
      ],
      [
        "o",
        "o"
      ],
      [
        "p",
        "e"
      ],
      [
        "n",
        "der"
      ],
      [
        "st",
        "and"
      ],
      [
        "fla",
        "sk"
      ],
      [
        "sle",
        "nder"
      ],
      [
        "mu",
        "g"
      ],
      [
        "stand",
        "ard"
      ],
      [
        "lu",
        "e"
      ],
      [
        "v",
        "er"
      ],
      [
        "m",
        "e"
      ],
      [
        "il",
        "ver"
      ],
      [
        "re",
        "en"
      ],
      [
        "ri",
        "ght"
      ],
      [
        "sle",
        "e"
      ],
      [
        "slee",
        "k"
      ],
      [
        "in",
        "k"
      ],
      [
        "oo",
        "d"
      ],
      [
        "in",
        "t"
      ],
      [
        "or",
        "n"
      ],
      [
        "l",
        "arge"
      ],
      [
        "b",
        "lue"
      ],
      [
        "g",
        "reen"
      ],
      [
        "c",
        "ro"
      ],
      [
        "s",
        "ilver"
      ],
      [
        "r",
        "ow"
      ],
      [
        "h",
        "o"
      ],
      [
        "d",
        "pad"
      ],
      [
        "ch",
        "e"
      ],
      [
        "p",
        "ink"
      ],
      [
        "orn",
        "ate"
      ],
      [
        "1",
        "6"
      ],
      [
        "h",
        "ic"
      ],
      [
        "f",
        "t"
      ],
      [
        "f",
        "or"
      ],
      [
        "b",
        "e"
      ],
      [
        "en",
        "t"
      ],
      [
        "le",
        "ft"
      ],
      [
        "an",
        "ge"
      ],
      [
        "c",
        "ed"
      ],
      [
        "in",
        "for"
      ],
      [
        "re",
        "infor"
      ],
      [
        "reinfor",
        "ced"
      ],
      [
        "cro",
        "ss"
      ],
      [
        "t",
        "al"
      ],
      [
        "r",
        "ple"
      ],
      [
        "s",
        "e"
      ],
      [
        "gold",
        "en"
      ],
      [
        "ar",
        "k"
      ],
      [
        "gra",
        "y"
      ],
      [
        "ood",
        "en"
      ],
      [
        "le",
        "t"
      ],
      [
        "or",
        "ange"
      ],
      [
        "el",
        "low"
      ],
      [
        "a",
        "li"
      ],
      [
        "u",
        "ch"
      ],
      [
        "ch",
        "ali"
      ],
      [
        "to",
        "uch"
      ],
      [
        "chali",
        "ce"
      ],
      [
        "er",
        "am"
      ],
      [
        "eram",
        "ic"
      ],
      [
        "p",
        "o"
      ],
      [
        "w",
        "ooden"
      ],
      [
        "ll",
        "ow"
      ],
      [
        "ho",
        "llow"
      ],
      [
        "pu",
        "rple"
      ],
      [
        "c",
        "eramic"
      ],
      [
        "ou",
        "t"
      ],
      [
        "c",
        "o"
      ],
      [
        "y",
        "ellow"
      ],
      [
        "w",
        "i"
      ],
      [
        "li",
        "ne"
      ],
      [
        "out",
        "line"
      ],
      [
        "t",
        "u"
      ],
      [
        "ar",
        "e"
      ],
      [
        "d",
        "i"
      ],
      [
        "at",
        "h"
      ],
      [
        "q",
        "u"
      ],
      [
        "m",
        "int"
      ],
      [
        "m",
        "y"
      ],
      [
        "m",
        "ou"
      ],
      [
        "ar",
        "row"
      ],
      [
        "che",
        "ck"
      ],
      [
        "mou",
        "se"
      ],
      [
        "d",
        "ark"
      ],
      [
        "ch",
        "er"
      ],
      [
        "ow",
        "n"
      ],
      [
        "te",
        "st"
      ],
      [
        "s",
        "i"
      ],
      [
        "b",
        "let"
      ],
      [
        "d",
        "own"
      ],
      [
        "p",
        "it"
      ],
      [
        "r",
        "and"
      ],
      [
        "pp",
        "er"
      ],
      [
        "go",
        "blet"
      ],
      [
        "tu",
        "be"
      ],
      [
        "pit",
        "cher"
      ],
      [
        "c",
        "ad"
      ],
      [
        "p",
        "ou"
      ],
      [
        "ath",
        "er"
      ],
      [
        "pou",
        "ch"
      ],
      [
        "on",
        "d"
      ],
      [
        "er",
        "bo"
      ],
      [
        "am",
        "ond"
      ],
      [
        "erbo",
        "ard"
      ],
      [
        "ar",
        "cad"
      ],
      [
        "di",
        "amond"
      ],
      [
        "check",
        "erboard"
      ],
      [
        "arcad",
        "e"
      ],
      [
        "co",
        "pper"
      ],
      [
        "le",
        "ather"
      ],
      [
        "sh",
        "a"
      ],
      [
        "m",
        "o"
      ],
      [
        "ic",
        "on"
      ],
      [
        "en",
        "er"
      ],
      [
        "c",
        "i"
      ],
      [
        "g",
        "low"
      ],
      [
        "g",
        "rand"
      ],
      [
        "t",
        "hic"
      ],
      [
        "my",
        "thic"
      ],
      [
        "sha",
        "pe"
      ],
      [
        "ma",
        "g"
      ],
      [
        "pu",
        "sh"
      ],
      [
        "x",
        "16"
      ],
      [
        "16",
        "x16"
      ],
      [
        "m",
        "ple"
      ],
      [
        "si",
        "mple"
      ],
      [
        "ra",
        "w"
      ],
      [
        "p",
        "hic"
      ],
      [
        "gra",
        "phic"
      ],
      [
        "ener",
        "ate"
      ],
      [
        "qu",
        "are"
      ],
      [
        "s",
        "quare"
      ],
      [
        "c",
        "y"
      ],
      [
        "cy",
        "an"
      ],
      [
        "o",
        "li"
      ],
      [
        "i",
        "z"
      ],
      [
        "on",
        "tal"
      ],
      [
        "or",
        "iz"
      ],
      [
        "oriz",
        "ontal"
      ],
      [
        "row",
        "n"
      ],
      [
        "h",
        "orizontal"
      ],
      [
        "in",
        "g"
      ],
      [
        "n",
        "um"
      ],
      [
        "y",
        "al"
      ],
      [
        "ro",
        "yal"
      ],
      [
        "pe",
        "s"
      ],
      [
        "k",
        "ard"
      ],
      [
        "t",
        "an"
      ],
      [
        "der",
        "n"
      ],
      [
        "che",
        "st"
      ],
      [
        "tan",
        "kard"
      ],
      [
        "r",
        "der"
      ],
      [
        "bo",
        "rder"
      ],
      [
        "st",
        "ri"
      ],
      [
        "stri",
        "pes"
      ],
      [
        "am",
        "boo"
      ],
      [
        "g",
        "c"
      ],
      [
        "ir",
        "on"
      ],
      [
        "me",
        "tal"
      ],
      [
        "mo",
        "dern"
      ],
      [
        "int",
        "er"
      ],
      [
        "po",
        "inter"
      ],
      [
        "b",
        "amboo"
      ],
      [
        "v",
        "e"
      ],
      [
        "j",
        "o"
      ],
      [
        "wi",
        "i"
      ],
      [
        "jo",
        "y"
      ],
      [
        "w",
        "in"
      ],
      [
        "sp",
        "e"
      ],
      [
        "b",
        "rown"
      ],
      [
        "a",
        "g"
      ],
      [
        "c",
        "on"
      ],
      [
        "i",
        "d"
      ],
      [
        "mag",
        "ic"
      ],
      [
        "l",
        "o"
      ],
      [
        "u",
        "st"
      ],
      [
        "v",
        "a"
      ],
      [
        "sk",
        "y"
      ],
      [
        "ag",
        "ent"
      ],
      [
        "an",
        "a"
      ],
      [
        "S",
        "mall"
      ],
      [
        "t",
        "a"
      ],
      [
        "magic",
        "al"
      ],
      [
        "b",
        "l"
      ],
      [
        "d",
        "ge"
      ],
      [
        "e",
        "li"
      ],
      [
        "e",
        "ss"
      ],
      [
        "f",
        "rot"
      ],
      [
        "i",
        "s"
      ],
      [
        "j",
        "ui"
      ],
      [
        "m",
        "ana"
      ],
      [
        "o",
        "il"
      ],
      [
        "s",
        "lu"
      ],
      [
        "x",
        "ir"
      ],
      [
        "la",
        "va"
      ],
      [
        "st",
        "ard"
      ],
      [
        "en",
        "ce"
      ],
      [
        "te",
        "a"
      ],
      [
        "re",
        "w"
      ],
      [
        "ad",
        "ow"
      ],
      [
        "sh",
        "adow"
      ],
      [
        "po",
        "is"
      ],
      [
        "ci",
        "al"
      ],
      [
        "win",
        "e"
      ],
      [
        "spe",
        "cial"
      ],
      [
        "bl",
        "ood"
      ],
      [
        "eli",
        "xir"
      ],
      [
        "ess",
        "ence"
      ],
      [
        "frot",
        "h"
      ],
      [
        "jui",
        "ce"
      ],
      [
        "slu",
        "dge"
      ],
      [
        "stard",
        "ust"
      ],
      [
        "pois",
        "on"
      ],
      [
        "num",
        "pad"
      ],
      [
        "M",
        "edium"
      ],
      [
        "s",
        "wi"
      ],
      [
        "re",
        "agent"
      ],
      [
        "swi",
        "pe"
      ],
      [
        "b",
        "rew"
      ],
      [
        "li",
        "ght"
      ],
      [
        "li",
        "me"
      ],
      [
        "te",
        "al"
      ],
      [
        "s",
        "oli"
      ],
      [
        "soli",
        "d"
      ],
      [
        "v",
        "i"
      ],
      [
        "ge",
        "m"
      ],
      [
        "lo",
        "ck"
      ],
      [
        "c",
        "li"
      ],
      [
        "l",
        "3"
      ],
      [
        "r",
        "3"
      ],
      [
        "cli",
        "ck"
      ],
      [
        "c",
        "t"
      ],
      [
        "D",
        "raw"
      ],
      [
        "G",
        "enerate"
      ],
      [
        "d",
        "raw"
      ],
      [
        "g",
        "enerate"
      ],
      [
        "ra",
        "k"
      ],
      [
        "a",
        "v"
      ],
      [
        "ent",
        "er"
      ],
      [
        "p",
        "t"
      ],
      [
        "r",
        "u"
      ],
      [
        "t",
        "ed"
      ],
      [
        "o",
        "let"
      ],
      [
        "p",
        "er"
      ],
      [
        "ar",
        "am"
      ],
      [
        "ch",
        "id"
      ],
      [
        "touch",
        "pad"
      ],
      [
        "aram",
        "el"
      ],
      [
        "en",
        "ch"
      ],
      [
        "g",
        "er"
      ],
      [
        "u",
        "s"
      ],
      [
        "b",
        "right"
      ],
      [
        "m",
        "en"
      ],
      [
        "v",
        "ed"
      ],
      [
        "an",
        "ci"
      ],
      [
        "en",
        "gra"
      ],
      [
        "lu",
        "s"
      ],
      [
        "ru",
        "ne"
      ],
      [
        "men",
        "u"
      ],
      [
        "anci",
        "ent"
      ],
      [
        "engra",
        "ved"
      ],
      [
        "m",
        "in"
      ],
      [
        "t",
        "er"
      ],
      [
        "an",
        "ted"
      ],
      [
        "ench",
        "anted"
      ],
      [
        "L",
        "arge"
      ],
      [
        "f",
        "ra"
      ],
      [
        "fra",
        "me"
      ],
      [
        "joy",
        "stick"
      ],
      [
        "i",
        "ge"
      ],
      [
        "av",
        "y"
      ],
      [
        "d",
        "le"
      ],
      [
        "g",
        "ger"
      ],
      [
        "tri",
        "gger"
      ],
      [
        "min",
        "us"
      ],
      [
        "h",
        "ot"
      ],
      [
        "ho",
        "me"
      ],
      [
        "at",
        "ter"
      ],
      [
        "b",
        "um"
      ],
      [
        "b",
        "atter"
      ],
      [
        "m",
        "ark"
      ],
      [
        "p",
        "lus"
      ],
      [
        "st",
        "art"
      ],
      [
        "pad",
        "dle"
      ],
      [
        "joy",
        "con"
      ],
      [
        "bum",
        "per"
      ],
      [
        "batter",
        "y"
      ],
      [
        "n",
        "avy"
      ],
      [
        "be",
        "ige"
      ],
      [
        "ent",
        "a"
      ],
      [
        "mag",
        "enta"
      ],
      [
        "oli",
        "ve"
      ],
      [
        "c",
        "le"
      ],
      [
        "p",
        "r"
      ],
      [
        "c",
        "aramel"
      ],
      [
        "d",
        "rak"
      ],
      [
        "u",
        "n"
      ],
      [
        "or",
        "chid"
      ],
      [
        "vi",
        "olet"
      ],
      [
        "c",
        "la"
      ],
      [
        "e",
        "s"
      ],
      [
        "ba",
        "ck"
      ],
      [
        "O",
        "r"
      ],
      [
        "c",
        "w"
      ],
      [
        "d",
        "ot"
      ],
      [
        "s",
        "y"
      ],
      [
        "el",
        "e"
      ],
      [
        "c",
        "enter"
      ],
      [
        "l",
        "t"
      ],
      [
        "ed",
        "ge"
      ],
      [
        "sh",
        "are"
      ],
      [
        "ne",
        "s"
      ],
      [
        "re",
        "f"
      ],
      [
        "ne",
        "on"
      ],
      [
        "mo",
        "ve"
      ],
      [
        "a",
        "u"
      ],
      [
        "z",
        "e"
      ],
      [
        "b",
        "le"
      ],
      [
        "c",
        "ir"
      ],
      [
        "rotat",
        "ion"
      ],
      [
        "ta",
        "p"
      ],
      [
        "cir",
        "cle"
      ],
      [
        "S",
        "ilver"
      ],
      [
        "e",
        "m"
      ],
      [
        "o",
        "l"
      ],
      [
        "al",
        "t"
      ],
      [
        "pt",
        "y"
      ],
      [
        "em",
        "pty"
      ],
      [
        "p",
        "h"
      ],
      [
        "d",
        "ou"
      ],
      [
        "s",
        "er"
      ],
      [
        "s",
        "cro"
      ],
      [
        "at",
        "er"
      ],
      [
        "dou",
        "ble"
      ],
      [
        "scro",
        "ll"
      ],
      [
        "w",
        "ater"
      ],
      [
        "h",
        "e"
      ],
      [
        "ss",
        "ic"
      ],
      [
        "cla",
        "ssic"
      ],
      [
        "i",
        "le"
      ],
      [
        "m",
        "edi"
      ],
      [
        "o",
        "pt"
      ],
      [
        "s",
        "l"
      ],
      [
        "s",
        "ele"
      ],
      [
        "t",
        "ro"
      ],
      [
        "v",
        "it"
      ],
      [
        "el",
        "ite"
      ],
      [
        "of",
        "ile"
      ],
      [
        "se",
        "t"
      ],
      [
        "pr",
        "ofile"
      ],
      [
        "medi",
        "a"
      ],
      [
        "opt",
        "ion"
      ],
      [
        "sele",
        "ct"
      ],
      [
        "vit",
        "a"
      ],
      [
        "h",
        "on"
      ],
      [
        "m",
        "il"
      ],
      [
        "be",
        "er"
      ],
      [
        "hon",
        "ey"
      ],
      [
        "mil",
        "k"
      ],
      [
        "c",
        "a"
      ],
      [
        "r",
        "s"
      ],
      [
        "s",
        "la"
      ],
      [
        "li",
        "sh"
      ],
      [
        "le",
        "r"
      ],
      [
        "st",
        "ic"
      ],
      [
        "ra",
        "ck"
      ],
      [
        "po",
        "lish"
      ],
      [
        "my",
        "stic"
      ],
      [
        "glow",
        "ing"
      ],
      [
        "mark",
        "ed"
      ],
      [
        "sla",
        "sh"
      ],
      [
        "polish",
        "ed"
      ],
      [
        "Or",
        "ange"
      ],
      [
        "B",
        "lue"
      ],
      [
        "in",
        "ed"
      ],
      [
        "al",
        "ph"
      ],
      [
        "be",
        "ta"
      ],
      [
        "ref",
        "ined"
      ],
      [
        "alph",
        "a"
      ],
      [
        "R",
        "ed"
      ],
      [
        "P",
        "ink"
      ],
      [
        "or",
        "ma"
      ],
      [
        "orma",
        "l"
      ],
      [
        "G",
        "reen"
      ],
      [
        "P",
        "u"
      ],
      [
        "Pu",
        "rple"
      ],
      [
        "c",
        "orn"
      ],
      [
        "d",
        "e"
      ],
      [
        "e",
        "x"
      ],
      [
        "l",
        "s"
      ],
      [
        "l",
        "on"
      ],
      [
        "n",
        "d"
      ],
      [
        "s",
        "ou"
      ],
      [
        "rotat",
        "e"
      ],
      [
        "lon",
        "g"
      ],
      [
        "sou",
        "nd"
      ],
      [
        "G",
        "rand"
      ],
      [
        "ing",
        "er"
      ],
      [
        "3",
        "6"
      ],
      [
        "c",
        "are"
      ],
      [
        "e",
        "w"
      ],
      [
        "f",
        "n"
      ],
      [
        "i",
        "es"
      ],
      [
        "l",
        "1"
      ],
      [
        "l",
        "ler"
      ],
      [
        "n",
        "c"
      ],
      [
        "n",
        "un"
      ],
      [
        "r",
        "ing"
      ],
      [
        "u",
        "k"
      ],
      [
        "z",
        "l"
      ],
      [
        "z",
        "r"
      ],
      [
        "ch",
        "uk"
      ],
      [
        "ic",
        "at"
      ],
      [
        "re",
        "si"
      ],
      [
        "ps",
        "3"
      ],
      [
        "mu",
        "te"
      ],
      [
        "ho",
        "ld"
      ],
      [
        "con",
        "tro"
      ],
      [
        "vi",
        "ew"
      ],
      [
        "sy",
        "nc"
      ],
      [
        "ser",
        "ies"
      ],
      [
        "option",
        "s"
      ],
      [
        "corn",
        "er"
      ],
      [
        "36",
        "0"
      ],
      [
        "care",
        "t"
      ],
      [
        "nun",
        "chuk"
      ],
      [
        "resi",
        "ze"
      ],
      [
        "contro",
        "ller"
      ],
      [
        "G",
        "ra"
      ],
      [
        "G",
        "o"
      ],
      [
        "n",
        "ormal"
      ],
      [
        "Go",
        "ld"
      ],
      [
        "Y",
        "ellow"
      ],
      [
        "Gra",
        "y"
      ],
      [
        "b",
        "ar"
      ],
      [
        "c",
        "cw"
      ],
      [
        "f",
        "inger"
      ],
      [
        "l",
        "2"
      ],
      [
        "p",
        "re"
      ],
      [
        "p",
        "au"
      ],
      [
        "r",
        "1"
      ],
      [
        "r",
        "l"
      ],
      [
        "s",
        "c"
      ],
      [
        "u",
        "r"
      ],
      [
        "light",
        "bar"
      ],
      [
        "pau",
        "se"
      ],
      [
        "B",
        "rown"
      ],
      [
        "M",
        "int"
      ],
      [
        "S",
        "k"
      ],
      [
        "Sk",
        "y"
      ],
      [
        "m",
        "ic"
      ],
      [
        "T",
        "e"
      ],
      [
        "D",
        "ark"
      ],
      [
        "m",
        "at"
      ],
      [
        "r",
        "2"
      ],
      [
        "Te",
        "al"
      ],
      [
        "a",
        "ll"
      ],
      [
        "a",
        "ce"
      ],
      [
        "b",
        "rack"
      ],
      [
        "d",
        "icat"
      ],
      [
        "e",
        "t"
      ],
      [
        "e",
        "st"
      ],
      [
        "e",
        "qu"
      ],
      [
        "m",
        "bo"
      ],
      [
        "p",
        "tu"
      ],
      [
        "r",
        "b"
      ],
      [
        "r",
        "t"
      ],
      [
        "r",
        "stick"
      ],
      [
        "s",
        "r"
      ],
      [
        "t",
        "h"
      ],
      [
        "v",
        "ol"
      ],
      [
        "w",
        "a"
      ],
      [
        "ed",
        "al"
      ],
      [
        "in",
        "dicat"
      ],
      [
        "ic",
        "e"
      ],
      [
        "um",
        "e"
      ],
      [
        "sp",
        "ace"
      ],
      [
        "mu",
        "lt"
      ],
      [
        "qu",
        "est"
      ],
      [
        "id",
        "e"
      ],
      [
        "lo",
        "ad"
      ],
      [
        "sy",
        "mbo"
      ],
      [
        "ca",
        "ptu"
      ],
      [
        "brack",
        "et"
      ],
      [
        "equ",
        "al"
      ],
      [
        "vol",
        "ume"
      ],
      [
        "indicat",
        "or"
      ],
      [
        "mult",
        "i"
      ],
      [
        "quest",
        "ion"
      ],
      [
        "symbo",
        "l"
      ],
      [
        "captu",
        "re"
      ],
      [
        "i",
        "me"
      ],
      [
        "a",
        "pp"
      ],
      [
        "h",
        "el"
      ],
      [
        "k",
        "e"
      ],
      [
        "l",
        "b"
      ],
      [
        "l",
        "stick"
      ],
      [
        "l",
        "oo"
      ],
      [
        "o",
        "p"
      ],
      [
        "t",
        "il"
      ],
      [
        "in",
        "f"
      ],
      [
        "ey",
        "e"
      ],
      [
        "sh",
        "i"
      ],
      [
        "ct",
        "rl"
      ],
      [
        "finger",
        "s"
      ],
      [
        "loo",
        "p"
      ],
      [
        "til",
        "t"
      ],
      [
        "B",
        "right"
      ],
      [
        "C",
        "aramel"
      ],
      [
        "D",
        "rak"
      ],
      [
        "H",
        "ot"
      ],
      [
        "V",
        "i"
      ],
      [
        "p",
        "la"
      ],
      [
        "st",
        "e"
      ],
      [
        "ra",
        "g"
      ],
      [
        "Or",
        "chid"
      ],
      [
        "Vi",
        "olet"
      ],
      [
        "d",
        "rag"
      ],
      [
        "p",
        "in"
      ],
      [
        "g",
        "uid"
      ],
      [
        "u",
        "ll"
      ],
      [
        "st",
        "ar"
      ],
      [
        "sh",
        "o"
      ],
      [
        "co",
        "m"
      ],
      [
        "cla",
        "mat"
      ],
      [
        "ex",
        "clamat"
      ],
      [
        "pre",
        "ss"
      ],
      [
        "guid",
        "e"
      ],
      [
        "exclamat",
        "ion"
      ],
      [
        "o",
        "me"
      ],
      [
        "c",
        "am"
      ],
      [
        "d",
        "l"
      ],
      [
        "d",
        "r"
      ],
      [
        "d",
        "en"
      ],
      [
        "f",
        "1"
      ],
      [
        "h",
        "and"
      ],
      [
        "m",
        "ath"
      ],
      [
        "n",
        "k"
      ],
      [
        "n",
        "ing"
      ],
      [
        "o",
        "g"
      ],
      [
        "p",
        "g"
      ],
      [
        "p",
        "en"
      ],
      [
        "p",
        "ow"
      ],
      [
        "p",
        "ro"
      ],
      [
        "p",
        "edal"
      ],
      [
        "r",
        "on"
      ],
      [
        "s",
        "u"
      ],
      [
        "s",
        "sha"
      ],
      [
        "v",
        "ice"
      ],
      [
        "v",
        "ide"
      ],
      [
        "z",
        "oo"
      ],
      [
        "ot",
        "e"
      ],
      [
        "li",
        "nk"
      ],
      [
        "er",
        "a"
      ],
      [
        "an",
        "al"
      ],
      [
        "st",
        "op"
      ],
      [
        "re",
        "e"
      ],
      [
        "re",
        "sh"
      ],
      [
        "re",
        "set"
      ],
      [
        "um",
        "b"
      ],
      [
        "gra",
        "b"
      ],
      [
        "ne",
        "xt"
      ],
      [
        "ne",
        "ss"
      ],
      [
        "cro",
        "ssha"
      ],
      [
        "co",
        "st"
      ],
      [
        "co",
        "in"
      ],
      [
        "wi",
        "fi"
      ],
      [
        "tu",
        "r"
      ],
      [
        "qu",
        "ote"
      ],
      [
        "id",
        "den"
      ],
      [
        "bright",
        "ness"
      ],
      [
        "ref",
        "resh"
      ],
      [
        "he",
        "art"
      ],
      [
        "sl",
        "ot"
      ],
      [
        "th",
        "umb"
      ],
      [
        "wa",
        "it"
      ],
      [
        "pla",
        "y"
      ],
      [
        "pin",
        "ch"
      ],
      [
        "cam",
        "era"
      ],
      [
        "pow",
        "er"
      ],
      [
        "zoo",
        "m"
      ],
      [
        "anal",
        "og"
      ],
      [
        "crossha",
        "ir"
      ],
      [
        "L",
        "ime"
      ],
      [
        "p",
        "a"
      ],
      [
        "r",
        "ic"
      ],
      [
        "t",
        "ric"
      ],
      [
        "ome",
        "tric"
      ],
      [
        "W",
        "ooden"
      ],
      [
        "b",
        "idden"
      ],
      [
        "c",
        "an"
      ],
      [
        "d",
        "o"
      ],
      [
        "g",
        "ener"
      ],
      [
        "h",
        "am"
      ],
      [
        "i",
        "ld"
      ],
      [
        "t",
        "w"
      ],
      [
        "t",
        "rack"
      ],
      [
        "t",
        "ild"
      ],
      [
        "w",
        "ar"
      ],
      [
        "w",
        "ard"
      ],
      [
        "en",
        "d"
      ],
      [
        "ma",
        "il"
      ],
      [
        "ge",
        "ar"
      ],
      [
        "ba",
        "ll"
      ],
      [
        "for",
        "bidden"
      ],
      [
        "for",
        "ward"
      ],
      [
        "lock",
        "ed"
      ],
      [
        "cle",
        "ar"
      ],
      [
        "pr",
        "int"
      ],
      [
        "back",
        "space"
      ],
      [
        "dot",
        "s"
      ],
      [
        "rs",
        "b"
      ],
      [
        "de",
        "vice"
      ],
      [
        "Gold",
        "en"
      ],
      [
        "hel",
        "p"
      ],
      [
        "inf",
        "o"
      ],
      [
        "shi",
        "ft"
      ],
      [
        "gener",
        "ic"
      ],
      [
        "tw",
        "o"
      ],
      [
        "track",
        "ball"
      ],
      [
        "tild",
        "e"
      ],
      [
        "war",
        "ning"
      ],
      [
        "C",
        "eramic"
      ],
      [
        "b",
        "i"
      ],
      [
        "in",
        "y"
      ],
      [
        "ri",
        "es"
      ],
      [
        "sh",
        "iny"
      ],
      [
        "ste",
        "el"
      ],
      [
        "C",
        "o"
      ],
      [
        "a",
        "k"
      ],
      [
        "f",
        "av"
      ],
      [
        "u",
        "l"
      ],
      [
        "y",
        "lus"
      ],
      [
        "at",
        "ta"
      ],
      [
        "st",
        "ylus"
      ],
      [
        "in",
        "er"
      ],
      [
        "or",
        "ite"
      ],
      [
        "fla",
        "g"
      ],
      [
        "sk",
        "ull"
      ],
      [
        "spe",
        "ak"
      ],
      [
        "con",
        "ta"
      ],
      [
        "es",
        "c"
      ],
      [
        "ca",
        "ps"
      ],
      [
        "ls",
        "b"
      ],
      [
        "com",
        "ma"
      ],
      [
        "fav",
        "orite"
      ],
      [
        "speak",
        "er"
      ],
      [
        "conta",
        "iner"
      ],
      [
        "A",
        "n"
      ],
      [
        "Co",
        "pper"
      ],
      [
        "L",
        "e"
      ],
      [
        "Le",
        "ather"
      ],
      [
        "b",
        "ron"
      ],
      [
        "bron",
        "ze"
      ],
      [
        "B",
        "e"
      ],
      [
        "M",
        "agent"
      ],
      [
        "N",
        "avy"
      ],
      [
        "O",
        "li"
      ],
      [
        "Be",
        "ige"
      ],
      [
        "Magent",
        "a"
      ],
      [
        "Oli",
        "ve"
      ],
      [
        "er",
        "ries"
      ],
      [
        "2",
        "p"
      ],
      [
        "a",
        "c"
      ],
      [
        "a",
        "s"
      ],
      [
        "a",
        "ve"
      ],
      [
        "a",
        "ct"
      ],
      [
        "b",
        "in"
      ],
      [
        "b",
        "ing"
      ],
      [
        "b",
        "rak"
      ],
      [
        "b",
        "ur"
      ],
      [
        "b",
        "erries"
      ],
      [
        "c",
        "l"
      ],
      [
        "c",
        "art"
      ],
      [
        "c",
        "re"
      ],
      [
        "c",
        "al"
      ],
      [
        "c",
        "ent"
      ],
      [
        "c",
        "ust"
      ],
      [
        "c",
        "lock"
      ],
      [
        "c",
        "ur"
      ],
      [
        "d",
        "1"
      ],
      [
        "d",
        "2"
      ],
      [
        "d",
        "n"
      ],
      [
        "d",
        "el"
      ],
      [
        "d",
        "ele"
      ],
      [
        "e",
        "u"
      ],
      [
        "e",
        "ct"
      ],
      [
        "f",
        "5"
      ],
      [
        "f",
        "9"
      ],
      [
        "f",
        "ru"
      ],
      [
        "f",
        "un"
      ],
      [
        "f",
        "ol"
      ],
      [
        "f",
        "icat"
      ],
      [
        "f",
        "ull"
      ],
      [
        "f",
        "ree"
      ],
      [
        "g",
        "la"
      ],
      [
        "g",
        "gle"
      ],
      [
        "g",
        "ing"
      ],
      [
        "g",
        "as"
      ],
      [
        "h",
        "i"
      ],
      [
        "h",
        "al"
      ],
      [
        "h",
        "ou"
      ],
      [
        "h",
        "ide"
      ],
      [
        "i",
        "o"
      ],
      [
        "i",
        "ve"
      ],
      [
        "i",
        "ficat"
      ],
      [
        "k",
        "a"
      ],
      [
        "l",
        "y"
      ],
      [
        "l",
        "ter"
      ],
      [
        "m",
        "i"
      ],
      [
        "m",
        "edal"
      ],
      [
        "n",
        "ot"
      ],
      [
        "n",
        "er"
      ],
      [
        "o",
        "m"
      ],
      [
        "p",
        "1"
      ],
      [
        "p",
        "2"
      ],
      [
        "p",
        "3"
      ],
      [
        "p",
        "4"
      ],
      [
        "p",
        "rot"
      ],
      [
        "p",
        "or"
      ],
      [
        "p",
        "ri"
      ],
      [
        "p",
        "and"
      ],
      [
        "p",
        "ut"
      ],
      [
        "p",
        "hot"
      ],
      [
        "p",
        "ly"
      ],
      [
        "r",
        "en"
      ],
      [
        "r",
        "ink"
      ],
      [
        "r",
        "gla"
      ],
      [
        "s",
        "w"
      ],
      [
        "s",
        "li"
      ],
      [
        "s",
        "or"
      ],
      [
        "s",
        "ave"
      ],
      [
        "t",
        "ra"
      ],
      [
        "t",
        "ing"
      ],
      [
        "t",
        "sc"
      ],
      [
        "t",
        "ime"
      ],
      [
        "u",
        "re"
      ],
      [
        "v",
        "r"
      ],
      [
        "w",
        "he"
      ],
      [
        "x",
        "us"
      ],
      [
        "ed",
        "it"
      ],
      [
        "ot",
        "h"
      ],
      [
        "ar",
        "ging"
      ],
      [
        "li",
        "ke"
      ],
      [
        "el",
        "d"
      ],
      [
        "pp",
        "ing"
      ],
      [
        "er",
        "ing"
      ],
      [
        "ll",
        "ar"
      ],
      [
        "ch",
        "arging"
      ],
      [
        "bo",
        "ot"
      ],
      [
        "st",
        "at"
      ],
      [
        "in",
        "s"
      ],
      [
        "in",
        "ite"
      ],
      [
        "in",
        "ser"
      ],
      [
        "in",
        "ner"
      ],
      [
        "or",
        "d"
      ],
      [
        "or",
        "y"
      ],
      [
        "fi",
        "g"
      ],
      [
        "fi",
        "lter"
      ],
      [
        "ma",
        "cro"
      ],
      [
        "re",
        "su"
      ],
      [
        "ge",
        "up"
      ],
      [
        "to",
        "m"
      ],
      [
        "to",
        "ggle"
      ],
      [
        "to",
        "oth"
      ],
      [
        "ad",
        "d"
      ],
      [
        "ad",
        "set"
      ],
      [
        "bot",
        "tom"
      ],
      [
        "up",
        "load"
      ],
      [
        "ou",
        "d"
      ],
      [
        "sp",
        "inner"
      ],
      [
        "sh",
        "rink"
      ],
      [
        "sk",
        "ele"
      ],
      [
        "ce",
        "ss"
      ],
      [
        "ba",
        "g"
      ],
      [
        "mu",
        "ted"
      ],
      [
        "ne",
        "ct"
      ],
      [
        "ne",
        "xus"
      ],
      [
        "slee",
        "p"
      ],
      [
        "blue",
        "tooth"
      ],
      [
        "se",
        "mic"
      ],
      [
        "di",
        "o"
      ],
      [
        "di",
        "p"
      ],
      [
        "di",
        "sk"
      ],
      [
        "di",
        "vide"
      ],
      [
        "down",
        "load"
      ],
      [
        "mo",
        "de"
      ],
      [
        "num",
        "lock"
      ],
      [
        "spe",
        "ed"
      ],
      [
        "con",
        "fig"
      ],
      [
        "con",
        "nect"
      ],
      [
        "va",
        "s"
      ],
      [
        "ta",
        "b"
      ],
      [
        "ct",
        "ion"
      ],
      [
        "per",
        "cent"
      ],
      [
        "per",
        "io"
      ],
      [
        "pr",
        "tsc"
      ],
      [
        "back",
        "slash"
      ],
      [
        "au",
        "to"
      ],
      [
        "au",
        "dio"
      ],
      [
        "ol",
        "on"
      ],
      [
        "alt",
        "h"
      ],
      [
        "ph",
        "y"
      ],
      [
        "scroll",
        "lock"
      ],
      [
        "he",
        "adset"
      ],
      [
        "he",
        "alth"
      ],
      [
        "tro",
        "phy"
      ],
      [
        "set",
        "up"
      ],
      [
        "set",
        "ting"
      ],
      [
        "de",
        "ath"
      ],
      [
        "ex",
        "it"
      ],
      [
        "ex",
        "pand"
      ],
      [
        "finger",
        "print"
      ],
      [
        "pre",
        "v"
      ],
      [
        "rl",
        "k"
      ],
      [
        "sc",
        "an"
      ],
      [
        "sc",
        "rlk"
      ],
      [
        "mat",
        "o"
      ],
      [
        "th",
        "ree"
      ],
      [
        "wa",
        "ke"
      ],
      [
        "equal",
        "s"
      ],
      [
        "multi",
        "ply"
      ],
      [
        "app",
        "1"
      ],
      [
        "app",
        "2"
      ],
      [
        "hel",
        "d"
      ],
      [
        "inf",
        "inite"
      ],
      [
        "shi",
        "eld"
      ],
      [
        "ste",
        "ering"
      ],
      [
        "sho",
        "ot"
      ],
      [
        "sho",
        "pping"
      ],
      [
        "com",
        "put"
      ],
      [
        "hand",
        "held"
      ],
      [
        "pg",
        "up"
      ],
      [
        "pg",
        "dn"
      ],
      [
        "su",
        "b"
      ],
      [
        "vide",
        "o"
      ],
      [
        "grab",
        "bing"
      ],
      [
        "tur",
        "n"
      ],
      [
        "tur",
        "bo"
      ],
      [
        "thumb",
        "stick"
      ],
      [
        "pa",
        "geup"
      ],
      [
        "can",
        "vas"
      ],
      [
        "do",
        "llar"
      ],
      [
        "ham",
        "bur"
      ],
      [
        "bi",
        "ometric"
      ],
      [
        "atta",
        "ck"
      ],
      [
        "ac",
        "cess"
      ],
      [
        "act",
        "ive"
      ],
      [
        "brak",
        "e"
      ],
      [
        "cl",
        "oud"
      ],
      [
        "cre",
        "ate"
      ],
      [
        "cal",
        "c"
      ],
      [
        "cust",
        "om"
      ],
      [
        "cur",
        "ren"
      ],
      [
        "dele",
        "te"
      ],
      [
        "eu",
        "ro"
      ],
      [
        "fru",
        "it"
      ],
      [
        "fun",
        "ction"
      ],
      [
        "fol",
        "der"
      ],
      [
        "free",
        "ze"
      ],
      [
        "hi",
        "gh"
      ],
      [
        "hal",
        "f"
      ],
      [
        "hou",
        "rgla"
      ],
      [
        "ificat",
        "ion"
      ],
      [
        "not",
        "ification"
      ],
      [
        "prot",
        "ect"
      ],
      [
        "por",
        "tal"
      ],
      [
        "pri",
        "ka"
      ],
      [
        "phot",
        "o"
      ],
      [
        "sw",
        "ord"
      ],
      [
        "sli",
        "der"
      ],
      [
        "sor",
        "t"
      ],
      [
        "tra",
        "sh"
      ],
      [
        "whe",
        "el"
      ],
      [
        "inser",
        "t"
      ],
      [
        "resu",
        "lt"
      ],
      [
        "skele",
        "tal"
      ],
      [
        "semic",
        "olon"
      ],
      [
        "connect",
        "or"
      ],
      [
        "perio",
        "d"
      ],
      [
        "setting",
        "s"
      ],
      [
        "comput",
        "er"
      ],
      [
        "hambur",
        "ger"
      ],
      [
        "access",
        "ory"
      ],
      [
        "curren",
        "cy"
      ],
      [
        "hourgla",
        "ss"
      ],
      [
        "C",
        "y"
      ],
      [
        "M",
        "e"
      ],
      [
        "app",
        "le"
      ],
      [
        "Cy",
        "an"
      ],
      [
        "I",
        "ron"
      ],
      [
        "L",
        "i"
      ],
      [
        "M",
        "o"
      ],
      [
        "g",
        "ri"
      ],
      [
        "ge",
        "ometric"
      ],
      [
        "to",
        "mato"
      ],
      [
        "pa",
        "prika"
      ],
      [
        "Me",
        "tal"
      ],
      [
        "Li",
        "ght"
      ],
      [
        "Mo",
        "dern"
      ],
      [
        "B",
        "amboo"
      ],
      [
        "N",
        "ormal"
      ],
      [
        "1",
        "p"
      ],
      [
        "a",
        "i"
      ],
      [
        "a",
        "st"
      ],
      [
        "a",
        "ma"
      ],
      [
        "a",
        "ge"
      ],
      [
        "a",
        "ler"
      ],
      [
        "c",
        "el"
      ],
      [
        "c",
        "ra"
      ],
      [
        "c",
        "red"
      ],
      [
        "d",
        "ama"
      ],
      [
        "e",
        "b"
      ],
      [
        "e",
        "p"
      ],
      [
        "f",
        "4"
      ],
      [
        "f",
        "6"
      ],
      [
        "f",
        "7"
      ],
      [
        "f",
        "8"
      ],
      [
        "g",
        "i"
      ],
      [
        "g",
        "n"
      ],
      [
        "g",
        "un"
      ],
      [
        "i",
        "al"
      ],
      [
        "i",
        "sk"
      ],
      [
        "m",
        "er"
      ],
      [
        "m",
        "id"
      ],
      [
        "p",
        "al"
      ],
      [
        "p",
        "ag"
      ],
      [
        "r",
        "ench"
      ],
      [
        "t",
        "arge"
      ],
      [
        "w",
        "eb"
      ],
      [
        "w",
        "rench"
      ],
      [
        "ed",
        "own"
      ],
      [
        "ar",
        "ch"
      ],
      [
        "er",
        "isk"
      ],
      [
        "ch",
        "at"
      ],
      [
        "fi",
        "re"
      ],
      [
        "ma",
        "in"
      ],
      [
        "to",
        "ol"
      ],
      [
        "sh",
        "ow"
      ],
      [
        "ss",
        "age"
      ],
      [
        "me",
        "ssage"
      ],
      [
        "ent",
        "ial"
      ],
      [
        "se",
        "mi"
      ],
      [
        "se",
        "arch"
      ],
      [
        "si",
        "ble"
      ],
      [
        "si",
        "gn"
      ],
      [
        "sha",
        "ke"
      ],
      [
        "ta",
        "ll"
      ],
      [
        "rew",
        "ard"
      ],
      [
        "light",
        "gun"
      ],
      [
        "vi",
        "sible"
      ],
      [
        "un",
        "lock"
      ],
      [
        "un",
        "locked"
      ],
      [
        "de",
        "ep"
      ],
      [
        "sc",
        "reen"
      ],
      [
        "op",
        "en"
      ],
      [
        "press",
        "ure"
      ],
      [
        "f1",
        "0"
      ],
      [
        "f1",
        "1"
      ],
      [
        "can",
        "cel"
      ],
      [
        "do",
        "gear"
      ],
      [
        "ham",
        "mer"
      ],
      [
        "print",
        "screen"
      ],
      [
        "gri",
        "p"
      ],
      [
        "ai",
        "m"
      ],
      [
        "ast",
        "erisk"
      ],
      [
        "aler",
        "t"
      ],
      [
        "cra",
        "ft"
      ],
      [
        "cred",
        "ential"
      ],
      [
        "dama",
        "ge"
      ],
      [
        "gi",
        "ft"
      ],
      [
        "mid",
        "dle"
      ],
      [
        "pal",
        "m"
      ],
      [
        "pag",
        "edown"
      ],
      [
        "targe",
        "t"
      ],
      [
        "i",
        "ma"
      ],
      [
        "li",
        "st"
      ],
      [
        "min",
        "ima"
      ],
      [
        "minima",
        "list"
      ],
      [
        "l",
        "or"
      ],
      [
        "co",
        "lor"
      ],
      [
        "M",
        "ic"
      ],
      [
        "a",
        "ch"
      ],
      [
        "b",
        "ba"
      ],
      [
        "e",
        "apple"
      ],
      [
        "f",
        "low"
      ],
      [
        "g",
        "g"
      ],
      [
        "i",
        "wi"
      ],
      [
        "k",
        "in"
      ],
      [
        "m",
        "el"
      ],
      [
        "n",
        "t"
      ],
      [
        "o",
        "cad"
      ],
      [
        "o",
        "es"
      ],
      [
        "p",
        "kin"
      ],
      [
        "r",
        "y"
      ],
      [
        "ar",
        "li"
      ],
      [
        "ar",
        "rot"
      ],
      [
        "li",
        "flow"
      ],
      [
        "at",
        "oes"
      ],
      [
        "ch",
        "un"
      ],
      [
        "an",
        "ana"
      ],
      [
        "um",
        "pkin"
      ],
      [
        "raw",
        "berries"
      ],
      [
        "con",
        "ut"
      ],
      [
        "au",
        "liflow"
      ],
      [
        "pla",
        "nt"
      ],
      [
        "bi",
        "g"
      ],
      [
        "bba",
        "ge"
      ],
      [
        "gg",
        "plant"
      ],
      [
        "mel",
        "on"
      ],
      [
        "ocad",
        "o"
      ],
      [
        "arli",
        "c"
      ],
      [
        "chun",
        "k"
      ],
      [
        "auliflow",
        "er"
      ],
      [
        "b",
        "anana"
      ],
      [
        "c",
        "arrot"
      ],
      [
        "c",
        "auliflower"
      ],
      [
        "e",
        "ggplant"
      ],
      [
        "g",
        "inger"
      ],
      [
        "g",
        "arlic"
      ],
      [
        "k",
        "iwi"
      ],
      [
        "m",
        "on"
      ],
      [
        "p",
        "umpkin"
      ],
      [
        "le",
        "mon"
      ],
      [
        "on",
        "ion"
      ],
      [
        "st",
        "rawberries"
      ],
      [
        "pot",
        "atoes"
      ],
      [
        "gra",
        "pes"
      ],
      [
        "pe",
        "ar"
      ],
      [
        "pe",
        "ach"
      ],
      [
        "me",
        "at"
      ],
      [
        "blue",
        "berries"
      ],
      [
        "co",
        "conut"
      ],
      [
        "cher",
        "ries"
      ],
      [
        "cher",
        "ry"
      ],
      [
        "av",
        "ocado"
      ],
      [
        "water",
        "melon"
      ],
      [
        "ca",
        "bbage"
      ],
      [
        "drag",
        "on"
      ],
      [
        "pin",
        "eapple"
      ],
      [
        "c",
        "lo"
      ],
      [
        "d",
        "ome"
      ],
      [
        "f",
        "2"
      ],
      [
        "f",
        "3"
      ],
      [
        "f",
        "in"
      ],
      [
        "h",
        "idden"
      ],
      [
        "i",
        "sh"
      ],
      [
        "m",
        "it"
      ],
      [
        "m",
        "ent"
      ],
      [
        "fli",
        "ck"
      ],
      [
        "ch",
        "ment"
      ],
      [
        "st",
        "ure"
      ],
      [
        "ge",
        "sture"
      ],
      [
        "ra",
        "il"
      ],
      [
        "ho",
        "ver"
      ],
      [
        "light",
        "ning"
      ],
      [
        "ser",
        "vice"
      ],
      [
        "pre",
        "mi"
      ],
      [
        "sho",
        "ck"
      ],
      [
        "f1",
        "2"
      ],
      [
        "atta",
        "chment"
      ],
      [
        "sub",
        "mit"
      ],
      [
        "clo",
        "se"
      ],
      [
        "fin",
        "ish"
      ],
      [
        "premi",
        "um"
      ],
      [
        "p",
        "atter"
      ],
      [
        "patter",
        "n"
      ],
      [
        "H",
        "o"
      ],
      [
        "Ho",
        "llow"
      ],
      [
        "C",
        "h"
      ],
      [
        "C",
        "ro"
      ],
      [
        "C",
        "he"
      ],
      [
        "D",
        "i"
      ],
      [
        "P",
        "a"
      ],
      [
        "P",
        "e"
      ],
      [
        "T",
        "o"
      ],
      [
        "T",
        "ri"
      ],
      [
        "ck",
        "erboard"
      ],
      [
        "gri",
        "d"
      ],
      [
        "Cro",
        "ss"
      ],
      [
        "Che",
        "ckerboard"
      ],
      [
        "Di",
        "amond"
      ],
      [
        "Pa",
        "prika"
      ],
      [
        "To",
        "mato"
      ],
      [
        "Tri",
        "angle"
      ],
      [
        "H",
        "orizontal"
      ],
      [
        "M",
        "ag"
      ],
      [
        "ic",
        "al"
      ],
      [
        "Mag",
        "ical"
      ],
      [
        "A",
        "v"
      ],
      [
        "A",
        "pp"
      ],
      [
        "B",
        "anana"
      ],
      [
        "C",
        "a"
      ],
      [
        "C",
        "la"
      ],
      [
        "C",
        "orn"
      ],
      [
        "C",
        "arrot"
      ],
      [
        "C",
        "auliflower"
      ],
      [
        "D",
        "rag"
      ],
      [
        "E",
        "ggplant"
      ],
      [
        "G",
        "inger"
      ],
      [
        "G",
        "arlic"
      ],
      [
        "K",
        "iwi"
      ],
      [
        "L",
        "em"
      ],
      [
        "O",
        "n"
      ],
      [
        "P",
        "ot"
      ],
      [
        "P",
        "in"
      ],
      [
        "P",
        "umpkin"
      ],
      [
        "S",
        "t"
      ],
      [
        "W",
        "ater"
      ],
      [
        "er",
        "ry"
      ],
      [
        "Blue",
        "berries"
      ],
      [
        "Gra",
        "pes"
      ],
      [
        "Te",
        "st"
      ],
      [
        "Co",
        "conut"
      ],
      [
        "Me",
        "at"
      ],
      [
        "Ch",
        "erries"
      ],
      [
        "Ch",
        "erry"
      ],
      [
        "Pe",
        "ar"
      ],
      [
        "Pe",
        "ach"
      ],
      [
        "Av",
        "ocado"
      ],
      [
        "App",
        "le"
      ],
      [
        "Ca",
        "bbage"
      ],
      [
        "Cla",
        "ssic"
      ],
      [
        "Drag",
        "on"
      ],
      [
        "Lem",
        "on"
      ],
      [
        "On",
        "ion"
      ],
      [
        "Pot",
        "atoes"
      ],
      [
        "Pin",
        "eapple"
      ],
      [
        "St",
        "rawberries"
      ],
      [
        "Water",
        "melon"
      ],
      [
        "B",
        "or"
      ],
      [
        "S",
        "quare"
      ],
      [
        "Bor",
        "der"
      ]
    ]
  }
}