{
  "version": "1.0",
  "truncation": null,
  "padding": null,
  "added_tokens": [
    {
      "id": 0,
      "content": "<PAD>",
      "single_word": false,
      "lstrip": false,
      "rstrip": false,
      "normalized": false,
      "special": true
    },
    {
      "id": 1,
      "content": "<SOS>",
      "single_word": false,
      "lstrip": false,
      "rstrip": false,
      "normalized": false,
      "special": true
    },
    {
      "id": 2,
      "content": "<EOS>",
      "single_word": false,
      "lstrip": false,
      "rstrip": false,
      "normalized": false,
      "special": true
    },
    {
      "id": 3,
      "content": "<UNK>",
      "single_word": false,
      "lstrip": false,
      "rstrip": false,
      "normalized": false,
      "special": true
    }
  ],
  "normalizer": null,
  "pre_tokenizer": {
    "type": "Whitespace"
  },
  "post_processor": null,
  "decoder": null,
  "model": {
    "type": "BPE",
    "dropout": null,
    "unk_token": "<UNK>",
    "continuing_subword_prefix": null,
    "end_of_word_suffix": null,
    "fuse_unk": false,
    "byte_fallback": false,
    "ignore_merges": false,
    "vocab": {
      "<PAD>": 0,
      "<SOS>": 1,
      "<EOS>": 2,
      "<UNK>": 3,
      "0": 4,
      "1": 5,
      "2": 6,
      "3": 7,
      "4": 8,
      "5": 9,
      "6": 10,
      "7": 11,
      "8": 12,
      "9": 13,
      "A": 14,
      "B": 15,
      "C": 16,
      "D": 17,
      "E": 18,
      "G": 19,
      "H": 20,
      "J": 21,
      "K": 22,
      "L": 23,
      "M": 24,
      "N": 25,
      "O": 26,
      "P": 27,
      "R": 28,
      "S": 29,
      "T": 30,
      "U": 31,
      "V": 32,
      "W": 33,
      "X": 34,
      "Y": 35,
      "Z": 36,
      "[": 37,
      "]": 38,
      "a": 39,
      "b": 40,
      "c": 41,
      "d": 42,
      "e": 43,
      "f": 44,
      "g": 45,
      "h": 46,
      "i": 47,
      "k": 48,
      "l": 49,
      "m": 50,
      "n": 51,
      "o": 52,
      "p": 53,
      "q": 54,
      "r": 55,
      "s": 56,
      "t": 57,
      "u": 58,
      "v": 59,
      "w": 60,
      "x": 61,
      "y": 62,
      "z": 63,
      "1X": 64,
      "Re": 65,
      "6W": 66,
      "3W": 67,
      "16W": 68,
      "1W": 69,
      "2W": 70,
      "Re2": 71,
      "7W": 72,
      "4W": 73,
      "5W": 74,
      "re": 75,
      "8W": 76,
      "16": 77,
      "ri": 78,
      "le": 79,
      "er": 80,
      "Re3": 81,
      "ol": 82,
      "te": 83,
      "10": 84,
      "in": 85,
      "an": 86,
      "ple": 87,
      "tri": 88,
      "Re6": 89,
      "ow": 90,
      "11": 91,
      "12": 92,
      "ra": 93,
      "ate": 94,
      "ou": 95,
      "or": 96,
      "ge": 97,
      "low": 98,
      "me": 99,
      "ar": 100,
      "der": 101,
      "are": 102,
      "gle": 103,
      "on": 104,
      "qu": 105,
      "ollow": 106,
      "angle": 107,
      "quare": 108,
      "square": 109,
      "triangle": 110,
      "hollow": 111,
      "ro": 112,
      "13": 113,
      "1K": 114,
      "el": 115,
      "int": 116,
      "1A": 117,
      "1B": 118,
      "1D": 119,
      "1E": 120,
      "1G": 121,
      "1H": 122,
      "1J": 123,
      "1L": 124,
      "1M": 125,
      "1N": 126,
      "1O": 127,
      "1P": 128,
      "1R": 129,
      "1S": 130,
      "1U": 131,
      "1V": 132,
      "1Y": 133,
      "1Z": 134,
      "as": 135,
      "you": 136,
      "pleas": 137,
      "please": 138,
      "red": 139,
      "gen": 140,
      "col": 141,
      "ke": 142,
      "ma": 143,
      "si": 144,
      "ck": 145,
      "ta": 146,
      "be": 147,
      "aint": 148,
      "gri": 149,
      "ix": 150,
      "nder": 151,
      "ored": 152,
      "pix": 153,
      "reate": 154,
      "erate": 155,
      "raw": 156,
      "art": 157,
      "colored": 158,
      "grid": 159,
      "pixel": 160,
      "bl": 161,
      "ch": 162,
      "create": 163,
      "draw": 164,
      "paint": 165,
      "render": 166,
      "generate": 167,
      "make": 168,
      "mple": 169,
      "simple": 170,
      "am": 171,
      "bo": 172,
      "es": 173,
      "eck": 174,
      "fra": 175,
      "iam": 176,
      "ori": 177,
      "pes": 178,
      "ss": 179,
      "stri": 180,
      "zon": 181,
      "erbo": 182,
      "order": 183,
      "ard": 184,
      "ond": 185,
      "ross": 186,
      "tal": 187,
      "eckerbo": 188,
      "frame": 189,
      "iamond": 190,
      "orizon": 191,
      "stripes": 192,
      "eckerboard": 193,
      "orizontal": 194,
      "border": 195,
      "cross": 196,
      "diamond": 197,
      "horizontal": 198,
      "checkerboard": 199,
      "Re10": 200,
      "15": 201,
      "13W": 202,
      "11W": 203,
      "12W": 204,
      "14W": 205,
      "9W": 206,
      "Re4": 207,
      "Re5": 208,
      "Re8": 209,
      "Re12": 210,
      "au": 211,
      "fu": 212,
      "ifu": 213,
      "tro": 214,
      "tifu": 215,
      "x16": 216,
      "retro": 217,
      "16x16": 218,
      "beau": 219,
      "tiful": 220,
      "beautiful": 221,
      "ue": 222,
      "can": 223,
      "cou": 224,
      "for": 225,
      "ld": 226,
      "sy": 227,
      "ste": 228,
      "could": 229,
      "syste": 230,
      "system": 231,
      "blue": 232,
      "en": 233,
      "av": 234,
      "ack": 235,
      "hi": 236,
      "iv": 237,
      "ige": 238,
      "ime": 239,
      "ky": 240,
      "lv": 241,
      "rple": 242,
      "row": 243,
      "urple": 244,
      "reen": 245,
      "old": 246,
      "ink": 247,
      "ange": 248,
      "ray": 249,
      "ellow": 250,
      "genta": 251,
      "avy": 252,
      "hite": 253,
      "ive": 254,
      "lver": 255,
      "rown": 256,
      "brown": 257,
      "green": 258,
      "gold": 259,
      "gray": 260,
      "lime": 261,
      "mint": 262,
      "navy": 263,
      "purple": 264,
      "pink": 265,
      "sky": 266,
      "white": 267,
      "yellow": 268,
      "olive": 269,
      "orange": 270,
      "magenta": 271,
      "silver": 272,
      "beige": 273,
      "black": 274,
      "Re16": 275,
      "it": 276,
      "ske": 277,
      "tch": 278,
      "wit": 279,
      "color": 280,
      "sketch": 281,
      "with": 282,
      "16K": 283,
      "16A": 284,
      "16B": 285,
      "16D": 286,
      "16E": 287,
      "16G": 288,
      "16H": 289,
      "16J": 290,
      "16L": 291,
      "16M": 292,
      "16N": 293,
      "16O": 294,
      "16P": 295,
      "16R": 296,
      "16S": 297,
      "16U": 298,
      "16V": 299,
      "16Y": 300,
      "16Z": 301,
      "Ma": 302,
      "10K": 303,
      "3K": 304,
      "5K": 305,
      "7K": 306,
      "9K": 307,
      "11K": 308,
      "10A": 309,
      "10B": 310,
      "10D": 311,
      "10E": 312,
      "10G": 313,
      "10H": 314,
      "10J": 315,
      "10L": 316,
      "10M": 317,
      "10N": 318,
      "10O": 319,
      "10P": 320,
      "10R": 321,
      "10S": 322,
      "10U": 323,
      "10V": 324,
      "10Y": 325,
      "10Z": 326,
      "3A": 327,
      "3B": 328,
      "3D": 329,
      "3E": 330,
      "3G": 331,
      "3H": 332,
      "3J": 333,
      "3L": 334,
      "3M": 335,
      "3N": 336,
      "3O": 337,
      "3P": 338,
      "3R": 339,
      "3S": 340,
      "3U": 341,
      "3V": 342,
      "3Y": 343,
      "3Z": 344,
      "5A": 345,
      "5B": 346,
      "5D": 347,
      "5E": 348,
      "5G": 349,
      "5H": 350,
      "5J": 351,
      "5L": 352,
      "5M": 353,
      "5N": 354,
      "5O": 355,
      "5P": 356,
      "5R": 357,
      "5S": 358,
      "5U": 359,
      "5V": 360,
      "5Y": 361,
      "5Z": 362,
      "7A": 363,
      "7B": 364,
      "7D": 365,
      "7E": 366,
      "7G": 367,
      "7H": 368,
      "7J": 369,
      "7L": 370,
      "7M": 371,
      "7N": 372,
      "7O": 373,
      "7P": 374,
      "7R": 375,
      "7S": 376,
      "7U": 377,
      "7V": 378,
      "7Y": 379,
      "7Z": 380,
      "9A": 381,
      "9B": 382,
      "9D": 383,
      "9E": 384,
      "9G": 385,
      "9H": 386,
      "9J": 387,
      "9L": 388,
      "9M": 389,
      "9N": 390,
      "9O": 391,
      "9P": 392,
      "9R": 393,
      "9S": 394,
      "9U": 395,
      "9V": 396,
      "9Y": 397,
      "9Z": 398,
      "Create": 399,
      "Draw": 400,
      "Gen": 401,
      "Paint": 402,
      "Render": 403,
      "11A": 404,
      "11B": 405,
      "11D": 406,
      "11E": 407,
      "11G": 408,
      "11H": 409,
      "11J": 410,
      "11L": 411,
      "11M": 412,
      "11N": 413,
      "11O": 414,
      "11P": 415,
      "11R": 416,
      "11S": 417,
      "11U": 418,
      "11V": 419,
      "11Y": 420,
      "11Z": 421,
      "Make": 422,
      "Generate": 423,
      "2K": 424,
      "12K": 425,
      "13K": 426,
      "2A": 427,
      "2B": 428,
      "2D": 429,
      "2E": 430,
      "2G": 431,
      "2H": 432,
      "2J": 433,
      "2L": 434,
      "2M": 435,
      "2N": 436,
      "2O": 437,
      "2P": 438,
      "2R": 439,
      "2S": 440,
      "2U": 441,
      "2V": 442,
      "2Y": 443,
      "2Z": 444,
      "12A": 445,
      "12B": 446,
      "12D": 447,
      "12E": 448,
      "12G": 449,
      "12H": 450,
      "12J": 451,
      "12L": 452,
      "12M": 453,
      "12N": 454,
      "12O": 455,
      "12P": 456,
      "12R": 457,
      "12S": 458,
      "12U": 459,
      "12V": 460,
      "12Y": 461,
      "12Z": 462,
      "13A": 463,
      "13B": 464,
      "13D": 465,
      "13E": 466,
      "13G": 467,
      "13H": 468,
      "13J": 469,
      "13L": 470,
      "13M": 471,
      "13N": 472,
      "13O": 473,
      "13P": 474,
      "13R": 475,
      "13S": 476,
      "13U": 477,
      "13V": 478,
      "13Y": 479,
      "13Z": 480,
      "15K": 481,
      "15A": 482,
      "15B": 483,
      "15D": 484,
      "15E": 485,
      "15G": 486,
      "15H": 487,
      "15J": 488,
      "15L": 489,
      "15M": 490,
      "15N": 491,
      "15O": 492,
      "15P": 493,
      "15R": 494,
      "15S": 495,
      "15U": 496,
      "15V": 497,
      "15Y": 498,
      "15Z": 499,
      "Hollow": 500,
      "Border": 501,
      "Ch": 502,
      "Cross": 503,
      "Diamond": 504,
      "Horizontal": 505,
      "Square": 506,
      "Tri": 507,
      "Checkerboard": 508,
      "Triangle": 509,
      "Bl": 510,
      "Be": 511,
      "Brown": 512,
      "Green": 513,
      "Gold": 514,
      "Gray": 515,
      "Lime": 516,
      "Mint": 517,
      "Navy": 518,
      "Ol": 519,
      "Or": 520,
      "Purple": 521,
      "Pink": 522,
      "Si": 523,
      "Sky": 524,
      "White": 525,
      "Yellow": 526,
      "Red": 527,
      "Magenta": 528,
      "Blue": 529,
      "Black": 530,
      "Beige": 531,
      "Olive": 532,
      "Orange": 533,
      "Silver": 534
    },
    "merges": [
      [
        "1",
        "X"
      ],
      [
        "R",
        "e"
      ],
      [
        "6",
        "W"
      ],
      [
        "3",
        "W"
      ],
      [
        "1",
        "6W"
      ],
      [
        "1",
        "W"
      ],
      [
        "2",
        "W"
      ],
      [
        "Re",
        "2"
      ],
      [
        "7",
        "W"
      ],
      [
        "4",
        "W"
      ],
      [
        "5",
        "W"
      ],
      [
        "r",
        "e"
      ],
      [
        "8",
        "W"
      ],
      [
        "1",
        "6"
      ],
      [
        "r",
        "i"
      ],
      [
        "l",
        "e"
      ],
      [
        "e",
        "r"
      ],
      [
        "Re",
        "3"
      ],
      [
        "o",
        "l"
      ],
      [
        "t",
        "e"
      ],
      [
        "1",
        "0"
      ],
      [
        "i",
        "n"
      ],
      [
        "a",
        "n"
      ],
      [
        "p",
        "le"
      ],
      [
        "t",
        "ri"
      ],
      [
        "Re",
        "6"
      ],
      [
        "o",
        "w"
      ],
      [
        "1",
        "1"
      ],
      [
        "1",
        "2"
      ],
      [
        "r",
        "a"
      ],
      [
        "a",
        "te"
      ],
      [
        "o",
        "u"
      ],
      [
        "o",
        "r"
      ],
      [
        "g",
        "e"
      ],
      [
        "l",
        "ow"
      ],
      [
        "m",
        "e"
      ],
      [
        "a",
        "r"
      ],
      [
        "d",
        "er"
      ],
      [
        "a",
        "re"
      ],
      [
        "g",
        "le"
      ],
      [
        "o",
        "n"
      ],
      [
        "q",
        "u"
      ],
      [
        "ol",
        "low"
      ],
      [
        "an",
        "gle"
      ],
      [
        "qu",
        "are"
      ],
      [
        "s",
        "quare"
      ],
      [
        "tri",
        "angle"
      ],
      [
        "h",
        "ollow"
      ],
      [
        "r",
        "o"
      ],
      [
        "1",
        "3"
      ],
      [
        "1",
        "K"
      ],
      [
        "e",
        "l"
      ],
      [
        "in",
        "t"
      ],
      [
        "1",
        "A"
      ],
      [
        "1",
        "B"
      ],
      [
        "1",
        "D"
      ],
      [
        "1",
        "E"
      ],
      [
        "1",
        "G"
      ],
      [
        "1",
        "H"
      ],
      [
        "1",
        "J"
      ],
      [
        "1",
        "L"
      ],
      [
        "1",
        "M"
      ],
      [
        "1",
        "N"
      ],
      [
        "1",
        "O"
      ],
      [
        "1",
        "P"
      ],
      [
        "1",
        "R"
      ],
      [
        "1",
        "S"
      ],
      [
        "1",
        "U"
      ],
      [
        "1",
        "V"
      ],
      [
        "1",
        "Y"
      ],
      [
        "1",
        "Z"
      ],
      [
        "a",
        "s"
      ],
      [
        "y",
        "ou"
      ],
      [
        "ple",
        "as"
      ],
      [
        "pleas",
        "e"
      ],
      [
        "re",
        "d"
      ],
      [
        "ge",
        "n"
      ],
      [
        "c",
        "ol"
      ],
      [
        "k",
        "e"
      ],
      [
        "m",
        "a"
      ],
      [
        "s",
        "i"
      ],
      [
        "c",
        "k"
      ],
      [
        "t",
        "a"
      ],
      [
        "b",
        "e"
      ],
      [
        "a",
        "int"
      ],
      [
        "g",
        "ri"
      ],
      [
        "i",
        "x"
      ],
      [
        "n",
        "der"
      ],
      [
        "o",
        "red"
      ],
      [
        "p",
        "ix"
      ],
      [
        "re",
        "ate"
      ],
      [
        "er",
        "ate"
      ],
      [
        "ra",
        "w"
      ],
      [
        "ar",
        "t"
      ],
      [
        "col",
        "ored"
      ],
      [
        "gri",
        "d"
      ],
      [
        "pix",
        "el"
      ],
      [
        "b",
        "l"
      ],
      [
        "c",
        "h"
      ],
      [
        "c",
        "reate"
      ],
      [
        "d",
        "raw"
      ],
      [
        "p",
        "aint"
      ],
      [
        "re",
        "nder"
      ],
      [
        "gen",
        "erate"
      ],
      [
        "ma",
        "ke"
      ],
      [
        "m",
        "ple"
      ],
      [
        "si",
        "mple"
      ],
      [
        "a",
        "m"
      ],
      [
        "b",
        "o"
      ],
      [
        "e",
        "s"
      ],
      [
        "e",
        "ck"
      ],
      [
        "f",
        "ra"
      ],
      [
        "i",
        "am"
      ],
      [
        "o",
        "ri"
      ],
      [
        "p",
        "es"
      ],
      [
        "s",
        "s"
      ],
      [
        "s",
        "tri"
      ],
      [
        "z",
        "on"
      ],
      [
        "er",
        "bo"
      ],
      [
        "or",
        "der"
      ],
      [
        "ar",
        "d"
      ],
      [
        "on",
        "d"
      ],
      [
        "ro",
        "ss"
      ],
      [
        "ta",
        "l"
      ],
      [
        "eck",
        "erbo"
      ],
      [
        "fra",
        "me"
      ],
      [
        "iam",
        "ond"
      ],
      [
        "ori",
        "zon"
      ],
      [
        "stri",
        "pes"
      ],
      [
        "eckerbo",
        "ard"
      ],
      [
        "orizon",
        "tal"
      ],
      [
        "b",
        "order"
      ],
      [
        "c",
        "ross"
      ],
      [
        "d",
        "iamond"
      ],
      [
        "h",
        "orizontal"
      ],
      [
        "ch",
        "eckerboard"
      ],
      [
        "Re",
        "10"
      ],
      [
        "1",
        "5"
      ],
      [
        "1",
        "3W"
      ],
      [
        "1",
        "1W"
      ],
      [
        "1",
        "2W"
      ],
      [
        "1",
        "4W"
      ],
      [
        "9",
        "W"
      ],
      [
        "Re",
        "4"
      ],
      [
        "Re",
        "5"
      ],
      [
        "Re",
        "8"
      ],
      [
        "Re",
        "12"
      ],
      [
        "a",
        "u"
      ],
      [
        "f",
        "u"
      ],
      [
        "i",
        "fu"
      ],
      [
        "t",
        "ro"
      ],
      [
        "t",
        "ifu"
      ],
      [
        "x",
        "16"
      ],
      [
        "re",
        "tro"
      ],
      [
        "16",
        "x16"
      ],
      [
        "be",
        "au"
      ],
      [
        "tifu",
        "l"
      ],
      [
        "beau",
        "tiful"
      ],
      [
        "u",
        "e"
      ],
      [
        "c",
        "an"
      ],
      [
        "c",
        "ou"
      ],
      [
        "f",
        "or"
      ],
      [
        "l",
        "d"
      ],
      [
        "s",
        "y"
      ],
      [
        "s",
        "te"
      ],
      [
        "cou",
        "ld"
      ],
      [
        "sy",
        "ste"
      ],
      [
        "syste",
        "m"
      ],
      [
        "bl",
        "ue"
      ],
      [
        "e",
        "n"
      ],
      [
        "a",
        "v"
      ],
      [
        "a",
        "ck"
      ],
      [
        "h",
        "i"
      ],
      [
        "i",
        "v"
      ],
      [
        "i",
        "ge"
      ],
      [
        "i",
        "me"
      ],
      [
        "k",
        "y"
      ],
      [
        "l",
        "v"
      ],
      [
        "r",
        "ple"
      ],
      [
        "r",
        "ow"
      ],
      [
        "u",
        "rple"
      ],
      [
        "re",
        "en"
      ],
      [
        "ol",
        "d"
      ],
      [
        "in",
        "k"
      ],
      [
        "an",
        "ge"
      ],
      [
        "ra",
        "y"
      ],
      [
        "el",
        "low"
      ],
      [
        "gen",
        "ta"
      ],
      [
        "av",
        "y"
      ],
      [
        "hi",
        "te"
      ],
      [
        "iv",
        "e"
      ],
      [
        "lv",
        "er"
      ],
      [
        "row",
        "n"
      ],
      [
        "b",
        "rown"
      ],
      [
        "g",
        "reen"
      ],
      [
        "g",
        "old"
      ],
      [
        "g",
        "ray"
      ],
      [
        "l",
        "ime"
      ],
      [
        "m",
        "int"
      ],
      [
        "n",
        "avy"
      ],
      [
        "p",
        "urple"
      ],
      [
        "p",
        "ink"
      ],
      [
        "s",
        "ky"
      ],
      [
        "w",
        "hite"
      ],
      [
        "y",
        "ellow"
      ],
      [
        "ol",
        "ive"
      ],
      [
        "or",
        "ange"
      ],
      [
        "ma",
        "genta"
      ],
      [
        "si",
        "lver"
      ],
      [
        "be",
        "ige"
      ],
      [
        "bl",
        "ack"
      ],
      [
        "Re",
        "16"
      ],
      [
        "i",
        "t"
      ],
      [
        "s",
        "ke"
      ],
      [
        "t",
        "ch"
      ],
      [
        "w",
        "it"
      ],
      [
        "col",
        "or"
      ],
      [
        "ske",
        "tch"
      ],
      [
        "wit",
        "h"
      ],
      [
        "16",
        "K"
      ],
      [
        "16",
        "A"
      ],
      [
        "16",
        "B"
      ],
      [
        "16",
        "D"
      ],
      [
        "16",
        "E"
      ],
      [
        "16",
        "G"
      ],
      [
        "16",
        "H"
      ],
      [
        "16",
        "J"
      ],
      [
        "16",
        "L"
      ],
      [
        "16",
        "M"
      ],
      [
        "16",
        "N"
      ],
      [
        "16",
        "O"
      ],
      [
        "16",
        "P"
      ],
      [
        "16",
        "R"
      ],
      [
        "16",
        "S"
      ],
      [
        "16",
        "U"
      ],
      [
        "16",
        "V"
      ],
      [
        "16",
        "Y"
      ],
      [
        "16",
        "Z"
      ],
      [
        "M",
        "a"
      ],
      [
        "10",
        "K"
      ],
      [
        "3",
        "K"
      ],
      [
        "5",
        "K"
      ],
      [
        "7",
        "K"
      ],
      [
        "9",
        "K"
      ],
      [
        "11",
        "K"
      ],
      [
        "10",
        "A"
      ],
      [
        "10",
        "B"
      ],
      [
        "10",
        "D"
      ],
      [
        "10",
        "E"
      ],
      [
        "10",
        "G"
      ],
      [
        "10",
        "H"
      ],
      [
        "10",
        "J"
      ],
      [
        "10",
        "L"
      ],
      [
        "10",
        "M"
      ],
      [
        "10",
        "N"
      ],
      [
        "10",
        "O"
      ],
      [
        "10",
        "P"
      ],
      [
        "10",
        "R"
      ],
      [
        "10",
        "S"
      ],
      [
        "10",
        "U"
      ],
      [
        "10",
        "V"
      ],
      [
        "10",
        "Y"
      ],
      [
        "10",
        "Z"
      ],
      [
        "3",
        "A"
      ],
      [
        "3",
        "B"
      ],
      [
        "3",
        "D"
      ],
      [
        "3",
        "E"
      ],
      [
        "3",
        "G"
      ],
      [
        "3",
        "H"
      ],
      [
        "3",
        "J"
      ],
      [
        "3",
        "L"
      ],
      [
        "3",
        "M"
      ],
      [
        "3",
        "N"
      ],
      [
        "3",
        "O"
      ],
      [
        "3",
        "P"
      ],
      [
        "3",
        "R"
      ],
      [
        "3",
        "S"
      ],
      [
        "3",
        "U"
      ],
      [
        "3",
        "V"
      ],
      [
        "3",
        "Y"
      ],
      [
        "3",
        "Z"
      ],
      [
        "5",
        "A"
      ],
      [
        "5",
        "B"
      ],
      [
        "5",
        "D"
      ],
      [
        "5",
        "E"
      ],
      [
        "5",
        "G"
      ],
      [
        "5",
        "H"
      ],
      [
        "5",
        "J"
      ],
      [
        "5",
        "L"
      ],
      [
        "5",
        "M"
      ],
      [
        "5",
        "N"
      ],
      [
        "5",
        "O"
      ],
      [
        "5",
        "P"
      ],
      [
        "5",
        "R"
      ],
      [
        "5",
        "S"
      ],
      [
        "5",
        "U"
      ],
      [
        "5",
        "V"
      ],
      [
        "5",
        "Y"
      ],
      [
        "5",
        "Z"
      ],
      [
        "7",
        "A"
      ],
      [
        "7",
        "B"
      ],
      [
        "7",
        "D"
      ],
      [
        "7",
        "E"
      ],
      [
        "7",
        "G"
      ],
      [
        "7",
        "H"
      ],
      [
        "7",
        "J"
      ],
      [
        "7",
        "L"
      ],
      [
        "7",
        "M"
      ],
      [
        "7",
        "N"
      ],
      [
        "7",
        "O"
      ],
      [
        "7",
        "P"
      ],
      [
        "7",
        "R"
      ],
      [
        "7",
        "S"
      ],
      [
        "7",
        "U"
      ],
      [
        "7",
        "V"
      ],
      [
        "7",
        "Y"
      ],
      [
        "7",
        "Z"
      ],
      [
        "9",
        "A"
      ],
      [
        "9",
        "B"
      ],
      [
        "9",
        "D"
      ],
      [
        "9",
        "E"
      ],
      [
        "9",
        "G"
      ],
      [
        "9",
        "H"
      ],
      [
        "9",
        "J"
      ],
      [
        "9",
        "L"
      ],
      [
        "9",
        "M"
      ],
      [
        "9",
        "N"
      ],
      [
        "9",
        "O"
      ],
      [
        "9",
        "P"
      ],
      [
        "9",
        "R"
      ],
      [
        "9",
        "S"
      ],
      [
        "9",
        "U"
      ],
      [
        "9",
        "V"
      ],
      [
        "9",
        "Y"
      ],
      [
        "9",
        "Z"
      ],
      [
        "C",
        "reate"
      ],
      [
        "D",
        "raw"
      ],
      [
        "G",
        "en"
      ],
      [
        "P",
        "aint"
      ],
      [
        "Re",
        "nder"
      ],
      [
        "11",
        "A"
      ],
      [
        "11",
        "B"
      ],
      [
        "11",
        "D"
      ],
      [
        "11",
        "E"
      ],
      [
        "11",
        "G"
      ],
      [
        "11",
        "H"
      ],
      [
        "11",
        "J"
      ],
      [
        "11",
        "L"
      ],
      [
        "11",
        "M"
      ],
      [
        "11",
        "N"
      ],
      [
        "11",
        "O"
      ],
      [
        "11",
        "P"
      ],
      [
        "11",
        "R"
      ],
      [
        "11",
        "S"
      ],
      [
        "11",
        "U"
      ],
      [
        "11",
        "V"
      ],
      [
        "11",
        "Y"
      ],
      [
        "11",
        "Z"
      ],
      [
        "Ma",
        "ke"
      ],
      [
        "Gen",
        "erate"
      ],
      [
        "2",
        "K"
      ],
      [
        "12",
        "K"
      ],
      [
        "13",
        "K"
      ],
      [
        "2",
        "A"
      ],
      [
        "2",
        "B"
      ],
      [
        "2",
        "D"
      ],
      [
        "2",
        "E"
      ],
      [
        "2",
        "G"
      ],
      [
        "2",
        "H"
      ],
      [
        "2",
        "J"
      ],
      [
        "2",
        "L"
      ],
      [
        "2",
        "M"
      ],
      [
        "2",
        "N"
      ],
      [
        "2",
        "O"
      ],
      [
        "2",
        "P"
      ],
      [
        "2",
        "R"
      ],
      [
        "2",
        "S"
      ],
      [
        "2",
        "U"
      ],
      [
        "2",
        "V"
      ],
      [
        "2",
        "Y"
      ],
      [
        "2",
        "Z"
      ],
      [
        "12",
        "A"
      ],
      [
        "12",
        "B"
      ],
      [
        "12",
        "D"
      ],
      [
        "12",
        "E"
      ],
      [
        "12",
        "G"
      ],
      [
        "12",
        "H"
      ],
      [
        "12",
        "J"
      ],
      [
        "12",
        "L"
      ],
      [
        "12",
        "M"
      ],
      [
        "12",
        "N"
      ],
      [
        "12",
        "O"
      ],
      [
        "12",
        "P"
      ],
      [
        "12",
        "R"
      ],
      [
        "12",
        "S"
      ],
      [
        "12",
        "U"
      ],
      [
        "12",
        "V"
      ],
      [
        "12",
        "Y"
      ],
      [
        "12",
        "Z"
      ],
      [
        "13",
        "A"
      ],
      [
        "13",
        "B"
      ],
      [
        "13",
        "D"
      ],
      [
        "13",
        "E"
      ],
      [
        "13",
        "G"
      ],
      [
        "13",
        "H"
      ],
      [
        "13",
        "J"
      ],
      [
        "13",
        "L"
      ],
      [
        "13",
        "M"
      ],
      [
        "13",
        "N"
      ],
      [
        "13",
        "O"
      ],
      [
        "13",
        "P"
      ],
      [
        "13",
        "R"
      ],
      [
        "13",
        "S"
      ],
      [
        "13",
        "U"
      ],
      [
        "13",
        "V"
      ],
      [
        "13",
        "Y"
      ],
      [
        "13",
        "Z"
      ],
      [
        "15",
        "K"
      ],
      [
        "15",
        "A"
      ],
      [
        "15",
        "B"
      ],
      [
        "15",
        "D"
      ],
      [
        "15",
        "E"
      ],
      [
        "15",
        "G"
      ],
      [
        "15",
        "H"
      ],
      [
        "15",
        "J"
      ],
      [
        "15",
        "L"
      ],
      [
        "15",
        "M"
      ],
      [
        "15",
        "N"
      ],
      [
        "15",
        "O"
      ],
      [
        "15",
        "P"
      ],
      [
        "15",
        "R"
      ],
      [
        "15",
        "S"
      ],
      [
        "15",
        "U"
      ],
      [
        "15",
        "V"
      ],
      [
        "15",
        "Y"
      ],
      [
        "15",
        "Z"
      ],
      [
        "H",
        "ollow"
      ],
      [
        "B",
        "order"
      ],
      [
        "C",
        "h"
      ],
      [
        "C",
        "ross"
      ],
      [
        "D",
        "iamond"
      ],
      [
        "H",
        "orizontal"
      ],
      [
        "S",
        "quare"
      ],
      [
        "T",
        "ri"
      ],
      [
        "Ch",
        "eckerboard"
      ],
      [
        "Tri",
        "angle"
      ],
      [
        "B",
        "l"
      ],
      [
        "B",
        "e"
      ],
      [
        "B",
        "rown"
      ],
      [
        "G",
        "reen"
      ],
      [
        "G",
        "old"
      ],
      [
        "G",
        "ray"
      ],
      [
        "L",
        "ime"
      ],
      [
        "M",
        "int"
      ],
      [
        "N",
        "avy"
      ],
      [
        "O",
        "l"
      ],
      [
        "O",
        "r"
      ],
      [
        "P",
        "urple"
      ],
      [
        "P",
        "ink"
      ],
      [
        "S",
        "i"
      ],
      [
        "S",
        "ky"
      ],
      [
        "W",
        "hite"
      ],
      [
        "Y",
        "ellow"
      ],
      [
        "Re",
        "d"
      ],
      [
        "Ma",
        "genta"
      ],
      [
        "Bl",
        "ue"
      ],
      [
        "Bl",
        "ack"
      ],
      [
        "Be",
        "ige"
      ],
      [
        "Ol",
        "ive"
      ],
      [
        "Or",
        "ange"
      ],
      [
        "Si",
        "lver"
      ]
    ]
  }
}